{
  "version": "1.0",
  "truncation": null,
  "padding": null,
  "added_tokens": [
    {
      "id": 0,
      "content": "[PAD]",
      "single_word": false,
      "lstrip": false,
      "rstrip": false,
      "normalized": false,
      "special": true
    },
    {
      "id": 1,
      "content": "[UNK]",
      "single_word": false,
      "lstrip": false,
      "rstrip": false,
      "normalized": false,
      "special": true
    },
    {
      "id": 2,
      "content": "[CLS]",
      "single_word": false,
      "lstrip": false,
      "rstrip": false,
      "normalized": false,
      "special": true
    },
    {
      "id": 3,
      "content": "[SEP]",
      "single_word": false,
      "lstrip": false,
      "rstrip": false,
      "normalized": false,
      "special": true
    },
    {
      "id": 4,
      "content": "[MASK]",
      "single_word": false,
      "lstrip": false,
      "rstrip": false,
      "normalized": false,
      "special": true
    }
  ],
  "normalizer": {
    "type": "BertNormalizer",
    "clean_text": true,
    "handle_chinese_chars": true,
    "strip_accents": null,
    "lowercase": false
  },
  "pre_tokenizer": {
    "type": "BertPreTokenizer"
  },
  "post_processor": {
    "type": "TemplateProcessing",
    "single": [
      {
        "SpecialToken": {
          "id": "[CLS]",
          "type_id": 0
        }
      },
      {
        "Sequence": {
          "id": "A",
          "type_id": 0
        }
      },
      {
        "SpecialToken": {
          "id": "[SEP]",
          "type_id": 0
        }
      }
    ],
    "pair": [
      {
        "SpecialToken": {
          "id": "[CLS]",
          "type_id": 0
        }
      },
      {
        "Sequence": {
          "id": "A",
          "type_id": 0
        }
      },
      {
        "SpecialToken": {
          "id": "[SEP]",
          "type_id": 0
        }
      },
      {
        "Sequence": {
          "id": "B",
          "type_id": 1
        }
      },
      {
        "SpecialToken": {
          "id": "[SEP]",
          "type_id": 1
        }
      }
    ],
    "special_tokens": {
      "[CLS]": {
        "id": "[CLS]",
        "ids": [
          2
        ],
        "tokens": [
          "[CLS]"
        ]
      },
      "[SEP]": {
        "id": "[SEP]",
        "ids": [
          3
        ],
        "tokens": [
          "[SEP]"
        ]
      }
    }
  },
  "decoder": {
    "type": "WordPiece",
    "prefix": "##",
    "cleanup": true
  },
  "model": {
    "type": "WordPiece",
    "unk_token": "[UNK]",
    "continuing_subword_prefix": "##",
    "max_input_chars_per_word": 100,
    "vocab": {
      "[PAD]": 0,
      "[UNK]": 1,
      "[CLS]": 2,
      "[SEP]": 3,
      "[MASK]": 4,
      "!": 5,
      "$": 6,
      "%": 7,
      "(": 8,
      ")": 9,
      "+": 10,
      ",": 11,
      "-": 12,
      ".": 13,
      "/": 14,
      ":": 15,
      "<": 16,
      "=": 17,
      ">": 18,
      "?": 19,
      "@": 20,
      "R": 21,
      "Y": 22,
      "Z": 23,
      "a": 24,
      "b": 25,
      "c": 26,
      "d": 27,
      "e": 28,
      "f": 29,
      "g": 30,
      "h": 31,
      "i": 32,
      "j": 33,
      "k": 34,
      "l": 35,
      "m": 36,
      "n": 37,
      "o": 38,
      "p": 39,
      "q": 40,
      "r": 41,
      "s": 42,
      "t": 43,
      "u": 44,
      "v": 45,
      "w": 46,
      "x": 47,
      "y": 48,
      "z": 49,
      "|": 50,
      "##a": 51,
      "##r": 52,
      "##c": 53,
      "##i": 54,
      "##s": 55,
      "##p": 56,
      "##o": 57,
      "##n": 58,
      "##b": 59,
      "##z": 60,
      "##l": 61,
      "##f": 62,
      "##e": 63,
      "##v": 64,
      "##h": 65,
      "##u": 66,
      "##g": 67,
      "##j": 68,
      "##t": 69,
      "##d": 70,
      "##m": 71,
      "##y": 72,
      "##q": 73,
      "##x": 74,
      "##w": 75,
      "##k": 76,
      "##Y": 77,
      "##er": 78,
      "##nt": 79,
      "de": 80,
      "##ra": 81,
      "##os": 82,
      "##ca": 83,
      "##es": 84,
      "##ta": 85,
      "co": 86,
      "##or": 87,
      "##ent": 88,
      "##ci": 89,
      "##da": 90,
      "##um": 91,
      "##cao": 92,
      "##is": 93,
      "num": 94,
      "##do": 95,
      "##en": 96,
      "##al": 97,
      "pr": 98,
      "##ber": 99,
      "da": 100,
      "number": 101,
      "do": 102,
      "##ti": 103,
      "##ment": 104,
      "##ar": 105,
      "##co": 106,
      "##as": 107,
      "re": 108,
      "cont": 109,
      "com": 110,
      "##to": 111,
      "qu": 112,
      "##ara": 113,
      "ser": 114,
      "##te": 115,
      "##ica": 116,
      "##el": 117,
      "em": 118,
      "##in": 119,
      "##ec": 120,
      "##ao": 121,
      "##ida": 122,
      "contra": 123,
      "##ri": 124,
      "se": 125,
      "##ei": 126,
      "##de": 127,
      "con": 128,
      "no": 129,
      "##dos": 130,
      "##ici": 131,
      "##ro": 132,
      "para": 133,
      "es": 134,
      "##an": 135,
      "##re": 136,
      "in": 137,
      "##di": 138,
      "##mento": 139,
      "as": 140,
      "##acao": 141,
      "pro": 142,
      "ou": 143,
      "##ma": 144,
      "##qu": 145,
      "##vi": 146,
      "##on": 147,
      "que": 148,
      "##nte": 149,
      "##tu": 150,
      "##coes": 151,
      "des": 152,
      "contrata": 153,
      "##enci": 154,
      "##ia": 155,
      "##iz": 156,
      "pre": 157,
      "ex": 158,
      "##res": 159,
      "##em": 160,
      "##ada": 161,
      "##tiv": 162,
      "os": 163,
      "##us": 164,
      "##ul": 165,
      "por": 166,
      "ob": 167,
      "##era": 168,
      "##idade": 169,
      "##eci": 170,
      "##ess": 171,
      "dev": 172,
      "##pres": 173,
      "pel": 174,
      "dos": 175,
      "##il": 176,
      "##icita": 177,
      "su": 178,
      "##un": 179,
      "##pos": 180,
      "na": 181,
      "servi": 182,
      "##ga": 183,
      "##io": 184,
      "##ist": 185,
      "##ente": 186,
      "for": 187,
      "##encia": 188,
      "##fica": 189,
      "##tal": 190,
      "##mo": 191,
      "##cos": 192,
      "ma": 193,
      "di": 194,
      "##mente": 195,
      "licita": 196,
      "so": 197,
      "##me": 198,
      "##ter": 199,
      "##ado": 200,
      "##ero": 201,
      "numero": 202,
      "##for": 203,
      "##tos": 204,
      "##le": 205,
      "comp": 206,
      "res": 207,
      "##ab": 208,
      "##je": 209,
      "##fer": 210,
      "esta": 211,
      "cons": 212,
      "ter": 213,
      "##tor": 214,
      "##ce": 215,
      "##ten": 216,
      "##gu": 217,
      "to": 218,
      "an": 219,
      "##min": 220,
      "##mp": 221,
      "servicos": 222,
      "contrato": 223,
      "pres": 224,
      "das": 225,
      "pra": 226,
      "##der": 227,
      "en": 228,
      "##ados": 229,
      "nao": 230,
      "obje": 231,
      "ao": 232,
      "##ais": 233,
      "reg": 234,
      "##ras": 235,
      "##go": 236,
      "##cor": 237,
      "##das": 238,
      "##iv": 239,
      "##ucao": 240,
      "##ig": 241,
      "contratada": 242,
      "##ant": 243,
      "praz": 244,
      "ent": 245,
      "##cl": 246,
      "par": 247,
      "ad": 248,
      "po": 249,
      "objeto": 250,
      "esp": 251,
      "per": 252,
      "##ico": 253,
      "##ita": 254,
      "tra": 255,
      "##present": 256,
      "pela": 257,
      "ins": 258,
      "##endo": 259,
      "##pa": 260,
      "##pon": 261,
      "devera": 262,
      "##des": 263,
      "##dor": 264,
      "exec": 265,
      "##tas": 266,
      "##tura": 267,
      "confor": 268,
      "prazo": 269,
      "especi": 270,
      "##ando": 271,
      "sera": 272,
      "##aliz": 273,
      "val": 274,
      "pelo": 275,
      "##cal": 276,
      "pa": 277,
      "ap": 278,
      "al": 279,
      "ass": 280,
      "qual": 281,
      "entre": 282,
      "ar": 283,
      "##ha": 284,
      "##ir": 285,
      "ca": 286,
      "edi": 287,
      "##ex": 288,
      "forn": 289,
      "##istra": 290,
      "##idades": 291,
      "empres": 292,
      "mo": 293,
      "##ument": 294,
      "propos": 295,
      "##la": 296,
      "##du": 297,
      "##lica": 298,
      "ho": 299,
      "refer": 300,
      "##tr": 301,
      "##nter": 302,
      "edital": 303,
      "##mentos": 304,
      "##im": 305,
      "##ntes": 306,
      "dis": 307,
      "apresent": 308,
      "conforme": 309,
      "##icao": 310,
      "mun": 311,
      "##entes": 312,
      "##cion": 313,
      "##icip": 314,
      "##tro": 315,
      "##adas": 316,
      "municip": 317,
      "or": 318,
      "fis": 319,
      "##qui": 320,
      "##bi": 321,
      "como": 322,
      "##gra": 323,
      "cor": 324,
      "##ecess": 325,
      "necess": 326,
      "cas": 327,
      "##so": 328,
      "##ifica": 329,
      "lei": 330,
      "un": 331,
      "tec": 332,
      "##po": 333,
      "tecn": 334,
      "me": 335,
      "valor": 336,
      "##tem": 337,
      "prec": 338,
      "termo": 339,
      "execucao": 340,
      "##ho": 341,
      "##sa": 342,
      "lo": 343,
      "##esso": 344,
      "##tes": 345,
      "##quer": 346,
      "##ur": 347,
      "##tra": 348,
      "anex": 349,
      "ele": 350,
      "##ios": 351,
      "fa": 352,
      "##vis": 353,
      "##abil": 354,
      "nos": 355,
      "##tiva": 356,
      "precos": 357,
      "##ub": 358,
      "especifica": 359,
      "admin": 360,
      "administra": 361,
      "mater": 362,
      "empresa": 363,
      "mes": 364,
      "##lo": 365,
      "segu": 366,
      "dias": 367,
      "contratante": 368,
      "ac": 369,
      "deste": 370,
      "##quis": 371,
      "proposta": 372,
      "##tivo": 373,
      "licitacao": 374,
      "pos": 375,
      "equi": 376,
      "##izacao": 377,
      "licitante": 378,
      "fiscal": 379,
      "aten": 380,
      "##dica": 381,
      "au": 382,
      "##ja": 383,
      "sol": 384,
      "##ior": 385,
      "##ens": 386,
      "quant": 387,
      "##cri": 388,
      "caso": 389,
      "##fei": 390,
      "inter": 391,
      "##eiro": 392,
      "doc": 393,
      "##corr": 394,
      "realiz": 395,
      "##gao": 396,
      "##tacao": 397,
      "document": 398,
      "forneci": 399,
      "##bal": 400,
      "respon": 401,
      "condi": 402,
      "arti": 403,
      "min": 404,
      "presente": 405,
      "##erao": 406,
      "##cul": 407,
      "pub": 408,
      "ate": 409,
      "##pri": 410,
      "##dera": 411,
      "contratacao": 412,
      "referencia": 413,
      "##vo": 414,
      "sua": 415,
      "artigo": 416,
      "servico": 417,
      "sob": 418,
      "sub": 419,
      "##idas": 420,
      "##mos": 421,
      "equipa": 422,
      "regist": 423,
      "##tar": 424,
      "parti": 425,
      "##ura": 426,
      "condicoes": 427,
      "##rov": 428,
      "rece": 429,
      "sem": 430,
      "##ria": 431,
      "##iss": 432,
      "man": 433,
      "##reta": 434,
      "##ante": 435,
      "le": 436,
      "##bel": 437,
      "nes": 438,
      "sis": 439,
      "registro": 440,
      "##titu": 441,
      "##tica": 442,
      "qualquer": 443,
      "serao": 444,
      "##pen": 445,
      "eletro": 446,
      "estabel": 447,
      "deverao": 448,
      "fun": 449,
      "imp": 450,
      "item": 451,
      "##ui": 452,
      "forma": 453,
      "##ina": 454,
      "##vel": 455,
      "##ndo": 456,
      "especificacoes": 457,
      "##ix": 458,
      "anexo": 459,
      "##tado": 460,
      "##bil": 461,
      "##eis": 462,
      "##gamento": 463,
      "eletron": 464,
      "##imo": 465,
      "apos": 466,
      "estabeleci": 467,
      "##fe": 468,
      "necessar": 469,
      "data": 470,
      "obri": 471,
      "##iti": 472,
      "##ns": 473,
      "previs": 474,
      "neste": 475,
      "ju": 476,
      "municipal": 477,
      "##tema": 478,
      "fin": 479,
      "sistema": 480,
      "##per": 481,
      "pe": 482,
      "proc": 483,
      "consta": 484,
      "##vent": 485,
      "medi": 486,
      "##ju": 487,
      "##ias": 488,
      "##til": 489,
      "##cordo": 490,
      "exig": 491,
      "administracao": 492,
      "##encias": 493,
      "infor": 494,
      "aquis": 495,
      "recebi": 496,
      "##por": 497,
      "solicita": 498,
      "rec": 499,
      "##ver": 500,
      "fornecimento": 501,
      "aplica": 502,
      "trabal": 503,
      "tecnica": 504,
      "##erv": 505,
      "seus": 506,
      "produ": 507,
      "##eira": 508,
      "def": 509,
      "aos": 510,
      "podera": 511,
      "si": 512,
      "preco": 513,
      "##no": 514,
      "##ial": 515,
      "trans": 516,
      "##ran": 517,
      "util": 518,
      "tem": 519,
      "gara": 520,
      "entrega": 521,
      "##tados": 522,
      "##iais": 523,
      "um": 524,
      "pl": 525,
      "aquisicao": 526,
      "##eito": 527,
      "comprov": 528,
      "##clus": 529,
      "ven": 530,
      "pregao": 531,
      "garant": 532,
      "##tivos": 533,
      "acordo": 534,
      "##pe": 535,
      "quando": 536,
      "pagamento": 537,
      "equipamentos": 538,
      "##amento": 539,
      "##tifica": 540,
      "todos": 541,
      "cer": 542,
      "subs": 543,
      "manu": 544,
      "##rio": 545,
      "##ros": 546,
      "rela": 547,
      "##pes": 548,
      "materiais": 549,
      "efe": 550,
      "recebimento": 551,
      "publica": 552,
      "##torio": 553,
      "instr": 554,
      "##fici": 555,
      "vig": 556,
      "##ass": 557,
      "eletronico": 558,
      "##cip": 559,
      "pi": 560,
      "nas": 561,
      "##ificacao": 562,
      "##man": 563,
      "fe": 564,
      "bem": 565,
      "total": 566,
      "##aria": 567,
      "##ido": 568,
      "##graf": 569,
      "seja": 570,
      "##ora": 571,
      "obriga": 572,
      "##dimento": 573,
      "##ular": 574,
      "##tencao": 575,
      "aco": 576,
      "##gem": 577,
      "##eio": 578,
      "##ion": 579,
      "ab": 580,
      "##ves": 581,
      "ver": 582,
      "car": 583,
      "poss": 584,
      "ger": 585,
      "##ele": 586,
      "sec": 587,
      "prestacao": 588,
      "##ol": 589,
      "vis": 590,
      "##tens": 591,
      "sa": 592,
      "##almente": 593,
      "##sabil": 594,
      "##abilita": 595,
      "##na": 596,
      "##mais": 597,
      "##ula": 598,
      "seu": 599,
      "nota": 600,
      "material": 601,
      "##rib": 602,
      "fornec": 603,
      "responsabil": 604,
      "resp": 605,
      "##ipo": 606,
      "##car": 607,
      "event": 608,
      "dispos": 609,
      "##dores": 610,
      "decl": 611,
      "##nto": 612,
      "##cas": 613,
      "li": 614,
      "segui": 615,
      "##anc": 616,
      "instal": 617,
      "nor": 618,
      "local": 619,
      "apresentar": 620,
      "cum": 621,
      "##eita": 622,
      "municipio": 623,
      "secreta": 624,
      "##ibil": 625,
      "paragraf": 626,
      "pen": 627,
      "dia": 628,
      "processo": 629,
      "##sos": 630,
      "este": 631,
      "declara": 632,
      "todas": 633,
      "desta": 634,
      "ata": 635,
      "##tras": 636,
      "uma": 637,
      "obs": 638,
      "cl": 639,
      "##pre": 640,
      "##cional": 641,
      "manutencao": 642,
      "pesso": 643,
      "informa": 644,
      "##icos": 645,
      "##issao": 646,
      "paragrafo": 647,
      "feder": 648,
      "autor": 649,
      "mediante": 650,
      "##mas": 651,
      "vence": 652,
      "##clusiv": 653,
      "despes": 654,
      "##dem": 655,
      "meio": 656,
      "federal": 657,
      "sobre": 658,
      "max": 659,
      "##am": 660,
      "execu": 661,
      "leg": 662,
      "demais": 663,
      "decorr": 664,
      "perio": 665,
      "##dente": 666,
      "dura": 667,
      "##dade": 668,
      "super": 669,
      "indica": 670,
      "documentos": 671,
      "habilita": 672,
      "sendo": 673,
      "defin": 674,
      "san": 675,
      "##cre": 676,
      "prego": 677,
      "dir": 678,
      "observ": 679,
      "##tin": 680,
      "##amente": 681,
      "cada": 682,
      "##et": 683,
      "recur": 684,
      "instrument": 685,
      "atender": 686,
      "inte": 687,
      "##cial": 688,
      "horas": 689,
      "consi": 690,
      "##teis": 691,
      "men": 692,
      "contratu": 693,
      "ocorr": 694,
      "atra": 695,
      "##lacao": 696,
      "itens": 697,
      "##idos": 698,
      "quais": 699,
      "##acoes": 700,
      "##ulta": 701,
      "garantia": 702,
      "devida": 703,
      "substitu": 704,
      "descri": 705,
      "conta": 706,
      "##mpan": 707,
      "atraves": 708,
      "uteis": 709,
      "##tri": 710,
      "efetu": 711,
      "comple": 712,
      "sao": 713,
      "esti": 714,
      "termos": 715,
      "on": 716,
      "empre": 717,
      "ag": 718,
      "durante": 719,
      "##tivas": 720,
      "##dencia": 721,
      "##dora": 722,
      "acompan": 723,
      "maximo": 724,
      "jus": 725,
      "fica": 726,
      "cumpri": 727,
      "cus": 728,
      "estado": 729,
      "secretaria": 730,
      "partir": 731,
      "comun": 732,
      "ori": 733,
      "##tros": 734,
      "inci": 735,
      "##va": 736,
      "integra": 737,
      "hora": 738,
      "plan": 739,
      "prefei": 740,
      "eventu": 741,
      "instrumento": 742,
      "bas": 743,
      "cri": 744,
      "respec": 745,
      "suas": 746,
      "ofer": 747,
      "##cia": 748,
      "vei": 749,
      "veicul": 750,
      "anexos": 751,
      "ativ": 752,
      "utiliz": 753,
      "parte": 754,
      "##ario": 755,
      "##log": 756,
      "pregoeiro": 757,
      "##pi": 758,
      "direito": 759,
      "am": 760,
      "##rica": 761,
      "previ": 762,
      "particip": 763,
      "assina": 764,
      "el": 765,
      "inici": 766,
      "represent": 767,
      "apresentacao": 768,
      "periodo": 769,
      "##dici": 770,
      "form": 771,
      "constantes": 772,
      "dispon": 773,
      "responsa": 774,
      "poder": 775,
      "proce": 776,
      "##arios": 777,
      "habilitacao": 778,
      "devidamente": 779,
      "publ": 780,
      "ra": 781,
      "##porte": 782,
      "preju": 783,
      "fiscalizacao": 784,
      "ordem": 785,
      "produtos": 786,
      "##ven": 787,
      "previstas": 788,
      "hour": 789,
      "trabalho": 790,
      "meses": 791,
      "seguintes": 792,
      "im": 793,
      "cre": 794,
      "indi": 795,
      "assinatura": 796,
      "ates": 797,
      "prefeitura": 798,
      "##bra": 799,
      "##gos": 800,
      "cent": 801,
      "##penho": 802,
      "corr": 803,
      "##miti": 804,
      "##ude": 805,
      "responsabilidade": 806,
      "##indo": 807,
      "##dendo": 808,
      "##creto": 809,
      "atu": 810,
      "op": 811,
      "emprega": 812,
      "comunica": 813,
      "atendimento": 814,
      "fab": 815,
      "la": 816,
      "mar": 817,
      "cla": 818,
      "ha": 819,
      "ba": 820,
      "##cacao": 821,
      "##ivel": 822,
      "funcion": 823,
      "mais": 824,
      "fabrica": 825,
      "regular": 826,
      "claus": 827,
      "pia": 828,
      "ban": 829,
      "contados": 830,
      "acei": 831,
      "despesas": 832,
      "##ranca": 833,
      "##sao": 834,
      "##dent": 835,
      "deve": 836,
      "##gar": 837,
      "piaui": 838,
      "propri": 839,
      "##medi": 840,
      "orgao": 841,
      "##midade": 842,
      "decreto": 843,
      "##veis": 844,
      "fo": 845,
      "prejuiz": 846,
      "##ru": 847,
      "fornece": 848,
      "prof": 849,
      "##ela": 850,
      "responsavel": 851,
      "##inda": 852,
      "ident": 853,
      "minimo": 854,
      "mod": 855,
      "estabelecidas": 856,
      "class": 857,
      "obrigacoes": 858,
      "##za": 859,
      "informacoes": 860,
      "interess": 861,
      "ender": 862,
      "##oria": 863,
      "##ixo": 864,
      "##ign": 865,
      "vigencia": 866,
      "recursos": 867,
      "propostas": 868,
      "##ic": 869,
      "convo": 870,
      "saude": 871,
      "##abora": 872,
      "cara": 873,
      "##jus": 874,
      "orca": 875,
      "qualidade": 876,
      "##gura": 877,
      "fal": 878,
      "ainda": 879,
      "##col": 880,
      "vencedora": 881,
      "quaisquer": 882,
      "ro": 883,
      "contratado": 884,
      "proje": 885,
      "##cont": 886,
      "registra": 887,
      "tipo": 888,
      "ges": 889,
      "contratual": 890,
      "quantidades": 891,
      "##elo": 892,
      "##val": 893,
      "##iao": 894,
      "prim": 895,
      "desde": 896,
      "sal": 897,
      "##toria": 898,
      "##mentar": 899,
      "faz": 900,
      "##erci": 901,
      "##essao": 902,
      "conformidade": 903,
      "exigencias": 904,
      "publico": 905,
      "##ission": 906,
      "empresas": 907,
      "tecnico": 908,
      "##eco": 909,
      "cab": 910,
      "entregu": 911,
      "mesmo": 912,
      "enca": 913,
      "capa": 914,
      "conf": 915,
      "##izar": 916,
      "menor": 917,
      "cumprimento": 918,
      "##ad": 919,
      "estima": 920,
      "uso": 921,
      "serem": 922,
      "licitantes": 923,
      "##eiros": 924,
      "trabalh": 925,
      "dent": 926,
      "##vol": 927,
      "requis": 928,
      "emiti": 929,
      "##cado": 930,
      "via": 931,
      "##has": 932,
      "realizacao": 933,
      "pelos": 934,
      "##eno": 935,
      "declaracao": 936,
      "##ticas": 937,
      "aber": 938,
      "assin": 939,
      "profission": 940,
      "##ribu": 941,
      "criter": 942,
      "aci": 943,
      "endereco": 944,
      "corre": 945,
      "documentacao": 946,
      "tele": 947,
      "dados": 948,
      "encamin": 949,
      "disponibil": 950,
      "##enh": 951,
      "necessarios": 952,
      "##iveis": 953,
      "bo": 954,
      "ce": 955,
      "poderao": 956,
      "superior": 957,
      "##ima": 958,
      "##hamento": 959,
      "aplicacao": 960,
      "consider": 961,
      "##denci": 962,
      "##icoes": 963,
      "ofici": 964,
      "##tada": 965,
      "##cter": 966,
      "##que": 967,
      "ci": 968,
      "decorrentes": 969,
      "valores": 970,
      "terc": 971,
      "##enha": 972,
      "outros": 973,
      "ambi": 974,
      "ne": 975,
      "##antes": 976,
      "##dequ": 977,
      "##tent": 978,
      "acompanh": 979,
      "##den": 980,
      "equipamento": 981,
      "##fon": 982,
      "aba": 983,
      "devendo": 984,
      "cn": 985,
      "##istencia": 986,
      "caracter": 987,
      "##elh": 988,
      "envi": 989,
      "##cais": 990,
      "atividades": 991,
      "##ito": 992,
      "penal": 993,
      "##tera": 994,
      "contro": 995,
      "##dido": 996,
      "##erra": 997,
      "instalacao": 998,
      "gra": 999,
      "normas": 1000,
      "necessidades": 1001,
      "cu": 1002,
      "ato": 1003,
      "necessidade": 1004,
      "anal": 1005,
      "certa": 1006,
      "##cio": 1007,
      "rep": 1008,
      "##amb": 1009,
      "us": 1010,
      "validade": 1011,
      "seguranca": 1012,
      "##respon": 1013,
      "correspon": 1014,
      "abaixo": 1015,
      "deter": 1016,
      "capaci": 1017,
      "certame": 1018,
      "seg": 1019,
      "tecnicas": 1020,
      "empenho": 1021,
      "jul": 1022,
      "porta": 1023,
      "custos": 1024,
      "situ": 1025,
      "##se": 1026,
      "perman": 1027,
      "telefon": 1028,
      "lim": 1029,
      "sancoes": 1030,
      "##gacao": 1031,
      "bras": 1032,
      "subi": 1033,
      "financ": 1034,
      "horario": 1035,
      "produto": 1036,
      "justifica": 1037,
      "juri": 1038,
      "quanto": 1039,
      "incl": 1040,
      "compet": 1041,
      "permiti": 1042,
      "ve": 1043,
      "tempo": 1044,
      "##if": 1045,
      "legis": 1046,
      "determin": 1047,
      "cha": 1048,
      "brasil": 1049,
      "disposto": 1050,
      "documento": 1051,
      "base": 1052,
      "inclusiv": 1053,
      "exclusiv": 1054,
      "##feito": 1055,
      "inclusive": 1056,
      "##utura": 1057,
      "deman": 1058,
      "ta": 1059,
      "empregados": 1060,
      "sus": 1061,
      "clausula": 1062,
      "mic": 1063,
      "solicitacao": 1064,
      "##orro": 1065,
      "##tao": 1066,
      "sede": 1067,
      "quantita": 1068,
      "cadas": 1069,
      "##alizada": 1070,
      "podendo": 1071,
      "design": 1072,
      "##uir": 1073,
      "final": 1074,
      "prejuizo": 1075,
      "##li": 1076,
      "transporte": 1077,
      "##nos": 1078,
      "compa": 1079,
      "veiculos": 1080,
      "nome": 1081,
      "deci": 1082,
      "##he": 1083,
      "trata": 1084,
      "geral": 1085,
      "##mon": 1086,
      "##gin": 1087,
      "dentro": 1088,
      "analis": 1089,
      "fatura": 1090,
      "##enda": 1091,
      "assim": 1092,
      "verifica": 1093,
      "modelo": 1094,
      "##ecer": 1095,
      "unidade": 1096,
      "adequ": 1097,
      "juridica": 1098,
      "inde": 1099,
      "complementar": 1100,
      "multa": 1101,
      "##ne": 1102,
      "abertura": 1103,
      "##quiv": 1104,
      "sessao": 1105,
      "ur": 1106,
      "anter": 1107,
      "anterior": 1108,
      "hipo": 1109,
      "pecas": 1110,
      "camp": 1111,
      "##rem": 1112,
      "pessoa": 1113,
      "##ua": 1114,
      "todo": 1115,
      "igu": 1116,
      "tamb": 1117,
      "prorro": 1118,
      "nacional": 1119,
      "cop": 1120,
      "##ba": 1121,
      "comissao": 1122,
      "fix": 1123,
      "are": 1124,
      "date": 1125,
      "##tida": 1126,
      "altera": 1127,
      "dire": 1128,
      "encar": 1129,
      "##nta": 1130,
      "hipotes": 1131,
      "inf": 1132,
      "cnp": 1133,
      "segun": 1134,
      "mer": 1135,
      "inciso": 1136,
      "tambem": 1137,
      "expe": 1138,
      "quantidade": 1139,
      "mens": 1140,
      "atras": 1141,
      "bens": 1142,
      "##esa": 1143,
      "prazos": 1144,
      "comprovacao": 1145,
      "inform": 1146,
      "micro": 1147,
      "gerencia": 1148,
      "##heci": 1149,
      "contar": 1150,
      "escri": 1151,
      "necessario": 1152,
      "obra": 1153,
      "encaminh": 1154,
      "relacao": 1155,
      "##dual": 1156,
      "opera": 1157,
      "##dida": 1158,
      "acima": 1159,
      "##grama": 1160,
      "int": 1161,
      "##tivamente": 1162,
      "social": 1163,
      "cnpj": 1164,
      "estar": 1165,
      "cal": 1166,
      "legislacao": 1167,
      "ano": 1168,
      "exerci": 1169,
      "lanc": 1170,
      "projeto": 1171,
      "##contra": 1172,
      "auto": 1173,
      "institu": 1174,
      "imedi": 1175,
      "acesso": 1176,
      "constitu": 1177,
      "##pital": 1178,
      "alem": 1179,
      "hos": 1180,
      "vi": 1181,
      "##itos": 1182,
      "relacion": 1183,
      "##ite": 1184,
      "imedia": 1185,
      "ema": 1186,
      "aprov": 1187,
      "setor": 1188,
      "origin": 1189,
      "administrativo": 1190,
      "##terior": 1191,
      "estabelecido": 1192,
      "##ual": 1193,
      "funcionamento": 1194,
      "ti": 1195,
      "defini": 1196,
      "planil": 1197,
      "junto": 1198,
      "assum": 1199,
      "corri": 1200,
      "outras": 1201,
      "##rao": 1202,
      "desen": 1203,
      "caracteris": 1204,
      "criterio": 1205,
      "##ista": 1206,
      "fornecedor": 1207,
      "previsto": 1208,
      "ali": 1209,
      "fabricante": 1210,
      "impe": 1211,
      "ul": 1212,
      "email": 1213,
      "provi": 1214,
      "manter": 1215,
      "unita": 1216,
      "representante": 1217,
      "##fa": 1218,
      "substituicao": 1219,
      "du": 1220,
      "realizar": 1221,
      "##ares": 1222,
      "outro": 1223,
      "##izado": 1224,
      "##gens": 1225,
      "controle": 1226,
      "centro": 1227,
      "##ve": 1228,
      "##icas": 1229,
      "ir": 1230,
      "elabora": 1231,
      "indepen": 1232,
      "capacidade": 1233,
      "tenha": 1234,
      "detal": 1235,
      "##dencias": 1236,
      "subitem": 1237,
      "lances": 1238,
      "consum": 1239,
      "posterior": 1240,
      "sof": 1241,
      "pertin": 1242,
      "##pl": 1243,
      "solucao": 1244,
      "##anta": 1245,
      "glo": 1246,
      "alteracoes": 1247,
      "adju": 1248,
      "soci": 1249,
      "##bro": 1250,
      "encargos": 1251,
      "direta": 1252,
      "pequ": 1253,
      "##anto": 1254,
      "##pens": 1255,
      "porte": 1256,
      "##ancia": 1257,
      "desenvol": 1258,
      "somente": 1259,
      "eventual": 1260,
      "casos": 1261,
      "##mentacao": 1262,
      "##rios": 1263,
      "comunicacao": 1264,
      "atraso": 1265,
      "competente": 1266,
      "##alizacao": 1267,
      "usu": 1268,
      "##uta": 1269,
      "caracteristicas": 1270,
      "adjudica": 1271,
      "penalidades": 1272,
      "fornecer": 1273,
      "##are": 1274,
      "tera": 1275,
      "impres": 1276,
      "emissao": 1277,
      "aqu": 1278,
      "##nom": 1279,
      "global": 1280,
      "##ene": 1281,
      "legal": 1282,
      "compro": 1283,
      "dist": 1284,
      "ant": 1285,
      "##ferencia": 1286,
      "devem": 1287,
      "independente": 1288,
      "servidor": 1289,
      "parc": 1290,
      "ja": 1291,
      "##bilidade": 1292,
      "onus": 1293,
      "lin": 1294,
      "autorizacao": 1295,
      "primeiro": 1296,
      "fir": 1297,
      "##ral": 1298,
      "expres": 1299,
      "go": 1300,
      "fins": 1301,
      "maior": 1302,
      "necessarias": 1303,
      "resci": 1304,
      "semp": 1305,
      "amp": 1306,
      "caus": 1307,
      "funda": 1308,
      "constante": 1309,
      "requisitos": 1310,
      "melh": 1311,
      "inex": 1312,
      "sempre": 1313,
      "inscri": 1314,
      "##gua": 1315,
      "##feitos": 1316,
      "##con": 1317,
      "lote": 1318,
      "vin": 1319,
      "mercado": 1320,
      "terceiros": 1321,
      "##olog": 1322,
      "##istas": 1323,
      "##torios": 1324,
      "demanda": 1325,
      "##tan": 1326,
      "especializada": 1327,
      "##dro": 1328,
      "lu": 1329,
      "utilizacao": 1330,
      "aval": 1331,
      "entregues": 1332,
      "##tidao": 1333,
      "asse": 1334,
      "unidades": 1335,
      "hospital": 1336,
      "eventuais": 1337,
      "descricao": 1338,
      "licitatorio": 1339,
      "inicio": 1340,
      "##cent": 1341,
      "##dal": 1342,
      "##net": 1343,
      "##trutura": 1344,
      "##equ": 1345,
      "##gado": 1346,
      "impos": 1347,
      "cep": 1348,
      "fim": 1349,
      "igual": 1350,
      "hipotese": 1351,
      "desem": 1352,
      "reti": 1353,
      "##peracao": 1354,
      "anos": 1355,
      "orga": 1356,
      "raz": 1357,
      "partes": 1358,
      "imediata": 1359,
      "realizada": 1360,
      "orgaos": 1361,
      "suj": 1362,
      "eco": 1363,
      "pequeno": 1364,
      "fora": 1365,
      "participacao": 1366,
      "tribu": 1367,
      "possuir": 1368,
      "defesa": 1369,
      "tab": 1370,
      "pes": 1371,
      "mul": 1372,
      "contratar": 1373,
      "rea": 1374,
      "##istos": 1375,
      "ado": 1376,
      "diver": 1377,
      "contin": 1378,
      "tes": 1379,
      "rede": 1380,
      "##dentes": 1381,
      "considera": 1382,
      "oficial": 1383,
      "lega": 1384,
      "##vistos": 1385,
      "minist": 1386,
      "uniao": 1387,
      "##ch": 1388,
      "vincul": 1389,
      "exce": 1390,
      "microem": 1391,
      "alter": 1392,
      "assegura": 1393,
      "sejam": 1394,
      "permanente": 1395,
      "##dicion": 1396,
      "legais": 1397,
      "pena": 1398,
      "profissional": 1399,
      "##iver": 1400,
      "##izada": 1401,
      "##tico": 1402,
      "vencedor": 1403,
      "certifica": 1404,
      "destin": 1405,
      "econom": 1406,
      "norma": 1407,
      "convoca": 1408,
      "quad": 1409,
      "rua": 1410,
      "verificacao": 1411,
      "modal": 1412,
      "planilha": 1413,
      "toda": 1414,
      "compativ": 1415,
      "gestao": 1416,
      "##reg": 1417,
      "##soes": 1418,
      "eng": 1419,
      "previstos": 1420,
      "edu": 1421,
      "##iva": 1422,
      "gru": 1423,
      "##posicao": 1424,
      "##ribui": 1425,
      "onde": 1426,
      "copia": 1427,
      "##didas": 1428,
      "##turas": 1429,
      "apo": 1430,
      "##dio": 1431,
      "devi": 1432,
      "melhor": 1433,
      "tecnicos": 1434,
      "tais": 1435,
      "minister": 1436,
      "classifica": 1437,
      "regularidade": 1438,
      "estabelecidos": 1439,
      "nov": 1440,
      "lan": 1441,
      "resul": 1442,
      "##hecimento": 1443,
      "equipe": 1444,
      "amos": 1445,
      "##elho": 1446,
      "##dimentos": 1447,
      "tecnolog": 1448,
      "##ducao": 1449,
      "danos": 1450,
      "##pul": 1451,
      "##imento": 1452,
      "veiculo": 1453,
      "microempres": 1454,
      "inclu": 1455,
      "area": 1456,
      "analise": 1457,
      "cole": 1458,
      "retira": 1459,
      "cam": 1460,
      "pelas": 1461,
      "despesa": 1462,
      "seguinte": 1463,
      "classificacao": 1464,
      "fas": 1465,
      "promo": 1466,
      "assistencia": 1467,
      "aceitacao": 1468,
      "provis": 1469,
      "ministerio": 1470,
      "sim": 1471,
      "mesma": 1472,
      "marca": 1473,
      "contratos": 1474,
      "notifica": 1475,
      "sr": 1476,
      "prevista": 1477,
      "estimado": 1478,
      "compras": 1479,
      "executados": 1480,
      "prote": 1481,
      "escol": 1482,
      "cir": 1483,
      "prin": 1484,
      "infra": 1485,
      "##par": 1486,
      "eta": 1487,
      "##mpl": 1488,
      "contratados": 1489,
      "licitacoes": 1490,
      "acess": 1491,
      "##veni": 1492,
      "tre": 1493,
      "hav": 1494,
      "detalh": 1495,
      "permitir": 1496,
      "desenvolvi": 1497,
      "##tadas": 1498,
      "##ib": 1499,
      "is": 1500,
      "cele": 1501,
      "vista": 1502,
      "mm": 1503,
      "disposicoes": 1504,
      "contendo": 1505,
      "##ulas": 1506,
      "celebra": 1507,
      "##gi": 1508,
      "exercicio": 1509,
      "##oes": 1510,
      "mail": 1511,
      "##iacao": 1512,
      "cuj": 1513,
      "##mada": 1514,
      "princip": 1515,
      "esteja": 1516,
      "atestado": 1517,
      "estadual": 1518,
      "possa": 1519,
      "##tores": 1520,
      "##enca": 1521,
      "telefone": 1522,
      "ajus": 1523,
      "suporte": 1524,
      "acompanhamento": 1525,
      "enqu": 1526,
      "judici": 1527,
      "engenh": 1528,
      "estao": 1529,
      "confi": 1530,
      "##uma": 1531,
      "pas": 1532,
      "##reza": 1533,
      "banco": 1534,
      "##ece": 1535,
      "visando": 1536,
      "foi": 1537,
      "escrito": 1538,
      "antes": 1539,
      "modalidade": 1540,
      "consumo": 1541,
      "corrente": 1542,
      "process": 1543,
      "prevent": 1544,
      "natu": 1545,
      "fiscais": 1546,
      "ocorrencia": 1547,
      "certidao": 1548,
      "ulti": 1549,
      "soft": 1550,
      "escl": 1551,
      "correspondente": 1552,
      "orcament": 1553,
      "##arias": 1554,
      "esclar": 1555,
      "##tando": 1556,
      "possibil": 1557,
      "definitivo": 1558,
      "div": 1559,
      "##encial": 1560,
      "softw": 1561,
      "instalacoes": 1562,
      "efetuado": 1563,
      "depen": 1564,
      "##icion": 1565,
      "enc": 1566,
      "limite": 1567,
      "apresentada": 1568,
      "natureza": 1569,
      "##cionais": 1570,
      "procedimento": 1571,
      "orcamento": 1572,
      "alg": 1573,
      "prestados": 1574,
      "quantitativos": 1575,
      "bene": 1576,
      "autoridade": 1577,
      "##ador": 1578,
      "tax": 1579,
      "contidas": 1580,
      "encerra": 1581,
      "##duz": 1582,
      "identifica": 1583,
      "region": 1584,
      "proprio": 1585,
      "efetuar": 1586,
      "trabalhistas": 1587,
      "corridos": 1588,
      "pratica": 1589,
      "resol": 1590,
      "equiv": 1591,
      "mao": 1592,
      "##ine": 1593,
      "ofertado": 1594,
      "previa": 1595,
      "url": 1596,
      "obras": 1597,
      "##elas": 1598,
      "entregue": 1599,
      "##gas": 1600,
      "gera": 1601,
      "interesse": 1602,
      "continu": 1603,
      "##tamento": 1604,
      "##rias": 1605,
      "##itar": 1606,
      "##ime": 1607,
      "custo": 1608,
      "situacao": 1609,
      "venha": 1610,
      "mensal": 1611,
      "considerando": 1612,
      "fi": 1613,
      "mon": 1614,
      "ress": 1615,
      "educacao": 1616,
      "hou": 1617,
      "ficara": 1618,
      "aceita": 1619,
      "conhecimento": 1620,
      "servidores": 1621,
      "profissionais": 1622,
      "extra": 1623,
      "fase": 1624,
      "##ulo": 1625,
      "banca": 1626,
      "benefici": 1627,
      "##udo": 1628,
      "cur": 1629,
      "unitario": 1630,
      "##eiras": 1631,
      "##regular": 1632,
      "irregular": 1633,
      "##ts": 1634,
      "minima": 1635,
      "coor": 1636,
      "cp": 1637,
      "reserv": 1638,
      "apresentados": 1639,
      "coorden": 1640,
      "vez": 1641,
      "unico": 1642,
      "registrado": 1643,
      "tendo": 1644,
      "obe": 1645,
      "equival": 1646,
      "agua": 1647,
      "secao": 1648,
      "realizado": 1649,
      "cadastra": 1650,
      "designado": 1651,
      "identificacao": 1652,
      "sica": 1653,
      "desenvolvimento": 1654,
      "##com": 1655,
      "sicaf": 1656,
      "compon": 1657,
      "##eza": 1658,
      "##ira": 1659,
      "cm": 1660,
      "modo": 1661,
      "adicion": 1662,
      "pessoas": 1663,
      "pessoal": 1664,
      "##cum": 1665,
      "calcul": 1666,
      "##erem": 1667,
      "locais": 1668,
      "av": 1669,
      "ina": 1670,
      "julgamento": 1671,
      "programa": 1672,
      "##osa": 1673,
      "##eitos": 1674,
      "limp": 1675,
      "gu": 1676,
      "intermedi": 1677,
      "rescisao": 1678,
      "fl": 1679,
      "paga": 1680,
      "mesmos": 1681,
      "corretiva": 1682,
      "encontra": 1683,
      "tal": 1684,
      "chama": 1685,
      "gestor": 1686,
      "contratuais": 1687,
      "##can": 1688,
      "procedimentos": 1689,
      "efeito": 1690,
      "vanta": 1691,
      "infer": 1692,
      "##erg": 1693,
      "recus": 1694,
      "tabela": 1695,
      "seguir": 1696,
      "houver": 1697,
      "fornecidos": 1698,
      "atividade": 1699,
      "##velo": 1700,
      "##clusao": 1701,
      "##visao": 1702,
      "referente": 1703,
      "inferior": 1704,
      "parcial": 1705,
      "independentemente": 1706,
      "regional": 1707,
      "##vil": 1708,
      "uni": 1709,
      "esclareci": 1710,
      "patri": 1711,
      "expressa": 1712,
      "##didos": 1713,
      "recurso": 1714,
      "propon": 1715,
      "codi": 1716,
      "envelo": 1717,
      "gran": 1718,
      "embal": 1719,
      "vist": 1720,
      "pesquis": 1721,
      "estipul": 1722,
      "respectivo": 1723,
      "respectiva": 1724,
      "conju": 1725,
      "##sas": 1726,
      "incluindo": 1727,
      "patrimon": 1728,
      "lance": 1729,
      "fato": 1730,
      "mant": 1731,
      "necessaria": 1732,
      "especificacao": 1733,
      "priv": 1734,
      "perfei": 1735,
      "tributos": 1736,
      "nego": 1737,
      "homo": 1738,
      "automa": 1739,
      "eletronica": 1740,
      "licitar": 1741,
      "mil": 1742,
      "##pr": 1743,
      "ferra": 1744,
      "preventiva": 1745,
      "##edade": 1746,
      "defeitos": 1747,
      "lic": 1748,
      "##enas": 1749,
      "constr": 1750,
      "##ana": 1751,
      "##temas": 1752,
      "##class": 1753,
      "entregar": 1754,
      "cro": 1755,
      "##ntamente": 1756,
      "discri": 1757,
      "##ms": 1758,
      "conc": 1759,
      "relatorio": 1760,
      "campo": 1761,
      "publicacao": 1762,
      "feita": 1763,
      "credi": 1764,
      "##izados": 1765,
      "exclusivamente": 1766,
      "##primento": 1767,
      "##ino": 1768,
      "ocorrer": 1769,
      "##tido": 1770,
      "##mons": 1771,
      "configura": 1772,
      "demons": 1773,
      "##gada": 1774,
      "tor": 1775,
      "desempenho": 1776,
      "desclass": 1777,
      "solicitado": 1778,
      "sistemas": 1779,
      "diri": 1780,
      "adi": 1781,
      "desa": 1782,
      "indivi": 1783,
      "atualiz": 1784,
      "quadro": 1785,
      "##cu": 1786,
      "vir": 1787,
      "##maz": 1788,
      "firma": 1789,
      "participar": 1790,
      "prepos": 1791,
      "instrucao": 1792,
      "fornecido": 1793,
      "percent": 1794,
      "momento": 1795,
      "qualificacao": 1796,
      "acres": 1797,
      "integral": 1798,
      "discrimin": 1799,
      "##ge": 1800,
      "referentes": 1801,
      "justica": 1802,
      "cidade": 1803,
      "impor": 1804,
      "realizados": 1805,
      "grupo": 1806,
      "engenharia": 1807,
      "autent": 1808,
      "##ixa": 1809,
      "comer": 1810,
      "termin": 1811,
      "civil": 1812,
      "orcamentaria": 1813,
      "prestar": 1814,
      "cadastro": 1815,
      "garantir": 1816,
      "etapa": 1817,
      "comercial": 1818,
      "informacao": 1819,
      "havendo": 1820,
      "passa": 1821,
      "credencia": 1822,
      "condicao": 1823,
      "ambiente": 1824,
      "intermedio": 1825,
      "envio": 1826,
      "elaboracao": 1827,
      "interessados": 1828,
      "##idi": 1829,
      "original": 1830,
      "utilizados": 1831,
      "forem": 1832,
      "##erante": 1833,
      "##ecucao": 1834,
      "pagamentos": 1835,
      "jan": 1836,
      "expedi": 1837,
      "portaria": 1838,
      "segunda": 1839,
      "##ena": 1840,
      "apar": 1841,
      "segundo": 1842,
      "descum": 1843,
      "##mes": 1844,
      "financeira": 1845,
      "##cimento": 1846,
      "proto": 1847,
      "operacao": 1848,
      "clausulas": 1849,
      "##gan": 1850,
      "uf": 1851,
      "exa": 1852,
      "protecao": 1853,
      "central": 1854,
      "##nas": 1855,
      "equivalente": 1856,
      "apoio": 1857,
      "trib": 1858,
      "componentes": 1859,
      "tribun": 1860,
      "haja": 1861,
      "previamente": 1862,
      "##embro": 1863,
      "diretamente": 1864,
      "ind": 1865,
      "executar": 1866,
      "##iar": 1867,
      "integrante": 1868,
      "##mar": 1869,
      "##cla": 1870,
      "cul": 1871,
      "rio": 1872,
      "fre": 1873,
      "negoci": 1874,
      "bom": 1875,
      "##vidas": 1876,
      "resi": 1877,
      "avaliacao": 1878,
      "resulta": 1879,
      "regula": 1880,
      "sin": 1881,
      "##tis": 1882,
      "suspens": 1883,
      "nenh": 1884,
      "##encion": 1885,
      "acresci": 1886,
      "embala": 1887,
      "##bo": 1888,
      "cpf": 1889,
      "participantes": 1890,
      "recol": 1891,
      "demonstra": 1892,
      "admiti": 1893,
      "##para": 1894,
      "ferrament": 1895,
      "nova": 1896,
      "prob": 1897,
      "tribunal": 1898,
      "perante": 1899,
      "codigo": 1900,
      "labora": 1901,
      "respectivos": 1902,
      "tecnologia": 1903,
      "multas": 1904,
      "indicado": 1905,
      "pertinentes": 1906,
      "obrigatoria": 1907,
      "limpeza": 1908,
      "administrativa": 1909,
      "nesta": 1910,
      "titu": 1911,
      "recolh": 1912,
      "objetivo": 1913,
      "##arif": 1914,
      "agencia": 1915,
      "sujeita": 1916,
      "estiv": 1917,
      "primeira": 1918,
      "pla": 1919,
      "jo": 1920,
      "dez": 1921,
      "dar": 1922,
      "bair": 1923,
      "software": 1924,
      "##orios": 1925,
      "fer": 1926,
      "providenci": 1927,
      "##ntos": 1928,
      "exigidos": 1929,
      "nega": 1930,
      "##pera": 1931,
      "decorrente": 1932,
      "razao": 1933,
      "quantitativo": 1934,
      "##eja": 1935,
      "vistoria": 1936,
      "organ": 1937,
      "autentica": 1938,
      "cumprir": 1939,
      "fil": 1940,
      "prejuizos": 1941,
      "ampla": 1942,
      "assinado": 1943,
      "estrutura": 1944,
      "col": 1945,
      "remo": 1946,
      "emitida": 1947,
      "vigente": 1948,
      "possivel": 1949,
      "proponente": 1950,
      "ficando": 1951,
      "previdenci": 1952,
      "bairro": 1953,
      "orient": 1954,
      "##taria": 1955,
      "regime": 1956,
      "exigidas": 1957,
      "at": 1958,
      "##bera": 1959,
      "obrigacao": 1960,
      "assinar": 1961,
      "inexecucao": 1962,
      "comb": 1963,
      "adqui": 1964,
      "especial": 1965,
      "veda": 1966,
      "grande": 1967,
      "impl": 1968,
      "reajus": 1969,
      "om": 1970,
      "imediatamente": 1971,
      "plano": 1972,
      "adquiri": 1973,
      "arquiv": 1974,
      "##equente": 1975,
      "atos": 1976,
      "##teg": 1977,
      "financeiro": 1978,
      "lev": 1979,
      "descumprimento": 1980,
      "fonte": 1981,
      "comerci": 1982,
      "##ivers": 1983,
      "##corda": 1984,
      "te": 1985,
      "simil": 1986,
      "##icios": 1987,
      "esclarecimentos": 1988,
      "##ores": 1989,
      "##idacao": 1990,
      "digi": 1991,
      "pedido": 1992,
      "normativa": 1993,
      "lhe": 1994,
      "digital": 1995,
      "exist": 1996,
      "##it": 1997,
      "crono": 1998,
      "devido": 1999,
      "sociais": 2000,
      "exter": 2001,
      "dependencias": 2002,
      "sex": 2003,
      "compativel": 2004,
      "##ramento": 2005,
      "prorrogado": 2006,
      "condicion": 2007,
      "padro": 2008,
      "propria": 2009,
      "fazer": 2010,
      "registrados": 2011,
      "implant": 2012,
      "ques": 2013,
      "facul": 2014,
      "##ifes": 2015,
      "fornecedores": 2016,
      "cap": 2017,
      "fran": 2018,
      "implica": 2019,
      "ris": 2020,
      "janeiro": 2021,
      "cr": 2022,
      "univers": 2023,
      "pesquisa": 2024,
      "##inas": 2025,
      "campus": 2026,
      "notificacao": 2027,
      "privado": 2028,
      "outra": 2029,
      "##tancia": 2030,
      "inido": 2031,
      "##ona": 2032,
      "mem": 2033,
      "rej": 2034,
      "solicitados": 2035,
      "difer": 2036,
      "divul": 2037,
      "vantaj": 2038,
      "comprovar": 2039,
      "##ribuicoes": 2040,
      "regularizacao": 2041,
      "##vida": 2042,
      "conter": 2043,
      "inidone": 2044,
      "formacao": 2045,
      "relacionados": 2046,
      "simpl": 2047,
      "pertinente": 2048,
      "apresentado": 2049,
      "enquad": 2050,
      "nivel": 2051,
      "propor": 2052,
      "cob": 2053,
      "gas": 2054,
      "obed": 2055,
      "procura": 2056,
      "ambient": 2057,
      "evi": 2058,
      "minu": 2059,
      "manifes": 2060,
      "criterios": 2061,
      "sido": 2062,
      "esse": 2063,
      "medidas": 2064,
      "ocorrencias": 2065,
      "bal": 2066,
      "licitado": 2067,
      "##ug": 2068,
      "compre": 2069,
      "fabricacao": 2070,
      "treina": 2071,
      "bar": 2072,
      "reserva": 2073,
      "jun": 2074,
      "apenas": 2075,
      "resultado": 2076,
      "exclusiva": 2077,
      "apro": 2078,
      "estra": 2079,
      "##orio": 2080,
      "acoes": 2081,
      "aprovacao": 2082,
      "solicitar": 2083,
      "consulta": 2084,
      "conven": 2085,
      "##ejamento": 2086,
      "foram": 2087,
      "gerenciamento": 2088,
      "percentual": 2089,
      "conselho": 2090,
      "usuarios": 2091,
      "correrao": 2092,
      "fu": 2093,
      "conce": 2094,
      "detent": 2095,
      "poli": 2096,
      "er": 2097,
      "funcao": 2098,
      "circ": 2099,
      "fro": 2100,
      "inden": 2101,
      "amostra": 2102,
      "administrativas": 2103,
      "notas": 2104,
      "alimentacao": 2105,
      "menos": 2106,
      "responsabilizar": 2107,
      "gover": 2108,
      "##pel": 2109,
      "diario": 2110,
      "prova": 2111,
      "homolog": 2112,
      "salvo": 2113,
      "juntamente": 2114,
      "tro": 2115,
      "##eles": 2116,
      "substituir": 2117,
      "envol": 2118,
      "aplicada": 2119,
      "bancaria": 2120,
      "internet": 2121,
      "aer": 2122,
      "log": 2123,
      "transcri": 2124,
      "##hao": 2125,
      "contado": 2126,
      "pol": 2127,
      "##pensa": 2128,
      "projetos": 2129,
      "##dar": 2130,
      "interna": 2131,
      "##forma": 2132,
      "falhas": 2133,
      "##aste": 2134,
      "##cess": 2135,
      "##toes": 2136,
      "reci": 2137,
      "##ucoes": 2138,
      "construcao": 2139,
      "medica": 2140,
      "br": 2141,
      "armaz": 2142,
      "maqu": 2143,
      "cronograma": 2144,
      "novo": 2145,
      "funcionarios": 2146,
      "suspensao": 2147,
      "consul": 2148,
      "comunicar": 2149,
      "fra": 2150,
      "encaminhar": 2151,
      "estejam": 2152,
      "comprome": 2153,
      "seguro": 2154,
      "cujo": 2155,
      "assumidas": 2156,
      "constitui": 2157,
      "trabalhos": 2158,
      "devol": 2159,
      "visita": 2160,
      "acessorios": 2161,
      "exigida": 2162,
      "ocas": 2163,
      "mesmas": 2164,
      "planejamento": 2165,
      "parcel": 2166,
      "##adamente": 2167,
      "presencial": 2168,
      "##eda": 2169,
      "alteracao": 2170,
      "minim": 2171,
      "cabiveis": 2172,
      "##ibilidade": 2173,
      "##leg": 2174,
      "possam": 2175,
      "##ustiv": 2176,
      "certificado": 2177,
      "pad": 2178,
      "##ribuicao": 2179,
      "tratamento": 2180,
      "causados": 2181,
      "indicados": 2182,
      "unica": 2183,
      "##rito": 2184,
      "resolucao": 2185,
      "tanto": 2186,
      "va": 2187,
      "microempresas": 2188,
      "desacordo": 2189,
      "funcional": 2190,
      "justificativa": 2191,
      "ocor": 2192,
      "##loca": 2193,
      "especificado": 2194,
      "descont": 2195,
      "inadi": 2196,
      "insum": 2197,
      "camara": 2198,
      "automatica": 2199,
      "teres": 2200,
      "emitido": 2201,
      "vol": 2202,
      "##metro": 2203,
      "convocacao": 2204,
      "aca": 2205,
      "especif": 2206,
      "disponibilizar": 2207,
      "contem": 2208,
      "verificar": 2209,
      "obrigatoriamente": 2210,
      "expediente": 2211,
      "##tidos": 2212,
      "compreen": 2213,
      "locacao": 2214,
      "termino": 2215,
      "subcontra": 2216,
      "boa": 2217,
      "gen": 2218,
      "depos": 2219,
      "##ou": 2220,
      "depar": 2221,
      "##pec": 2222,
      "##ano": 2223,
      "combustiv": 2224,
      "##ilo": 2225,
      "acompanhar": 2226,
      "ness": 2227,
      "almo": 2228,
      "eletr": 2229,
      "impug": 2230,
      "motivo": 2231,
      "fol": 2232,
      "excl": 2233,
      "pass": 2234,
      "estu": 2235,
      "forca": 2236,
      "minuta": 2237,
      "indireta": 2238,
      "teresina": 2239,
      "desco": 2240,
      "acompanhada": 2241,
      "inicial": 2242,
      "relativos": 2243,
      "secretarias": 2244,
      "entidade": 2245,
      "futura": 2246,
      "utilizado": 2247,
      "vigil": 2248,
      "crea": 2249,
      "sp": 2250,
      "##uns": 2251,
      "##ticos": 2252,
      "operacional": 2253,
      "##eros": 2254,
      "descar": 2255,
      "elementos": 2256,
      "##ctu": 2257,
      "fec": 2258,
      "providencias": 2259,
      "novos": 2260,
      "venci": 2261,
      "observando": 2262,
      "af": 2263,
      "finalidade": 2264,
      "##dir": 2265,
      "aux": 2266,
      "mencion": 2267,
      "motor": 2268,
      "perm": 2269,
      "ultimo": 2270,
      "liv": 2271,
      "venham": 2272,
      "##tara": 2273,
      "cabera": 2274,
      "apura": 2275,
      "eventos": 2276,
      "perfeita": 2277,
      "auxil": 2278,
      "cargo": 2279,
      "requer": 2280,
      "anual": 2281,
      "possui": 2282,
      "preen": 2283,
      "antece": 2284,
      "confec": 2285,
      "observado": 2286,
      "##ervacao": 2287,
      "enten": 2288,
      "posteriores": 2289,
      "constar": 2290,
      "##rada": 2291,
      "treinamento": 2292,
      "conjunto": 2293,
      "negativa": 2294,
      "ep": 2295,
      "referido": 2296,
      "abaste": 2297,
      "hi": 2298,
      "papel": 2299,
      "duas": 2300,
      "site": 2301,
      "impostos": 2302,
      "realizadas": 2303,
      "come": 2304,
      "##iza": 2305,
      "sanita": 2306,
      "##macao": 2307,
      "envelopes": 2308,
      "##centes": 2309,
      "tomada": 2310,
      "insumos": 2311,
      "convocatorio": 2312,
      "retirada": 2313,
      "fr": 2314,
      "ch": 2315,
      "sexta": 2316,
      "var": 2317,
      "##ces": 2318,
      "##estrutura": 2319,
      "comprasnet": 2320,
      "armazen": 2321,
      "alguma": 2322,
      "##cil": 2323,
      "unifor": 2324,
      "compe": 2325,
      "junho": 2326,
      "pag": 2327,
      "##ismo": 2328,
      "convi": 2329,
      "##ren": 2330,
      "cabendo": 2331,
      "padrao": 2332,
      "implantacao": 2333,
      "rem": 2334,
      "##tante": 2335,
      "nu": 2336,
      "aven": 2337,
      "can": 2338,
      "fiz": 2339,
      "microempresa": 2340,
      "simples": 2341,
      "mecan": 2342,
      "transpor": 2343,
      "nem": 2344,
      "preench": 2345,
      "gerais": 2346,
      "il": 2347,
      "energ": 2348,
      "departamento": 2349,
      "basico": 2350,
      "compati": 2351,
      "aceito": 2352,
      "indicacao": 2353,
      "recon": 2354,
      "descritas": 2355,
      "autos": 2356,
      "ense": 2357,
      "feira": 2358,
      "##abilidade": 2359,
      "incor": 2360,
      "pm": 2361,
      "areas": 2362,
      "demandas": 2363,
      "ess": 2364,
      "rejei": 2365,
      "provisorio": 2366,
      "balan": 2367,
      "sup": 2368,
      "aline": 2369,
      "empregado": 2370,
      "recom": 2371,
      "taxas": 2372,
      "##ose": 2373,
      "exceto": 2374,
      "disposi": 2375,
      "##veniente": 2376,
      "infraestrutura": 2377,
      "aplicadas": 2378,
      "##tec": 2379,
      "fundament": 2380,
      "##plo": 2381,
      "descritos": 2382,
      "tr": 2383,
      "debi": 2384,
      "##ecendo": 2385,
      "fax": 2386,
      "monito": 2387,
      "relatorios": 2388,
      "definidos": 2389,
      "testes": 2390,
      "df": 2391,
      "##cados": 2392,
      "comprom": 2393,
      "injus": 2394,
      "facil": 2395,
      "##tiz": 2396,
      "usuario": 2397,
      "decisao": 2398,
      "almox": 2399,
      "if": 2400,
      "amostras": 2401,
      "et": 2402,
      "dois": 2403,
      "supri": 2404,
      "receber": 2405,
      "patrimonio": 2406,
      "mora": 2407,
      "penalidade": 2408,
      "subsidi": 2409,
      "unitarios": 2410,
      "##int": 2411,
      "##racao": 2412,
      "observadas": 2413,
      "ip": 2414,
      "especificados": 2415,
      "cober": 2416,
      "objetos": 2417,
      "##bas": 2418,
      "utilizar": 2419,
      "vias": 2420,
      "##aro": 2421,
      "cita": 2422,
      "individual": 2423,
      "injustifica": 2424,
      "##vas": 2425,
      "gerenciador": 2426,
      "acar": 2427,
      "apresentadas": 2428,
      "carga": 2429,
      "##dam": 2430,
      "reun": 2431,
      "##tario": 2432,
      "compativeis": 2433,
      "cuja": 2434,
      "homologacao": 2435,
      "embra": 2436,
      "##arao": 2437,
      "correcao": 2438,
      "essa": 2439,
      "almoxarif": 2440,
      "compra": 2441,
      "reduz": 2442,
      "ref": 2443,
      "diversos": 2444,
      "relacionadas": 2445,
      "perfeito": 2446,
      "brasilia": 2447,
      "comprove": 2448,
      "dezembro": 2449,
      "dom": 2450,
      "tenham": 2451,
      "ferramentas": 2452,
      "acompanhado": 2453,
      "virtu": 2454,
      "executado": 2455,
      "##mal": 2456,
      "##din": 2457,
      "##fi": 2458,
      "##cessiv": 2459,
      "deno": 2460,
      "compatibilidade": 2461,
      "instituicao": 2462,
      "ressal": 2463,
      "fazenda": 2464,
      "convite": 2465,
      "ofertados": 2466,
      "reposicao": 2467,
      "##leo": 2468,
      "##vidos": 2469,
      "##eios": 2470,
      "descrito": 2471,
      "transcricao": 2472,
      "inclui": 2473,
      "##rup": 2474,
      "almoxarifado": 2475,
      "##gir": 2476,
      "minutos": 2477,
      "providenciar": 2478,
      "denomin": 2479,
      "che": 2480,
      "##vor": 2481,
      "embrapa": 2482,
      "##emas": 2483,
      "considerado": 2484,
      "padroes": 2485,
      "prorrogacao": 2486,
      "##elhos": 2487,
      "consign": 2488,
      "coo": 2489,
      "##damento": 2490,
      "falta": 2491,
      "##tina": 2492,
      "##eitas": 2493,
      "eletri": 2494,
      "##doria": 2495,
      "considerados": 2496,
      "##pm": 2497,
      "jose": 2498,
      "##rido": 2499,
      "pode": 2500,
      "rig": 2501,
      "mg": 2502,
      "resultantes": 2503,
      "motivos": 2504,
      "##eracao": 2505,
      "classificada": 2506,
      "dim": 2507,
      "originais": 2508,
      "agenda": 2509,
      "##ila": 2510,
      "##ficiente": 2511,
      "guar": 2512,
      "processos": 2513,
      "instituto": 2514,
      "recu": 2515,
      "producao": 2516,
      "##umin": 2517,
      "fisica": 2518,
      "presi": 2519,
      "vantajosa": 2520,
      "indis": 2521,
      "##ariamente": 2522,
      "prestado": 2523,
      "##pro": 2524,
      "compos": 2525,
      "encerramento": 2526,
      "referida": 2527,
      "economico": 2528,
      "atualizacao": 2529,
      "efetuada": 2530,
      "conservacao": 2531,
      "blo": 2532,
      "sala": 2533,
      "##encas": 2534,
      "estipulado": 2535,
      "ensej": 2536,
      "refere": 2537,
      "especialmente": 2538,
      "credito": 2539,
      "satis": 2540,
      "desconto": 2541,
      "liber": 2542,
      "completa": 2543,
      "##abilitacao": 2544,
      "siti": 2545,
      "deix": 2546,
      "estes": 2547,
      "mas": 2548,
      "##eitada": 2549,
      "##lemas": 2550,
      "relativas": 2551,
      "decorrencia": 2552,
      "limita": 2553,
      "devidos": 2554,
      "definido": 2555,
      "liqui": 2556,
      "problemas": 2557,
      "canc": 2558,
      "##ntagem": 2559,
      "embalagem": 2560,
      "impressao": 2561,
      "##hos": 2562,
      "mu": 2563,
      "los": 2564,
      "##gencia": 2565,
      "progra": 2566,
      "taxa": 2567,
      "favor": 2568,
      "evento": 2569,
      "formal": 2570,
      "abastecimento": 2571,
      "##tanci": 2572,
      "acao": 2573,
      "##poe": 2574,
      "categ": 2575,
      "tres": 2576,
      "repara": 2577,
      "contato": 2578,
      "distrito": 2579,
      "inscrita": 2580,
      "sig": 2581,
      "respectivas": 2582,
      "energia": 2583,
      "impugn": 2584,
      "lugar": 2585,
      "##ril": 2586,
      "atestados": 2587,
      "subsequente": 2588,
      "curso": 2589,
      "residu": 2590,
      "condu": 2591,
      "corpo": 2592,
      "subme": 2593,
      "elemento": 2594,
      "adicional": 2595,
      "##tur": 2596,
      "nenhum": 2597,
      "indice": 2598,
      "vigilancia": 2599,
      "sil": 2600,
      "liqu": 2601,
      "composicao": 2602,
      "municipais": 2603,
      "ressar": 2604,
      "trabalhista": 2605,
      "celebram": 2606,
      "destinados": 2607,
      "foro": 2608,
      "avis": 2609,
      "##lio": 2610,
      "depo": 2611,
      "postos": 2612,
      "sl": 2613,
      "requisita": 2614,
      "expedida": 2615,
      "preposto": 2616,
      "##pensas": 2617,
      "##triz": 2618,
      "##izacoes": 2619,
      "depois": 2620,
      "irregularidades": 2621,
      "abran": 2622,
      "copias": 2623,
      "feito": 2624,
      "##izando": 2625,
      "esco": 2626,
      "estabelecida": 2627,
      "##tora": 2628,
      "acer": 2629,
      "oriun": 2630,
      "srp": 2631,
      "especializ": 2632,
      "impedimento": 2633,
      "contempl": 2634,
      "exper": 2635,
      "sucessiv": 2636,
      "##oso": 2637,
      "far": 2638,
      "##ck": 2639,
      "razoes": 2640,
      "inspe": 2641,
      "aqueles": 2642,
      "##izadas": 2643,
      "ocasiao": 2644,
      "desclassificacao": 2645,
      "escolha": 2646,
      "praticados": 2647,
      "ciencia": 2648,
      "obrigada": 2649,
      "informar": 2650,
      "##eb": 2651,
      "conclusao": 2652,
      "##cer": 2653,
      "expensas": 2654,
      "fisico": 2655,
      "##ps": 2656,
      "recomenda": 2657,
      "aere": 2658,
      "leis": 2659,
      "confer": 2660,
      "##iado": 2661,
      "alta": 2662,
      "configuracao": 2663,
      "regras": 2664,
      "##orte": 2665,
      "##lar": 2666,
      "vigor": 2667,
      "alo": 2668,
      "alinea": 2669,
      "##pas": 2670,
      "troca": 2671,
      "antecedencia": 2672,
      "coordenacao": 2673,
      "promover": 2674,
      "##isti": 2675,
      "observados": 2676,
      "fiscalizar": 2677,
      "detalhada": 2678,
      "presta": 2679,
      "reman": 2680,
      "contratacoes": 2681,
      "experi": 2682,
      "artigos": 2683,
      "cobranca": 2684,
      "dotacao": 2685,
      "##mple": 2686,
      "eleito": 2687,
      "dirim": 2688,
      "preferencia": 2689,
      "ora": 2690,
      "##isso": 2691,
      "residuos": 2692,
      "sustent": 2693,
      "comum": 2694,
      "##damente": 2695,
      "##cionar": 2696,
      "fixado": 2697,
      "recuperacao": 2698,
      "recebidos": 2699,
      "subitens": 2700,
      "competi": 2701,
      "motiv": 2702,
      "##eia": 2703,
      "aceite": 2704,
      "circuns": 2705,
      "adicionais": 2706,
      "urb": 2707,
      "comerciais": 2708,
      "comprovada": 2709,
      "fara": 2710,
      "rs": 2711,
      "provisoria": 2712,
      "ino": 2713,
      "publicos": 2714,
      "tub": 2715,
      "posto": 2716,
      "##tencia": 2717,
      "duvidas": 2718,
      "qualifica": 2719,
      "estara": 2720,
      "enviar": 2721,
      "aparelhos": 2722,
      "dentre": 2723,
      "aceitos": 2724,
      "cancel": 2725,
      "eletrica": 2726,
      "ambiental": 2727,
      "inscricao": 2728,
      "##deira": 2729,
      "disposicao": 2730,
      "irregularidade": 2731,
      "existentes": 2732,
      "ens": 2733,
      "maquinas": 2734,
      "carta": 2735,
      "possibilidade": 2736,
      "pleno": 2737,
      "medicao": 2738,
      "considerada": 2739,
      "adequacao": 2740,
      "parcela": 2741,
      "universidade": 2742,
      "seguros": 2743,
      "imple": 2744,
      "santa": 2745,
      "quar": 2746,
      "conex": 2747,
      "##inha": 2748,
      "recolhimento": 2749,
      "horarios": 2750,
      "decima": 2751,
      "assinada": 2752,
      "adequada": 2753,
      "eventualmente": 2754,
      "medicamentos": 2755,
      "aplicar": 2756,
      "logis": 2757,
      "impresso": 2758,
      "sul": 2759,
      "ic": 2760,
      "##ecido": 2761,
      "##gados": 2762,
      "apresentarem": 2763,
      "observar": 2764,
      "preten": 2765,
      "efeitos": 2766,
      "governo": 2767,
      "partici": 2768,
      "pregoeira": 2769,
      "inteira": 2770,
      "aceitar": 2771,
      "perten": 2772,
      "desclassifica": 2773,
      "hipoteses": 2774,
      "disponivel": 2775,
      "ambito": 2776,
      "##metros": 2777,
      "cobra": 2778,
      "und": 2779,
      "compo": 2780,
      "tur": 2781,
      "transfer": 2782,
      "lon": 2783,
      "disponibilidade": 2784,
      "multi": 2785,
      "##one": 2786,
      "km": 2787,
      "domici": 2788,
      "conte": 2789,
      "hig": 2790,
      "convocado": 2791,
      "receb": 2792,
      "credenciamento": 2793,
      "##rar": 2794,
      "compar": 2795,
      "compor": 2796,
      "##logia": 2797,
      "pal": 2798,
      "aquisicoes": 2799,
      "inadimpl": 2800,
      "inclus": 2801,
      "imposs": 2802,
      "decor": 2803,
      "defeito": 2804,
      "previdenciarios": 2805,
      "efetiv": 2806,
      "responsaveis": 2807,
      "tri": 2808,
      "cou": 2809,
      "##imin": 2810,
      "enquanto": 2811,
      "ensino": 2812,
      "##inten": 2813,
      "##tre": 2814,
      "faturas": 2815,
      "autenticada": 2816,
      "reducao": 2817,
      "aliment": 2818,
      "##presente": 2819,
      "manual": 2820,
      "descon": 2821,
      "superinten": 2822,
      "##colo": 2823,
      "##cis": 2824,
      "joao": 2825,
      "efetivamente": 2826,
      "##cha": 2827,
      "##lis": 2828,
      "slti": 2829,
      "ela": 2830,
      "emb": 2831,
      "pontos": 2832,
      "##cam": 2833,
      "iso": 2834,
      "distribuicao": 2835,
      "meto": 2836,
      "coopera": 2837,
      "regul": 2838,
      "prepostos": 2839,
      "determinado": 2840,
      "sancao": 2841,
      "recusa": 2842,
      "##dra": 2843,
      "identidade": 2844,
      "judicial": 2845,
      "laboratorio": 2846,
      "completo": 2847,
      "logo": 2848,
      "condicionado": 2849,
      "fundo": 2850,
      "frota": 2851,
      "sant": 2852,
      "##pante": 2853,
      "##ins": 2854,
      "receita": 2855,
      "indicar": 2856,
      "julho": 2857,
      "##ac": 2858,
      "assegurado": 2859,
      "imper": 2860,
      "confir": 2861,
      "negociacao": 2862,
      "##anca": 2863,
      "higi": 2864,
      "supor": 2865,
      "armazenamento": 2866,
      "resultados": 2867,
      "protocol": 2868,
      "restri": 2869,
      "titulo": 2870,
      "retirar": 2871,
      "##encialmente": 2872,
      "##hes": 2873,
      "indire": 2874,
      "automaticamente": 2875,
      "parecer": 2876,
      "fiel": 2877,
      "federa": 2878,
      "##br": 2879,
      "dirig": 2880,
      "mensalmente": 2881,
      "estiver": 2882,
      "caixa": 2883,
      "interno": 2884,
      "proceder": 2885,
      "cabe": 2886,
      "dessa": 2887,
      "adjudicacao": 2888,
      "compromisso": 2889,
      "pis": 2890,
      "detec": 2891,
      "informatica": 2892,
      "ale": 2893,
      "observancia": 2894,
      "liquidacao": 2895,
      "avenida": 2896,
      "ima": 2897,
      "cos": 2898,
      "##dan": 2899,
      "militar": 2900,
      "dispoe": 2901,
      "##feicoes": 2902,
      "paci": 2903,
      "tempora": 2904,
      "##vante": 2905,
      "##ridade": 2906,
      "##vacao": 2907,
      "contribuicoes": 2908,
      "direitos": 2909,
      "carte": 2910,
      "batal": 2911,
      "mont": 2912,
      "firmado": 2913,
      "coordenador": 2914,
      "vedada": 2915,
      "anteriores": 2916,
      "##cidade": 2917,
      "##iba": 2918,
      "reajuste": 2919,
      "##tidoes": 2920,
      "real": 2921,
      "plen": 2922,
      "ultra": 2923,
      "encaminhamento": 2924,
      "dil": 2925,
      "iner": 2926,
      "generos": 2927,
      "apresente": 2928,
      "##rado": 2929,
      "media": 2930,
      "solicitacoes": 2931,
      "qui": 2932,
      "##usula": 2933,
      "##icidade": 2934,
      "acon": 2935,
      "cpl": 2936,
      "certidoes": 2937,
      "ades": 2938,
      "responder": 2939,
      "desloca": 2940,
      "pois": 2941,
      "divulgacao": 2942,
      "rele": 2943,
      "instalados": 2944,
      "rigor": 2945,
      "montagem": 2946,
      "espa": 2947,
      "entidades": 2948,
      "nesse": 2949,
      "acondicion": 2950,
      "etc": 2951,
      "rj": 2952,
      "meios": 2953,
      "##ram": 2954,
      "expressamente": 2955,
      "perf": 2956,
      "protocolo": 2957,
      "terceiro": 2958,
      "##ficiencia": 2959,
      "ocorrera": 2960,
      "assegurar": 2961,
      "##ventura": 2962,
      "podem": 2963,
      "##ditorio": 2964,
      "portu": 2965,
      "deposito": 2966,
      "oferta": 2967,
      "cin": 2968,
      "carater": 2969,
      "##encao": 2970,
      "atualizado": 2971,
      "descre": 2972,
      "##pog": 2973,
      "conferencia": 2974,
      "mp": 2975,
      "deixar": 2976,
      "porventura": 2977,
      "##orias": 2978,
      "desse": 2979,
      "torna": 2980,
      "ajuste": 2981,
      "fatos": 2982,
      "vicios": 2983,
      "##osamente": 2984,
      "##tacoes": 2985,
      "sitio": 2986,
      "coleta": 2987,
      "municipios": 2988,
      "adjudicataria": 2989,
      "##vimentacao": 2990,
      "fundacao": 2991,
      "adquiridos": 2992,
      "lar": 2993,
      "aument": 2994,
      "##mpa": 2995,
      "estimativa": 2996,
      "dr": 2997,
      "exer": 2998,
      "arquivo": 2999,
      "provisoriamente": 3000,
      "mpog": 3001,
      "paulo": 3002,
      "origem": 3003,
      "dirimir": 3004,
      "exem": 3005,
      "oferecer": 3006,
      "prorroga": 3007,
      "existencia": 3008,
      "##ites": 3009,
      "##difica": 3010,
      "licencas": 3011,
      "formul": 3012,
      "vo": 3013,
      "##cro": 3014,
      "inc": 3015,
      "culpa": 3016,
      "##anh": 3017,
      "complementares": 3018,
      "rub": 3019,
      "linha": 3020,
      "##los": 3021,
      "fur": 3022,
      "vencimento": 3023,
      "proprios": 3024,
      "##tencoes": 3025,
      "hospitalar": 3026,
      "comprovante": 3027,
      "nbr": 3028,
      "risco": 3029,
      "##tais": 3030,
      "##clausula": 3031,
      "##venientes": 3032,
      "esto": 3033,
      "representantes": 3034,
      "acorda": 3035,
      "##dap": 3036,
      "senha": 3037,
      "diversas": 3038,
      "responsabilidades": 3039,
      "cobertura": 3040,
      "continuidade": 3041,
      "calculo": 3042,
      "satisfa": 3043,
      "divisao": 3044,
      "inser": 3045,
      "maio": 3046,
      "##ecerao": 3047,
      "##izo": 3048,
      "emitir": 3049,
      "trabalha": 3050,
      "chamado": 3051,
      "monitoramento": 3052,
      "experiencia": 3053,
      "recorr": 3054,
      "ge": 3055,
      "categoria": 3056,
      "lav": 3057,
      "credenci": 3058,
      "##vido": 3059,
      "epp": 3060,
      "aquelas": 3061,
      "entrada": 3062,
      "vigentes": 3063,
      "indenizacao": 3064,
      "modifica": 3065,
      "dig": 3066,
      "situacoes": 3067,
      "incisos": 3068,
      "batalhao": 3069,
      "##iados": 3070,
      "cadastramento": 3071,
      "escolar": 3072,
      "##cipl": 3073,
      "efetivo": 3074,
      "subclausula": 3075,
      "##pass": 3076,
      "sel": 3077,
      "##ession": 3078,
      "bor": 3079,
      "planilhas": 3080,
      "concl": 3081,
      "##mplemento": 3082,
      "sociedade": 3083,
      "plas": 3084,
      "solicitada": 3085,
      "debitos": 3086,
      "##duais": 3087,
      "presidente": 3088,
      "computa": 3089,
      "utilizando": 3090,
      "tratar": 3091,
      "##ames": 3092,
      "##dia": 3093,
      "detentora": 3094,
      "fg": 3095,
      "##les": 3096,
      "praticas": 3097,
      "aviso": 3098,
      "bu": 3099,
      "cel": 3100,
      "dara": 3101,
      "rescin": 3102,
      "volum": 3103,
      "##tividade": 3104,
      "ara": 3105,
      "emerg": 3106,
      "daqu": 3107,
      "catal": 3108,
      "alun": 3109,
      "anu": 3110,
      "participante": 3111,
      "##tel": 3112,
      "aplicaveis": 3113,
      "fizerem": 3114,
      "alimenticios": 3115,
      "##icia": 3116,
      "lado": 3117,
      "disponiveis": 3118,
      "federais": 3119,
      "##visa": 3120,
      "##vesti": 3121,
      "acidentes": 3122,
      "algum": 3123,
      "distribui": 3124,
      "hum": 3125,
      "mobil": 3126,
      "portugu": 3127,
      "praca": 3128,
      "impedi": 3129,
      "disponibilizado": 3130,
      "superintendencia": 3131,
      "transferencia": 3132,
      "inscrito": 3133,
      "##ivo": 3134,
      "niveis": 3135,
      "imo": 3136,
      "solicitadas": 3137,
      "exames": 3138,
      "##rea": 3139,
      "riscos": 3140,
      "operacionais": 3141,
      "superiores": 3142,
      "visa": 3143,
      "##bras": 3144,
      "envelope": 3145,
      "ultrapass": 3146,
      "oficiais": 3147,
      "rubrica": 3148,
      "efetuados": 3149,
      "ponto": 3150,
      "##pate": 3151,
      "diretoria": 3152,
      "informando": 3153,
      "regiao": 3154,
      "haver": 3155,
      "questoes": 3156,
      "comprovado": 3157,
      "previsao": 3158,
      "procuradoria": 3159,
      "##missao": 3160,
      "administrativos": 3161,
      "dispositivos": 3162,
      "inerentes": 3163,
      "vide": 3164,
      "predi": 3165,
      "dora": 3166,
      "implicara": 3167,
      "pun": 3168,
      "contas": 3169,
      "pedidos": 3170,
      "pint": 3171,
      "empr": 3172,
      "iguais": 3173,
      "##cho": 3174,
      "novas": 3175,
      "formalmente": 3176,
      "##izara": 3177,
      "chamados": 3178,
      "afer": 3179,
      "moeda": 3180,
      "##dura": 3181,
      "##issos": 3182,
      "complex": 3183,
      "representada": 3184,
      "lt": 3185,
      "dilig": 3186,
      "extrato": 3187,
      "fazem": 3188,
      "ocu": 3189,
      "nenhuma": 3190,
      "inidoneidade": 3191,
      "##ze": 3192,
      "temporaria": 3193,
      "##itacao": 3194,
      "pactu": 3195,
      "catalo": 3196,
      "revo": 3197,
      "##pla": 3198,
      "doravante": 3199,
      "objetiv": 3200,
      "atestada": 3201,
      "##ej": 3202,
      "carteira": 3203,
      "contraditorio": 3204,
      "remanes": 3205,
      "anvisa": 3206,
      "adequado": 3207,
      "##df": 3208,
      "aus": 3209,
      "icms": 3210,
      "couber": 3211,
      "patrimonial": 3212,
      "cli": 3213,
      "correspondentes": 3214,
      "remun": 3215,
      "publicas": 3216,
      "prefer": 3217,
      "inspecao": 3218,
      "discipl": 3219,
      "ras": 3220,
      "formato": 3221,
      "portador": 3222,
      "##ut": 3223,
      "vinculo": 3224,
      "asso": 3225,
      "abnt": 3226,
      "sele": 3227,
      "previo": 3228,
      "conteudo": 3229,
      "conec": 3230,
      "atendendo": 3231,
      "##cada": 3232,
      "aqui": 3233,
      "##cente": 3234,
      "tudo": 3235,
      "companh": 3236,
      "confeccao": 3237,
      "exigido": 3238,
      "medio": 3239,
      "##ecu": 3240,
      "possiveis": 3241,
      "##teral": 3242,
      "##ques": 3243,
      "objetivando": 3244,
      "limites": 3245,
      "graf": 3246,
      "colo": 3247,
      "concorda": 3248,
      "evitar": 3249,
      "preval": 3250,
      "integralmente": 3251,
      "##elos": 3252,
      "autorizada": 3253,
      "##zer": 3254,
      "##tidas": 3255,
      "##enta": 3256,
      "indices": 3257,
      "agri": 3258,
      "comprovando": 3259,
      "##urso": 3260,
      "portanto": 3261,
      "utilizada": 3262,
      "##up": 3263,
      "relativa": 3264,
      "indicando": 3265,
      "examin": 3266,
      "silva": 3267,
      "fpm": 3268,
      "##ecera": 3269,
      "economica": 3270,
      "isso": 3271,
      "fgts": 3272,
      "tiver": 3273,
      "taman": 3274,
      "sent": 3275,
      "juridicas": 3276,
      "destes": 3277,
      "compri": 3278,
      "##ensao": 3279,
      "diferentes": 3280,
      "devidas": 3281,
      "ensa": 3282,
      "constituicao": 3283,
      "ren": 3284,
      "##arem": 3285,
      "subcontratacao": 3286,
      "impugnacao": 3287,
      "efica": 3288,
      "aspec": 3289,
      "combustivel": 3290,
      "##portu": 3291,
      "beneficios": 3292,
      "deca": 3293,
      "exclui": 3294,
      "lista": 3295,
      "poderes": 3296,
      "##ger": 3297,
      "registros": 3298,
      "gab": 3299,
      "anton": 3300,
      "##inacoes": 3301,
      "estando": 3302,
      "embalagens": 3303,
      "##bol": 3304,
      "rodo": 3305,
      "jor": 3306,
      "clin": 3307,
      "portal": 3308,
      "norte": 3309,
      "atribuicoes": 3310,
      "similar": 3311,
      "opcao": 3312,
      "comando": 3313,
      "compoem": 3314,
      "interrup": 3315,
      "web": 3316,
      "classificado": 3317,
      "recusar": 3318,
      "expedido": 3319,
      "##gando": 3320,
      "parametros": 3321,
      "dele": 3322,
      "virtude": 3323,
      "especifico": 3324,
      "##ioes": 3325,
      "formular": 3326,
      "suficiente": 3327,
      "##eral": 3328,
      "##ges": 3329,
      "acrescimos": 3330,
      "quim": 3331,
      "bater": 3332,
      "##ixas": 3333,
      "principios": 3334,
      "rura": 3335,
      "organizacao": 3336,
      "##uito": 3337,
      "grau": 3338,
      "escrita": 3339,
      "efetiva": 3340,
      "##xima": 3341,
      "indispensa": 3342,
      "sc": 3343,
      "repro": 3344,
      "ocorra": 3345,
      "##ento": 3346,
      "atesto": 3347,
      "estiverem": 3348,
      "designada": 3349,
      "cujos": 3350,
      "medida": 3351,
      "pers": 3352,
      "brasileiro": 3353,
      "##tulo": 3354,
      "##dens": 3355,
      "associ": 3356,
      "##bs": 3357,
      "licenca": 3358,
      "edifici": 3359,
      "##cular": 3360,
      "empreitada": 3361,
      "assumir": 3362,
      "##ecos": 3363,
      "revisao": 3364,
      "##ecion": 3365,
      "indiretamente": 3366,
      "arre": 3367,
      "respeita": 3368,
      "supres": 3369,
      "##anos": 3370,
      "respeito": 3371,
      "mensa": 3372,
      "situada": 3373,
      "##ension": 3374,
      "medico": 3375,
      "produz": 3376,
      "exigir": 3377,
      "cominacoes": 3378,
      "transportes": 3379,
      "manutencoes": 3380,
      "repar": 3381,
      "##mil": 3382,
      "aprovado": 3383,
      "rodovi": 3384,
      "metal": 3385,
      "portas": 3386,
      "resta": 3387,
      "bus": 3388,
      "ramo": 3389,
      "cultura": 3390,
      "posteriormente": 3391,
      "consor": 3392,
      "lotes": 3393,
      "detalhamento": 3394,
      "existente": 3395,
      "##tembro": 3396,
      "guarda": 3397,
      "incidentes": 3398,
      "pago": 3399,
      "torn": 3400,
      "francis": 3401,
      "combustiveis": 3402,
      "parcelada": 3403,
      "setembro": 3404,
      "softwares": 3405,
      "passagens": 3406,
      "semana": 3407,
      "injustificado": 3408,
      "##osto": 3409,
      "mf": 3410,
      "bran": 3411,
      "prepara": 3412,
      "autorizado": 3413,
      "bio": 3414,
      "eficiencia": 3415,
      "adver": 3416,
      "localizada": 3417,
      "destina": 3418,
      "repass": 3419,
      "perfeitas": 3420,
      "##alidade": 3421,
      "grupos": 3422,
      "possibilitar": 3423,
      "metodo": 3424,
      "rg": 3425,
      "oportu": 3426,
      "imediato": 3427,
      "pais": 3428,
      "consol": 3429,
      "##hado": 3430,
      "localizado": 3431,
      "convocar": 3432,
      "foto": 3433,
      "capital": 3434,
      "##vendo": 3435,
      "rigorosamente": 3436,
      "terao": 3437,
      "alunos": 3438,
      "preferencialmente": 3439,
      "frequ": 3440,
      "interfa": 3441,
      "soma": 3442,
      "aplicando": 3443,
      "reforma": 3444,
      "circunstanci": 3445,
      "futuras": 3446,
      "##tavel": 3447,
      "lhes": 3448,
      "especificas": 3449,
      "reconheci": 3450,
      "sanitaria": 3451,
      "abril": 3452,
      "fixo": 3453,
      "especificos": 3454,
      "declarado": 3455,
      "indus": 3456,
      "possu": 3457,
      "amb": 3458,
      "definidas": 3459,
      "salarios": 3460,
      "altura": 3461,
      "subsidiariamente": 3462,
      "obtidos": 3463,
      "retencao": 3464,
      "ltda": 3465,
      "ultima": 3466,
      "sofr": 3467,
      "concorr": 3468,
      "intencao": 3469,
      "incorre": 3470,
      "indicada": 3471,
      "destinado": 3472,
      "propriedade": 3473,
      "apresenta": 3474,
      "exigencia": 3475,
      "verificada": 3476,
      "ms": 3477,
      "odo": 3478,
      "audi": 3479,
      "flu": 3480,
      "atual": 3481,
      "ativa": 3482,
      "regulament": 3483,
      "fixada": 3484,
      "logistica": 3485,
      "balanco": 3486,
      "conexao": 3487,
      "encontram": 3488,
      "levant": 3489,
      "informado": 3490,
      "famil": 3491,
      "##edades": 3492,
      "integrantes": 3493,
      "minimas": 3494,
      "inco": 3495,
      "##minal": 3496,
      "##cin": 3497,
      "##lema": 3498,
      "francisco": 3499,
      "##adora": 3500,
      "arcar": 3501,
      "tempera": 3502,
      "antonio": 3503,
      "recebido": 3504,
      "##vencao": 3505,
      "requisitante": 3506,
      "agosto": 3507,
      "legisla": 3508,
      "adap": 3509,
      "moveis": 3510,
      "comoda": 3511,
      "emprego": 3512,
      "##imos": 3513,
      "kg": 3514,
      "comuns": 3515,
      "divida": 3516,
      "vida": 3517,
      "atuacao": 3518,
      "consumi": 3519,
      "##trita": 3520,
      "aquele": 3521,
      "##torias": 3522,
      "periodos": 3523,
      "##lu": 3524,
      "convocada": 3525,
      "encerrada": 3526,
      "acarreta": 3527,
      "ressarci": 3528,
      "minimos": 3529,
      "enderecos": 3530,
      "atenda": 3531,
      "externa": 3532,
      "##urg": 3533,
      "sen": 3534,
      "recep": 3535,
      "odonto": 3536,
      "corrigir": 3537,
      "##iano": 3538,
      "##adores": 3539,
      "arquivos": 3540,
      "##dez": 3541,
      "presenca": 3542,
      "propostos": 3543,
      "considerar": 3544,
      "aplicavel": 3545,
      "video": 3546,
      "creditos": 3547,
      "declarada": 3548,
      "esses": 3549,
      "ampli": 3550,
      "garantida": 3551,
      "difi": 3552,
      "##ecimento": 3553,
      "suprir": 3554,
      "dn": 3555,
      "provo": 3556,
      "obedecendo": 3557,
      "proposto": 3558,
      "representado": 3559,
      "habil": 3560,
      "maxima": 3561,
      "falsa": 3562,
      "jur": 3563,
      "##vem": 3564,
      "superveniente": 3565,
      "##iste": 3566,
      "problema": 3567,
      "cra": 3568,
      "ana": 3569,
      "justificado": 3570,
      "atualizada": 3571,
      "teste": 3572,
      "jorn": 3573,
      "consequente": 3574,
      "dificul": 3575,
      "operacoes": 3576,
      "obtencao": 3577,
      "incluidos": 3578,
      "saida": 3579,
      "competencia": 3580,
      "tan": 3581,
      "pain": 3582,
      "havera": 3583,
      "apuracao": 3584,
      "financeiros": 3585,
      "modelos": 3586,
      "##har": 3587,
      "cancelamento": 3588,
      "cumpr": 3589,
      "arqui": 3590,
      "porto": 3591,
      "##fas": 3592,
      "disponibilizacao": 3593,
      "zona": 3594,
      "funcoes": 3595,
      "##ordin": 3596,
      "instalado": 3597,
      "predio": 3598,
      "designados": 3599,
      "outu": 3600,
      "##gacoes": 3601,
      "liquido": 3602,
      "vistas": 3603,
      "cumula": 3604,
      "outubro": 3605,
      "conso": 3606,
      "inclusao": 3607,
      "cartorio": 3608,
      "socio": 3609,
      "adjudicado": 3610,
      "variacao": 3611,
      "transito": 3612,
      "parcelas": 3613,
      "teor": 3614,
      "plata": 3615,
      "##cula": 3616,
      "maneira": 3617,
      "uniformes": 3618,
      "mi": 3619,
      "prefeito": 3620,
      "mal": 3621,
      "acab": 3622,
      "##rensa": 3623,
      "baixa": 3624,
      "capi": 3625,
      "finan": 3626,
      "##endas": 3627,
      "rural": 3628,
      "capacitacao": 3629,
      "##ses": 3630,
      "integram": 3631,
      "fundamento": 3632,
      "der": 3633,
      "caput": 3634,
      "imprensa": 3635,
      "anti": 3636,
      "alterna": 3637,
      "orden": 3638,
      "orientacoes": 3639,
      "bel": 3640,
      "impac": 3641,
      "ocorrendo": 3642,
      "cinco": 3643,
      "solucoes": 3644,
      "requisicao": 3645,
      "interessado": 3646,
      "detentor": 3647,
      "encaminhada": 3648,
      "quem": 3649,
      "principal": 3650,
      "permita": 3651,
      "iniciar": 3652,
      "andamento": 3653,
      "ausencia": 3654,
      "reme": 3655,
      "##itario": 3656,
      "realizara": 3657,
      "perda": 3658,
      "arquite": 3659,
      "relev": 3660,
      "laudo": 3661,
      "assess": 3662,
      "aceitas": 3663,
      "pne": 3664,
      "largura": 3665,
      "nuc": 3666,
      "importancia": 3667,
      "volume": 3668,
      "similares": 3669,
      "##gio": 3670,
      "##ublica": 3671,
      "duracao": 3672,
      "##her": 3673,
      "respei": 3674,
      "line": 3675,
      "etapas": 3676,
      "denominada": 3677,
      "##posta": 3678,
      "##adoras": 3679,
      "definitivamente": 3680,
      "tarif": 3681,
      "pedro": 3682,
      "programas": 3683,
      "##rifica": 3684,
      "erros": 3685,
      "edificio": 3686,
      "dan": 3687,
      "disso": 3688,
      "##uais": 3689,
      "link": 3690,
      "reparos": 3691,
      "estran": 3692,
      "recibo": 3693,
      "apren": 3694,
      "permitindo": 3695,
      "rein": 3696,
      "formaliz": 3697,
      "##issoes": 3698,
      "reparar": 3699,
      "##ware": 3700,
      "suspen": 3701,
      "admitida": 3702,
      "clara": 3703,
      "colabora": 3704,
      "versao": 3705,
      "agente": 3706,
      "disp": 3707,
      "pagina": 3708,
      "memb": 3709,
      "definicao": 3710,
      "cabos": 3711,
      "estrateg": 3712,
      "instrucoes": 3713,
      "inabilitacao": 3714,
      "acion": 3715,
      "desses": 3716,
      "integ": 3717,
      "exemplo": 3718,
      "convencao": 3719,
      "consumidor": 3720,
      "##jo": 3721,
      "licitados": 3722,
      "pacientes": 3723,
      "processamento": 3724,
      "pintura": 3725,
      "deslocamento": 3726,
      "atin": 3727,
      "cabo": 3728,
      "brasileira": 3729,
      "emergencia": 3730,
      "eleva": 3731,
      "repa": 3732,
      "preci": 3733,
      "##uido": 3734,
      "ml": 3735,
      "inss": 3736,
      "diretor": 3737,
      "plena": 3738,
      "republica": 3739,
      "face": 3740,
      "livre": 3741,
      "constatada": 3742,
      "mudan": 3743,
      "##rais": 3744,
      "trafe": 3745,
      "apropri": 3746,
      "qua": 3747,
      "vinculada": 3748,
      "santos": 3749,
      "concedido": 3750,
      "ita": 3751,
      "eletronicos": 3752,
      "sustentabilidade": 3753,
      "repactu": 3754,
      "enviados": 3755,
      "branco": 3756,
      "tamanho": 3757,
      "falha": 3758,
      "##tou": 3759,
      "##riz": 3760,
      "obter": 3761,
      "peca": 3762,
      "lis": 3763,
      "fornecida": 3764,
      "capitulo": 3765,
      "defens": 3766,
      "exercer": 3767,
      "nossa": 3768,
      "atendidas": 3769,
      "incen": 3770,
      "##inh": 3771,
      "restricao": 3772,
      "observada": 3773,
      "hidra": 3774,
      "unila": 3775,
      "erro": 3776,
      "vale": 3777,
      "normal": 3778,
      "mara": 3779,
      "enquadra": 3780,
      "reno": 3781,
      "##ard": 3782,
      "preamb": 3783,
      "dolo": 3784,
      "aprendi": 3785,
      "abrang": 3786,
      "futu": 3787,
      "hor": 3788,
      "natura": 3789,
      "fms": 3790,
      "remanescentes": 3791,
      "distancia": 3792,
      "comprimento": 3793,
      "tex": 3794,
      "fixacao": 3795,
      "integracao": 3796,
      "##dades": 3797,
      "grav": 3798,
      "elenca": 3799,
      "##don": 3800,
      "referidos": 3801,
      "oficio": 3802,
      "acerca": 3803,
      "escal": 3804,
      "contagem": 3805,
      "correta": 3806,
      "faltas": 3807,
      "relativo": 3808,
      "comproba": 3809,
      "ol": 3810,
      "quilo": 3811,
      "ala": 3812,
      "front": 3813,
      "aquela": 3814,
      "aspectos": 3815,
      "membros": 3816,
      "##ilib": 3817,
      "sur": 3818,
      "folha": 3819,
      "prel": 3820,
      "santo": 3821,
      "marco": 3822,
      "mag": 3823,
      "situado": 3824,
      "lingua": 3825,
      "esgo": 3826,
      "judiciaria": 3827,
      "##arca": 3828,
      "registrar": 3829,
      "reais": 3830,
      "ressalv": 3831,
      "separa": 3832,
      "matri": 3833,
      "farma": 3834,
      "mensais": 3835,
      "modulo": 3836,
      "certificacao": 3837,
      "cirurg": 3838,
      "##rig": 3839,
      "##ivas": 3840,
      "dano": 3841,
      "correcoes": 3842,
      "coordenadoria": 3843,
      "exclusivo": 3844,
      "inexistencia": 3845,
      "adotado": 3846,
      "correla": 3847,
      "estas": 3848,
      "aceitabilidade": 3849,
      "assegurada": 3850,
      "equ": 3851,
      "aproxima": 3852,
      "aditivo": 3853,
      "##veniencia": 3854,
      "##ilibrio": 3855,
      "setores": 3856,
      "totalidade": 3857,
      "preambulo": 3858,
      "prelimin": 3859,
      "pessoais": 3860,
      "identificados": 3861,
      "fus": 3862,
      "acarre": 3863,
      "rn": 3864,
      "obedecer": 3865,
      "agentes": 3866,
      "funcionario": 3867,
      "faturamento": 3868,
      "advertencia": 3869,
      "facultado": 3870,
      "##quia": 3871,
      "fretes": 3872,
      "bil": 3873,
      "interval": 3874,
      "sigilo": 3875,
      "omissao": 3876,
      "sentido": 3877,
      "instrumentos": 3878,
      "exten": 3879,
      "espaco": 3880,
      "varia": 3881,
      "consequ": 3882,
      "necessita": 3883,
      "domicilio": 3884,
      "decorrer": 3885,
      "supra": 3886,
      "tipos": 3887,
      "identificar": 3888,
      "dimension": 3889,
      "ss": 3890,
      "entao": 3891,
      "diante": 3892,
      "utilizadas": 3893,
      "aleg": 3894,
      "disponibilizados": 3895,
      "##lex": 3896,
      "envolvidos": 3897,
      "inclusos": 3898,
      "medici": 3899,
      "cometer": 3900,
      "##dagem": 3901,
      "cotado": 3902,
      "penas": 3903,
      "mol": 3904,
      "domin": 3905,
      "perdas": 3906,
      "adjudicatario": 3907,
      "indicadas": 3908,
      "secretario": 3909,
      "localidade": 3910,
      "revis": 3911,
      "odontolog": 3912,
      "sedi": 3913,
      "substituidos": 3914,
      "encaminhados": 3915,
      "remuneracao": 3916,
      "ensejar": 3917,
      "##ticao": 3918,
      "espess": 3919,
      "acabamento": 3920,
      "fornecedora": 3921,
      "automo": 3922,
      "##ensoes": 3923,
      "las": 3924,
      "orientacao": 3925,
      "toma": 3926,
      "inicialmente": 3927,
      "##dri": 3928,
      "enviada": 3929,
      "reuniao": 3930,
      "consideradas": 3931,
      "##queada": 3932,
      "infant": 3933,
      "parci": 3934,
      "agro": 3935,
      "atende": 3936,
      "funcionalidade": 3937,
      "titular": 3938,
      "##tino": 3939,
      "retar": 3940,
      "mobili": 3941,
      "tim": 3942,
      "coloca": 3943,
      "confeccion": 3944,
      "dever": 3945,
      "selecao": 3946,
      "ajustes": 3947,
      "integridade": 3948,
      "incluir": 3949,
      "##pulacao": 3950,
      "dispensa": 3951,
      "consecu": 3952,
      "trabalhadores": 3953,
      "##grafica": 3954,
      "questao": 3955,
      "ga": 3956,
      "presentes": 3957,
      "excep": 3958,
      "ofereci": 3959,
      "infracao": 3960,
      "movel": 3961,
      "capaz": 3962,
      "interrupcao": 3963,
      "pertencentes": 3964,
      "##essa": 3965,
      "maria": 3966,
      "compreendendo": 3967,
      "obtido": 3968,
      "fortal": 3969,
      "exame": 3970,
      "unid": 3971,
      "bn": 3972,
      "telefones": 3973,
      "diarias": 3974,
      "##abeis": 3975,
      "seti": 3976,
      "estatu": 3977,
      "manuais": 3978,
      "andar": 3979,
      "extens": 3980,
      "##polis": 3981,
      "supervisao": 3982,
      "lub": 3983,
      "frete": 3984,
      "##itais": 3985,
      "sociedades": 3986,
      "##ntas": 3987,
      "registrada": 3988,
      "conduta": 3989,
      "casas": 3990,
      "parana": 3991,
      "assu": 3992,
      "hs": 3993,
      "##essionaria": 3994,
      "renun": 3995,
      "ferramenta": 3996,
      "ordens": 3997,
      "declarar": 3998,
      "chat": 3999,
      "reabilitacao": 4000,
      "##avel": 4001,
      "proporcionar": 4002,
      "##tizacao": 4003,
      "suportar": 4004,
      "fic": 4005,
      "motorista": 4006,
      "pagara": 4007,
      "lubrifica": 4008,
      "assessoria": 4009,
      "provenientes": 4010,
      "##ruz": 4011,
      "celebrar": 4012,
      "procedencia": 4013,
      "lac": 4014,
      "espessura": 4015,
      "engenheiro": 4016,
      "visu": 4017,
      "causa": 4018,
      "executivo": 4019,
      "arts": 4020,
      "##dros": 4021,
      "economia": 4022,
      "##ie": 4023,
      "eleitoral": 4024,
      "##plica": 4025,
      "adocao": 4026,
      "cartao": 4027,
      "apresentando": 4028,
      "impossibilidade": 4029,
      "plataforma": 4030,
      "##taveis": 4031,
      "tratando": 4032,
      "chefe": 4033,
      "##cultura": 4034,
      "tare": 4035,
      "credenciados": 4036,
      "##tarios": 4037,
      "reparo": 4038,
      "diaria": 4039,
      "##gnos": 4040,
      "devolucao": 4041,
      "liberacao": 4042,
      "escola": 4043,
      "##tim": 4044,
      "hidraul": 4045,
      "entende": 4046,
      "rotin": 4047,
      "estabelecimento": 4048,
      "disputa": 4049,
      "reco": 4050,
      "tercei": 4051,
      "##deci": 4052,
      "atrasos": 4053,
      "eficacia": 4054,
      "obrigando": 4055,
      "manifestacao": 4056,
      "eletrobras": 4057,
      "cumulativamente": 4058,
      "estabelece": 4059,
      "##clama": 4060,
      "permitida": 4061,
      "previdenciarias": 4062,
      "##quem": 4063,
      "##guar": 4064,
      "junta": 4065,
      "terceira": 4066,
      "hourho": 4067,
      "falencia": 4068,
      "tela": 4069,
      "fraude": 4070,
      "hourhour": 4071,
      "memoria": 4072,
      "sane": 4073,
      "prox": 4074,
      "comodato": 4075,
      "##brado": 4076,
      "atendam": 4077,
      "fortu": 4078,
      "dispens": 4079,
      "gabine": 4080,
      "higiene": 4081,
      "hist": 4082,
      "aptidao": 4083,
      "eles": 4084,
      "temperatura": 4085,
      "pu": 4086,
      "mineral": 4087,
      "elaborado": 4088,
      "toca": 4089,
      "estudo": 4090,
      "alcan": 4091,
      "##ificado": 4092,
      "sab": 4093,
      "afe": 4094,
      "optar": 4095,
      "##tion": 4096,
      "trafego": 4097,
      "transmissao": 4098,
      "incidam": 4099,
      "estarao": 4100,
      "bol": 4101,
      "posi": 4102,
      "##xo": 4103,
      "bilhe": 4104,
      "fone": 4105,
      "extenso": 4106,
      "policia": 4107,
      "pagos": 4108,
      "##nidade": 4109,
      "##icou": 4110,
      "inadimplencia": 4111,
      "inadequ": 4112,
      "adm": 4113,
      "eletricos": 4114,
      "possibilita": 4115,
      "garantindo": 4116,
      "vent": 4117,
      "##camento": 4118,
      "beneficiario": 4119,
      "segue": 4120,
      "caixas": 4121,
      "bloco": 4122,
      "control": 4123,
      "sens": 4124,
      "mantendo": 4125,
      "alegre": 4126,
      "consorcio": 4127,
      "celebrado": 4128,
      "selecion": 4129,
      "revogar": 4130,
      "facultada": 4131,
      "coletiva": 4132,
      "camin": 4133,
      "##ws": 4134,
      "calculada": 4135,
      "cotados": 4136,
      "preenchimento": 4137,
      "supervis": 4138,
      "externo": 4139,
      "##lig": 4140,
      "expl": 4141,
      "consideracao": 4142,
      "resultante": 4143,
      "consignados": 4144,
      "ante": 4145,
      "funcionalidades": 4146,
      "comprovem": 4147,
      "hospe": 4148,
      "dimensoes": 4149,
      "##ing": 4150,
      "quinta": 4151,
      "industri": 4152,
      "transpar": 4153,
      "interface": 4154,
      "permanecerao": 4155,
      "feitas": 4156,
      "cessao": 4157,
      "rib": 4158,
      "defensoria": 4159,
      "padron": 4160,
      "compens": 4161,
      "cumpre": 4162,
      "aereas": 4163,
      "pv": 4164,
      "basica": 4165,
      "totalmente": 4166,
      "remocao": 4167,
      "piso": 4168,
      "##ifi": 4169,
      "acompanhados": 4170,
      "especie": 4171,
      "eletrico": 4172,
      "corrig": 4173,
      "vier": 4174,
      "alimentos": 4175,
      "levantamento": 4176,
      "incendio": 4177,
      "emitidas": 4178,
      "pec": 4179,
      "reclama": 4180,
      "algar": 4181,
      "fizer": 4182,
      "acrescimo": 4183,
      "datas": 4184,
      "terceiriz": 4185,
      "exclusao": 4186,
      "##istente": 4187,
      "regulamento": 4188,
      "epo": 4189,
      "ses": 4190,
      "metro": 4191,
      "##pu": 4192,
      "diagnos": 4193,
      "publicada": 4194,
      "mt": 4195,
      "consoante": 4196,
      "##deiras": 4197,
      "definitiva": 4198,
      "##mazon": 4199,
      "supressoes": 4200,
      "ajustado": 4201,
      "substituido": 4202,
      "fisicas": 4203,
      "dec": 4204,
      "notur": 4205,
      "publicado": 4206,
      "entregas": 4207,
      "belem": 4208,
      "placa": 4209,
      "especializados": 4210,
      "preceitos": 4211,
      "julgar": 4212,
      "plenamente": 4213,
      "ambientais": 4214,
      "alto": 4215,
      "empate": 4216,
      "velo": 4217,
      "cartoes": 4218,
      "ampliacao": 4219,
      "##ficientes": 4220,
      "cursos": 4221,
      "obedeci": 4222,
      "##uras": 4223,
      "judicialmente": 4224,
      "##ismos": 4225,
      "##mentais": 4226,
      "##ft": 4227,
      "estudos": 4228,
      "indispensaveis": 4229,
      "rei": 4230,
      "credenciada": 4231,
      "amazon": 4232,
      "fio": 4233,
      "utens": 4234,
      "humanos": 4235,
      "especificadas": 4236,
      "estimativas": 4237,
      "atencao": 4238,
      "contratadas": 4239,
      "cooperativas": 4240,
      "imperfeicoes": 4241,
      "pri": 4242,
      "divergencia": 4243,
      "elas": 4244,
      "decorrido": 4245,
      "utensil": 4246,
      "certificados": 4247,
      "omissos": 4248,
      "governa": 4249,
      "efetuadas": 4250,
      "##guel": 4251,
      "luis": 4252,
      "aumento": 4253,
      "ilumin": 4254,
      "recorrer": 4255,
      "indenizacoes": 4256,
      "promovida": 4257,
      "atualizados": 4258,
      "dispositivo": 4259,
      "disti": 4260,
      "frau": 4261,
      "estrita": 4262,
      "registradas": 4263,
      "auxiliar": 4264,
      "extensao": 4265,
      "adequados": 4266,
      "tensao": 4267,
      "desmo": 4268,
      "consultoria": 4269,
      "##doras": 4270,
      "suple": 4271,
      "corretivas": 4272,
      "concessao": 4273,
      "reunioes": 4274,
      "##dr": 4275,
      "feriados": 4276,
      "exclu": 4277,
      "homolo": 4278,
      "principio": 4279,
      "movimentacao": 4280,
      "telefonia": 4281,
      "fixados": 4282,
      "ensaios": 4283,
      "busca": 4284,
      "cuida": 4285,
      "anteriormente": 4286,
      "punicao": 4287,
      "furnas": 4288,
      "aerona": 4289,
      "imagens": 4290,
      "indiretas": 4291,
      "utensilios": 4292,
      "##cel": 4293,
      "criacao": 4294,
      "salario": 4295,
      "respeitando": 4296,
      "seman": 4297,
      "emitidos": 4298,
      "defici": 4299,
      "especiais": 4300,
      "##grafia": 4301,
      "##onancia": 4302,
      "##tru": 4303,
      "programacao": 4304,
      "determinacoes": 4305,
      "sofrer": 4306,
      "novembro": 4307,
      "estimados": 4308,
      "pagar": 4309,
      "longo": 4310,
      "incorrecoes": 4311,
      "atualmente": 4312,
      "hospitalares": 4313,
      "apont": 4314,
      "composto": 4315,
      "ron": 4316,
      "pneus": 4317,
      "conheci": 4318,
      "rejeitar": 4319,
      "causar": 4320,
      "comparecer": 4321,
      "solicitante": 4322,
      "contabeis": 4323,
      "adotar": 4324,
      "branca": 4325,
      "placas": 4326,
      "detalhes": 4327,
      "of": 4328,
      "oleo": 4329,
      "complexidade": 4330,
      "flor": 4331,
      "identificado": 4332,
      "fabricantes": 4333,
      "##ulos": 4334,
      "confirmacao": 4335,
      "gal": 4336,
      "madeira": 4337,
      "internas": 4338,
      "parna": 4339,
      "aprovada": 4340,
      "fornecidas": 4341,
      "suprimentos": 4342,
      "recomendacoes": 4343,
      "##icio": 4344,
      "##trizes": 4345,
      "determinando": 4346,
      "casa": 4347,
      "pare": 4348,
      "back": 4349,
      "compara": 4350,
      "reclamacoes": 4351,
      "manifestar": 4352,
      "##item": 4353,
      "midi": 4354,
      "privi": 4355,
      "passagem": 4356,
      "pont": 4357,
      "edifica": 4358,
      "perdura": 4359,
      "oriundos": 4360,
      "escritorio": 4361,
      "histor": 4362,
      "vinculados": 4363,
      "##dindo": 4364,
      "destino": 4365,
      "gl": 4366,
      "fechamento": 4367,
      "declaracoes": 4368,
      "pressao": 4369,
      "##ulacao": 4370,
      "ambientes": 4371,
      "avalia": 4372,
      "frequencia": 4373,
      "gabinete": 4374,
      "licencia": 4375,
      "anor": 4376,
      "fever": 4377,
      "interior": 4378,
      "iluminacao": 4379,
      "individu": 4380,
      "##uracao": 4381,
      "porem": 4382,
      "totais": 4383,
      "radio": 4384,
      "chamadas": 4385,
      "permitido": 4386,
      "incidir": 4387,
      "repactuacao": 4388,
      "estoque": 4389,
      "cotacao": 4390,
      "ds": 4391,
      "intervalo": 4392,
      "arquitetura": 4393,
      "menores": 4394,
      "formula": 4395,
      "##gadas": 4396,
      "retor": 4397,
      "##dao": 4398,
      "sucessivos": 4399,
      "fevereiro": 4400,
      "definida": 4401,
      "discriminados": 4402,
      "##ds": 4403,
      "expos": 4404,
      "remessa": 4405,
      "timbrado": 4406,
      "##mb": 4407,
      "inmetro": 4408,
      "consonancia": 4409,
      "luz": 4410,
      "anuencia": 4411,
      "##rados": 4412,
      "convenio": 4413,
      "pvc": 4414,
      "infracoes": 4415,
      "visto": 4416,
      "prejudica": 4417,
      "beneficio": 4418,
      "##ende": 4419,
      "diretos": 4420,
      "agendamento": 4421,
      "aplicacoes": 4422,
      "legalmente": 4423,
      "companhia": 4424,
      "##rir": 4425,
      "##riti": 4426,
      "convocara": 4427,
      "ressarcimento": 4428,
      "particular": 4429,
      "privileg": 4430,
      "##ibra": 4431,
      "cant": 4432,
      "audio": 4433,
      "conveniencia": 4434,
      "debito": 4435,
      "##gue": 4436,
      "geracao": 4437,
      "folhas": 4438,
      "conser": 4439,
      "resum": 4440,
      "nele": 4441,
      "perig": 4442,
      "##ers": 4443,
      "indig": 4444,
      "gros": 4445,
      "alago": 4446,
      "universitario": 4447,
      "ton": 4448,
      "adquirido": 4449,
      "prover": 4450,
      "##enciais": 4451,
      "sujeito": 4452,
      "nucleo": 4453,
      "##ncia": 4454,
      "nona": 4455,
      "prestada": 4456,
      "##cs": 4457,
      "dedica": 4458,
      "concreto": 4459,
      "diz": 4460,
      "perdurarem": 4461,
      "circul": 4462,
      "sucessivamente": 4463,
      "##elha": 4464,
      "redes": 4465,
      "apre": 4466,
      "elaborar": 4467,
      "quatro": 4468,
      "dispor": 4469,
      "##gres": 4470,
      "franqueada": 4471,
      "prevencao": 4472,
      "linhas": 4473,
      "portugues": 4474,
      "paco": 4475,
      "ocup": 4476,
      "sujeitando": 4477,
      "##cadas": 4478,
      "contenha": 4479,
      "consecutivos": 4480,
      "diretrizes": 4481,
      "prior": 4482,
      "decimais": 4483,
      "gar": 4484,
      "refeicoes": 4485,
      "principalmente": 4486,
      "dnit": 4487,
      "comarca": 4488,
      "lig": 4489,
      "institucional": 4490,
      "hard": 4491,
      "inidoneo": 4492,
      "matricula": 4493,
      "quarta": 4494,
      "refrig": 4495,
      "comprovantes": 4496,
      "valida": 4497,
      "estados": 4498,
      "estimada": 4499,
      "##iedade": 4500,
      "aparelho": 4501,
      "denominado": 4502,
      "isto": 4503,
      "campos": 4504,
      "hem": 4505,
      "##udos": 4506,
      "finais": 4507,
      "comprovadamente": 4508,
      "diferencia": 4509,
      "##aram": 4510,
      "auxilio": 4511,
      "perfil": 4512,
      "plant": 4513,
      "paragrafos": 4514,
      "representa": 4515,
      "decimo": 4516,
      "ferias": 4517,
      "##tm": 4518,
      "inadimplemento": 4519,
      "cujas": 4520,
      "obrigatorio": 4521,
      "painel": 4522,
      "atestar": 4523,
      "ira": 4524,
      "objetivos": 4525,
      "declaramos": 4526,
      "##ct": 4527,
      "estaduais": 4528,
      "oper": 4529,
      "encont": 4530,
      "horizo": 4531,
      "politica": 4532,
      "trec": 4533,
      "indiretos": 4534,
      "continua": 4535,
      "apresentem": 4536,
      "substitui": 4537,
      "ader": 4538,
      "prorrogavel": 4539,
      "verificadas": 4540,
      "brb": 4541,
      "incorpo": 4542,
      "mos": 4543,
      "descarga": 4544,
      "bndes": 4545,
      "lava": 4546,
      "regularmente": 4547,
      "rescindido": 4548,
      "plastico": 4549,
      "investi": 4550,
      "financas": 4551,
      "percentuais": 4552,
      "determinantes": 4553,
      "aprendiz": 4554,
      "superfici": 4555,
      "correra": 4556,
      "diametro": 4557,
      "divi": 4558,
      "##ice": 4559,
      "retardamento": 4560,
      "##lamento": 4561,
      "estatuto": 4562,
      "##ono": 4563,
      "destinacao": 4564,
      "##las": 4565,
      "estarem": 4566,
      "##usa": 4567,
      "classe": 4568,
      "floriano": 4569,
      "analises": 4570,
      "parcialmente": 4571,
      "maximos": 4572,
      "cof": 4573,
      "cota": 4574,
      "sign": 4575,
      "comprometer": 4576,
      "baterias": 4577,
      "implementacao": 4578,
      "##ridos": 4579,
      "faze": 4580,
      "apol": 4581,
      "higien": 4582,
      "##ivos": 4583,
      "milita": 4584,
      "direcao": 4585,
      "solu": 4586,
      "peticao": 4587,
      "oriundas": 4588,
      "##ensa": 4589,
      "coz": 4590,
      "##trem": 4591,
      "potencia": 4592,
      "aplicado": 4593,
      "observacao": 4594,
      "velocidade": 4595,
      "viagens": 4596,
      "laborator": 4597,
      "habilitado": 4598,
      "anormal": 4599,
      "calibra": 4600,
      "integrado": 4601,
      "prove": 4602,
      "oita": 4603,
      "estrang": 4604,
      "comba": 4605,
      "periodica": 4606,
      "limitada": 4607,
      "chave": 4608,
      "quer": 4609,
      "diretas": 4610,
      "justificativas": 4611,
      "eti": 4612,
      "eletronorte": 4613,
      "cau": 4614,
      "faixa": 4615,
      "competentes": 4616,
      "avaliar": 4617,
      "populacao": 4618,
      "refor": 4619,
      "militares": 4620,
      "##enhor": 4621,
      "ib": 4622,
      "sanitario": 4623,
      "circunstanciado": 4624,
      "justificada": 4625,
      "formalizacao": 4626,
      "detalhadas": 4627,
      "##istir": 4628,
      "inabilita": 4629,
      "lago": 4630,
      "cd": 4631,
      "modulos": 4632,
      "proporcion": 4633,
      "sesa": 4634,
      "formulario": 4635,
      "substituto": 4636,
      "ciente": 4637,
      "compromete": 4638,
      "##mando": 4639,
      "##fus": 4640,
      "diferenca": 4641,
      "impro": 4642,
      "cil": 4643,
      "##osos": 4644,
      "telefonico": 4645,
      "##cara": 4646,
      "fac": 4647,
      "dimin": 4648,
      "##pol": 4649,
      "##ep": 4650,
      "matriz": 4651,
      "transferir": 4652,
      "tarefas": 4653,
      "consultas": 4654,
      "deduz": 4655,
      "fornecimentos": 4656,
      "eletricas": 4657,
      "##vio": 4658,
      "paralis": 4659,
      "turismo": 4660,
      "ressarcir": 4661,
      "##si": 4662,
      "autar": 4663,
      "##dicial": 4664,
      "exercida": 4665,
      "exercito": 4666,
      "assumindo": 4667,
      "tomar": 4668,
      "prece": 4669,
      "principais": 4670,
      "rotinas": 4671,
      "##tria": 4672,
      "simulta": 4673,
      "estipulados": 4674,
      "simultane": 4675,
      "ester": 4676,
      "agricultura": 4677,
      "impossibil": 4678,
      "fortuito": 4679,
      "parnaiba": 4680,
      "pavimentacao": 4681,
      "desconfor": 4682,
      "##ise": 4683,
      "definir": 4684,
      "fazendo": 4685,
      "maquina": 4686,
      "escala": 4687,
      "son": 4688,
      "desclassificada": 4689,
      "determinacao": 4690,
      "ocasion": 4691,
      "petro": 4692,
      "concedida": 4693,
      "liquidez": 4694,
      "pros": 4695,
      "litros": 4696,
      "decisoes": 4697,
      "inicia": 4698,
      "##be": 4699,
      "passag": 4700,
      "##tamente": 4701,
      "ide": 4702,
      "medicina": 4703,
      "sindica": 4704,
      "##dc": 4705,
      "impre": 4706,
      "graficos": 4707,
      "windo": 4708,
      "proib": 4709,
      "adimplemento": 4710,
      "manus": 4711,
      "destinada": 4712,
      "carim": 4713,
      "firmar": 4714,
      "adesao": 4715,
      "supraci": 4716,
      "correio": 4717,
      "informados": 4718,
      "extraju": 4719,
      "apl": 4720,
      "marcas": 4721,
      "##pia": 4722,
      "comprovados": 4723,
      "adquirir": 4724,
      "decre": 4725,
      "quadra": 4726,
      "fortaleza": 4727,
      "resistencia": 4728,
      "nutri": 4729,
      "alar": 4730,
      "inox": 4731,
      "##faz": 4732,
      "windows": 4733,
      "acervo": 4734,
      "##inhas": 4735,
      "prontamente": 4736,
      "acrescido": 4737,
      "##temun": 4738,
      "alves": 4739,
      "comportar": 4740,
      "credenciado": 4741,
      "conduz": 4742,
      "firmam": 4743,
      "viabil": 4744,
      "incon": 4745,
      "adequadas": 4746,
      "redi": 4747,
      "exceder": 4748,
      "##una": 4749,
      "despa": 4750,
      "nacionais": 4751,
      "##chas": 4752,
      "tecido": 4753,
      "##mentarias": 4754,
      "testemun": 4755,
      "fita": 4756,
      "recebidas": 4757,
      "cilin": 4758,
      "composta": 4759,
      "imagem": 4760,
      "estabelecer": 4761,
      "oliv": 4762,
      "quinto": 4763,
      "unilateral": 4764,
      "noturno": 4765,
      "indispon": 4766,
      "alocados": 4767,
      "merca": 4768,
      "constando": 4769,
      "materia": 4770,
      "mencionado": 4771,
      "sinalizacao": 4772,
      "ficam": 4773,
      "##unica": 4774,
      "descredencia": 4775,
      "recons": 4776,
      "uniforme": 4777,
      "##ian": 4778,
      "cida": 4779,
      "numeros": 4780,
      "coren": 4781,
      "substituicoes": 4782,
      "educa": 4783,
      "etique": 4784,
      "incidencia": 4785,
      "orcamentarias": 4786,
      "contida": 4787,
      "agu": 4788,
      "permite": 4789,
      "incluidas": 4790,
      "aceitavel": 4791,
      "sujeitara": 4792,
      "colaboradores": 4793,
      "terri": 4794,
      "combate": 4795,
      "consolidacao": 4796,
      "fundamentado": 4797,
      "conh": 4798,
      "espor": 4799,
      "##utica": 4800,
      "##gentes": 4801,
      "tran": 4802,
      "notificar": 4803,
      "##uidos": 4804,
      "refei": 4805,
      "bancario": 4806,
      "previdencia": 4807,
      "miguel": 4808,
      "oliveira": 4809,
      "celebracao": 4810,
      "##ton": 4811,
      "feitos": 4812,
      "simile": 4813,
      "epoca": 4814,
      "indicadores": 4815,
      "contabil": 4816,
      "significa": 4817,
      "##tendo": 4818,
      "apen": 4819,
      "ribeiro": 4820,
      "atualizacoes": 4821,
      "defei": 4822,
      "cores": 4823,
      "consiste": 4824,
      "satisfatoria": 4825,
      "hardware": 4826,
      "##sor": 4827,
      "##tam": 4828,
      "bra": 4829,
      "pan": 4830,
      "levando": 4831,
      "equilibrio": 4832,
      "localizacao": 4833,
      "tabelas": 4834,
      "correspondencia": 4835,
      "revesti": 4836,
      "hospedagem": 4837,
      "ligacoes": 4838,
      "seguindo": 4839,
      "junt": 4840,
      "funde": 4841,
      "defeitu": 4842,
      "desempen": 4843,
      "metros": 4844,
      "livro": 4845,
      "cargos": 4846,
      "verificara": 4847,
      "ig": 4848,
      "##dacao": 4849,
      "pot": 4850,
      "espera": 4851,
      "demonstracoes": 4852,
      "expresso": 4853,
      "privilegiado": 4854,
      "hu": 4855,
      "estipuladas": 4856,
      "##pan": 4857,
      "memor": 4858,
      "filial": 4859,
      "##toriedade": 4860,
      "micros": 4861,
      "##este": 4862,
      "catalogo": 4863,
      "melhoria": 4864,
      "motivada": 4865,
      "rf": 4866,
      "mantiver": 4867,
      "clima": 4868,
      "facilitar": 4869,
      "quitacao": 4870,
      "possuem": 4871,
      "##vir": 4872,
      "metodologia": 4873,
      "examinara": 4874,
      "ido": 4875,
      "dessas": 4876,
      "correto": 4877,
      "bole": 4878,
      "hemo": 4879,
      "##tragem": 4880,
      "promocao": 4881,
      "estabelecimentos": 4882,
      "maran": 4883,
      "determinados": 4884,
      "residente": 4885,
      "cis": 4886,
      "fontes": 4887,
      "atribu": 4888,
      "tcu": 4889,
      "urbana": 4890,
      "##comunica": 4891,
      "executada": 4892,
      "pesquisas": 4893,
      "obrigatoriedade": 4894,
      "aplicou": 4895,
      "reem": 4896,
      "##cindi": 4897,
      "margem": 4898,
      "evitando": 4899,
      "##vimento": 4900,
      "especializado": 4901,
      "cruz": 4902,
      "compensacao": 4903,
      "empregati": 4904,
      "peso": 4905,
      "alumin": 4906,
      "cartu": 4907,
      "legislacoes": 4908,
      "tinta": 4909,
      "disciplina": 4910,
      "aerea": 4911,
      "determinada": 4912,
      "tj": 4913,
      "alterado": 4914,
      "efetuara": 4915,
      "imprescindi": 4916,
      "##etaria": 4917,
      "remover": 4918,
      "portuguesa": 4919,
      "encaminhadas": 4920,
      "executadas": 4921,
      "ficarao": 4922,
      "mato": 4923,
      "lucro": 4924,
      "internos": 4925,
      "orientar": 4926,
      "##mica": 4927,
      "##cios": 4928,
      "descricoes": 4929,
      "constatado": 4930,
      "concorrencia": 4931,
      "interesses": 4932,
      "individuais": 4933,
      "autorizados": 4934,
      "determina": 4935,
      "##inheiro": 4936,
      "grosso": 4937,
      "afas": 4938,
      "atenderem": 4939,
      "consequencias": 4940,
      "gb": 4941,
      "ficar": 4942,
      "citado": 4943,
      "encaminhado": 4944,
      "eletronicamente": 4945,
      "invi": 4946,
      "##iares": 4947,
      "diferenciado": 4948,
      "nominal": 4949,
      "modalidades": 4950,
      "cozinha": 4951,
      "montante": 4952,
      "ultimos": 4953,
      "##unda": 4954,
      "st": 4955,
      "imoveis": 4956,
      "gerador": 4957,
      "exti": 4958,
      "idone": 4959,
      "representacao": 4960,
      "vezes": 4961,
      "dado": 4962,
      "formas": 4963,
      "explicita": 4964,
      "rap": 4965,
      "##dira": 4966,
      "garantido": 4967,
      "requerimento": 4968,
      "jar": 4969,
      "localidades": 4970,
      "calculado": 4971,
      "impeditivo": 4972,
      "enquadramento": 4973,
      "coletivo": 4974,
      "fundeb": 4975,
      "fraudar": 4976,
      "rondon": 4977,
      "##cias": 4978,
      "alagoas": 4979,
      "mudanca": 4980,
      "cooperativa": 4981,
      "grave": 4982,
      "aberto": 4983,
      "laboratorios": 4984,
      "##alub": 4985,
      "fixos": 4986,
      "aluminio": 4987,
      "elencados": 4988,
      "maranhao": 4989,
      "instalar": 4990,
      "alv": 4991,
      "recar": 4992,
      "guia": 4993,
      "desej": 4994,
      "clinicas": 4995,
      "insalub": 4996,
      "diagnostico": 4997,
      "##isa": 4998,
      "basicas": 4999,
      "associacao": 5000,
      "orcamentos": 5001,
      "classificadas": 5002,
      "kit": 5003,
      "##quir": 5004,
      "verbas": 5005,
      "discriminado": 5006,
      "contratantes": 5007,
      "admitido": 5008,
      "deposita": 5009,
      "suficientes": 5010,
      "##iro": 5011,
      "testemunhas": 5012,
      "##lh": 5013,
      "costa": 5014,
      "quarto": 5015,
      "cento": 5016,
      "mencionados": 5017,
      "preventivas": 5018,
      "homologado": 5019,
      "mobiliario": 5020,
      "catalogos": 5021,
      "vio": 5022,
      "designar": 5023,
      "preliminar": 5024,
      "mecanica": 5025,
      "chamada": 5026,
      "referidas": 5027,
      "fechado": 5028,
      "adquir": 5029,
      "leitura": 5030,
      "formulacao": 5031,
      "natural": 5032,
      "obtidas": 5033,
      "descrita": 5034,
      "periodici": 5035,
      "##reajus": 5036,
      "paral": 5037,
      "embar": 5038,
      "ceara": 5039,
      "##radas": 5040,
      "flex": 5041,
      "descontos": 5042,
      "essenciais": 5043,
      "pendente": 5044,
      "fluxo": 5045,
      "rasuras": 5046,
      "balance": 5047,
      "obrigado": 5048,
      "constru": 5049,
      "provas": 5050,
      "tras": 5051,
      "recicla": 5052,
      "emendas": 5053,
      "aberta": 5054,
      "recepcao": 5055,
      "corte": 5056,
      "provedor": 5057,
      "rote": 5058,
      "ultrapassar": 5059,
      "diligencia": 5060,
      "automatico": 5061,
      "##mentares": 5062,
      "tecnologica": 5063,
      "proponentes": 5064,
      "irreajus": 5065,
      "oportunidade": 5066,
      "##andia": 5067,
      "impressoras": 5068,
      "objetiva": 5069,
      "##bolso": 5070,
      "dirigida": 5071,
      "vedado": 5072,
      "extrajudicial": 5073,
      "reconhecida": 5074,
      "compensa": 5075,
      "descritivo": 5076,
      "assumida": 5077,
      "geo": 5078,
      "##reak": 5079,
      "ofertar": 5080,
      "##tizado": 5081,
      "apolice": 5082,
      "esteril": 5083,
      "pc": 5084,
      "conv": 5085,
      "boas": 5086,
      "bl": 5087,
      "##van": 5088,
      "admitindo": 5089,
      "impacto": 5090,
      "historico": 5091,
      "tarifas": 5092,
      "ileg": 5093,
      "aproximadamente": 5094,
      "zero": 5095,
      "remetidos": 5096,
      "incompa": 5097,
      "##nomia": 5098,
      "ambos": 5099,
      "moni": 5100,
      "enfer": 5101,
      "deriv": 5102,
      "pecul": 5103,
      "equipes": 5104,
      "determinar": 5105,
      "hab": 5106,
      "respeitada": 5107,
      "danifica": 5108,
      "dsei": 5109,
      "auditoria": 5110,
      "bi": 5111,
      "parque": 5112,
      "fiscalizada": 5113,
      "habilitados": 5114,
      "prestador": 5115,
      "##entos": 5116,
      "concessionaria": 5117,
      "escopo": 5118,
      "futuro": 5119,
      "mano": 5120,
      "empregaticio": 5121,
      "venda": 5122,
      "modificacao": 5123,
      "fases": 5124,
      "fixadas": 5125,
      "distribuidor": 5126,
      "##ciacao": 5127,
      "dimensionamento": 5128,
      "atendimentos": 5129,
      "interessadas": 5130,
      "interessada": 5131,
      "##tancias": 5132,
      "##tantes": 5133,
      "sei": 5134,
      "mus": 5135,
      "verificado": 5136,
      "digitais": 5137,
      "somatorio": 5138,
      "sequ": 5139,
      "visual": 5140,
      "pagin": 5141,
      "##tp": 5142,
      "aprovados": 5143,
      "##lado": 5144,
      "##asg": 5145,
      "##osas": 5146,
      "rodri": 5147,
      "mensagens": 5148,
      "decidir": 5149,
      "anatel": 5150,
      "##tres": 5151,
      "mensagem": 5152,
      "diariamente": 5153,
      "encaminha": 5154,
      "##vos": 5155,
      "##dado": 5156,
      "##imacao": 5157,
      "elaborada": 5158,
      "negociar": 5159,
      "az": 5160,
      "vinculado": 5161,
      "orcamentarios": 5162,
      "##all": 5163,
      "##gues": 5164,
      "protocolada": 5165,
      "##curso": 5166,
      "desgas": 5167,
      "iss": 5168,
      "barra": 5169,
      "reinci": 5170,
      "arte": 5171,
      "medicos": 5172,
      "##enagem": 5173,
      "competitiva": 5174,
      "constam": 5175,
      "##reira": 5176,
      "sousa": 5177,
      "direto": 5178,
      "carre": 5179,
      "segura": 5180,
      "tce": 5181,
      "demonstrar": 5182,
      "periodicidade": 5183,
      "insu": 5184,
      "dando": 5185,
      "conclu": 5186,
      "ordenador": 5187,
      "be": 5188,
      "pg": 5189,
      "politicas": 5190,
      "expressos": 5191,
      "alterada": 5192,
      "uasg": 5193,
      "insta": 5194,
      "excecao": 5195,
      "decretos": 5196,
      "minas": 5197,
      "mesa": 5198,
      "resposta": 5199,
      "##inter": 5200,
      "barras": 5201,
      "falhar": 5202,
      "gerar": 5203,
      "respondendo": 5204,
      "respondera": 5205,
      "##dim": 5206,
      "continuados": 5207,
      "impedida": 5208,
      "compreende": 5209,
      "frente": 5210,
      "vas": 5211,
      "disciplin": 5212,
      "contidos": 5213,
      "cres": 5214,
      "desenvolvidas": 5215,
      "elimin": 5216,
      "afericao": 5217,
      "elevadores": 5218,
      "outor": 5219,
      "##erh": 5220,
      "agil": 5221,
      "##nacoes": 5222,
      "##equi": 5223,
      "permanentes": 5224,
      "##istem": 5225,
      "rondonia": 5226,
      "moratoria": 5227,
      "gastos": 5228,
      "atendidos": 5229,
      "remoto": 5230,
      "ateste": 5231,
      "encaminhara": 5232,
      "melhores": 5233,
      "bib": 5234,
      "acondicionamento": 5235,
      "##tran": 5236,
      "##enciar": 5237,
      "gon": 5238,
      "paginas": 5239,
      "financeiras": 5240,
      "custe": 5241,
      "ficha": 5242,
      "essas": 5243,
      "lamin": 5244,
      "subordin": 5245,
      "renuncia": 5246,
      "procedera": 5247,
      "serpro": 5248,
      "comunicacoes": 5249,
      "##chos": 5250,
      "##cle": 5251,
      "rejeitados": 5252,
      "proporcional": 5253,
      "juros": 5254,
      "seges": 5255,
      "fundamental": 5256,
      "zel": 5257,
      "detalhado": 5258,
      "gravidade": 5259,
      "##tral": 5260,
      "##esta": 5261,
      "emitira": 5262,
      "setima": 5263,
      "relacionado": 5264,
      "##dern": 5265,
      "juizo": 5266,
      "convencion": 5267,
      "magne": 5268,
      "estuda": 5269,
      "sam": 5270,
      "vidro": 5271,
      "praticado": 5272,
      "##vencia": 5273,
      "passageiros": 5274,
      "aa": 5275,
      "gravacao": 5276,
      "picos": 5277,
      "contrario": 5278,
      "informada": 5279,
      "ofertada": 5280,
      "juridi": 5281,
      "preta": 5282,
      "negativas": 5283,
      "discriminacao": 5284,
      "elei": 5285,
      "componente": 5286,
      "imovel": 5287,
      "##gavel": 5288,
      "telecomunica": 5289,
      "vinte": 5290,
      "visualizacao": 5291,
      "##uro": 5292,
      "recorrente": 5293,
      "impeca": 5294,
      "procurador": 5295,
      "gratu": 5296,
      "economicidade": 5297,
      "quadros": 5298,
      "conexoes": 5299,
      "computadores": 5300,
      "diligencias": 5301,
      "comercio": 5302,
      "predial": 5303,
      "acidente": 5304,
      "medicoes": 5305,
      "prescri": 5306,
      "##alizar": 5307,
      "postal": 5308,
      "anp": 5309,
      "mapa": 5310,
      "esclarecimento": 5311,
      "##ize": 5312,
      "##rara": 5313,
      "intima": 5314,
      "solida": 5315,
      "##eram": 5316,
      "publicidade": 5317,
      "citados": 5318,
      "sanar": 5319,
      "causado": 5320,
      "sina": 5321,
      "despacho": 5322,
      "reduzindo": 5323,
      "parcelamento": 5324,
      "daqueles": 5325,
      "ssp": 5326,
      "##gen": 5327,
      "urgencia": 5328,
      "impressora": 5329,
      "proprias": 5330,
      "lopes": 5331,
      "preparacao": 5332,
      "adotadas": 5333,
      "texto": 5334,
      "##undo": 5335,
      "arp": 5336,
      "person": 5337,
      "cliente": 5338,
      "relacionada": 5339,
      "constituem": 5340,
      "fmas": 5341,
      "cidades": 5342,
      "solidos": 5343,
      "norm": 5344,
      "##igra": 5345,
      "procuracao": 5346,
      "urban": 5347,
      "responsabilizando": 5348,
      "internacional": 5349,
      "indisponibilidade": 5350,
      "verificando": 5351,
      "inexequ": 5352,
      "##oft": 5353,
      "pb": 5354,
      "comunicado": 5355,
      "prem": 5356,
      "entr": 5357,
      "estagio": 5358,
      "contribui": 5359,
      "otim": 5360,
      "autenticacao": 5361,
      "mana": 5362,
      "cient": 5363,
      "usb": 5364,
      "caiba": 5365,
      "teoria": 5366,
      "acre": 5367,
      "alguns": 5368,
      "respectivamente": 5369,
      "concurso": 5370,
      "gestora": 5371,
      "ram": 5372,
      "esten": 5373,
      "bateria": 5374,
      "jornada": 5375,
      "##ii": 5376,
      "decair": 5377,
      "sediada": 5378,
      "domicil": 5379,
      "##corrido": 5380,
      "lidos": 5381,
      "extraordin": 5382,
      "amazonas": 5383,
      "backup": 5384,
      "predios": 5385,
      "##bos": 5386,
      "microsoft": 5387,
      "mb": 5388,
      "##erar": 5389,
      "antecip": 5390,
      "bdi": 5391,
      "classificados": 5392,
      "##timento": 5393,
      "##magem": 5394,
      "celular": 5395,
      "desempate": 5396,
      "chaves": 5397,
      "delega": 5398,
      "cracha": 5399,
      "freitas": 5400,
      "recebera": 5401,
      "desconformidade": 5402,
      "vaz": 5403,
      "expan": 5404,
      "lagoa": 5405,
      "biblio": 5406,
      "demonstracao": 5407,
      "grafica": 5408,
      "##inos": 5409,
      "ibge": 5410,
      "declaro": 5411,
      "domingos": 5412,
      "manuseio": 5413,
      "ten": 5414,
      "impressos": 5415,
      "midia": 5416,
      "instituicoes": 5417,
      "tomadas": 5418,
      "conab": 5419,
      "compromissos": 5420,
      "destas": 5421,
      "continuo": 5422,
      "gov": 5423,
      "loco": 5424,
      "cumpridas": 5425,
      "prop": 5426,
      "controla": 5427,
      "cobrir": 5428,
      "familiar": 5429,
      "retifica": 5430,
      "preve": 5431,
      "acum": 5432,
      "nessa": 5433,
      "ajustada": 5434,
      "escolas": 5435,
      "arma": 5436,
      "valv": 5437,
      "versoes": 5438,
      "##ifique": 5439,
      "praticar": 5440,
      "arrema": 5441,
      "prestadora": 5442,
      "qualita": 5443,
      "discriminadas": 5444,
      "encerrado": 5445,
      "##eres": 5446,
      "vem": 5447,
      "monetaria": 5448,
      "##irem": 5449,
      "estagi": 5450,
      "##pamento": 5451,
      "ps": 5452,
      "##vers": 5453,
      "##mg": 5454,
      "flores": 5455,
      "reincidencia": 5456,
      "radi": 5457,
      "##raz": 5458,
      "possibilitando": 5459,
      "lavagem": 5460,
      "controlar": 5461,
      "corpora": 5462,
      "conste": 5463,
      "rodrigues": 5464,
      "##ustra": 5465,
      "longa": 5466,
      "cadastradas": 5467,
      "vantagem": 5468,
      "##tamentos": 5469,
      "tempes": 5470,
      "impugnar": 5471,
      "##ntores": 5472,
      "laudos": 5473,
      "socios": 5474,
      "esqu": 5475,
      "##truturas": 5476,
      "paciente": 5477,
      "impugnacoes": 5478,
      "contemplar": 5479,
      "pereci": 5480,
      "autorizadas": 5481,
      "ed": 5482,
      "reajustamento": 5483,
      "empen": 5484,
      "fech": 5485,
      "##ip": 5486,
      "acarretara": 5487,
      "industrial": 5488,
      "parafus": 5489,
      "bomb": 5490,
      "viagem": 5491,
      "judiciais": 5492,
      "tao": 5493,
      "destinadas": 5494,
      "divis": 5495,
      "uniform": 5496,
      "juris": 5497,
      "##uitos": 5498,
      "cat": 5499,
      "##regado": 5500,
      "ox": 5501,
      "enviado": 5502,
      "autenticadas": 5503,
      "acionamento": 5504,
      "atuar": 5505,
      "transa": 5506,
      "##eta": 5507,
      "conducao": 5508,
      "##deste": 5509,
      "licenciamento": 5510,
      "omissoes": 5511,
      "rotina": 5512,
      "sinapi": 5513,
      "cadastral": 5514,
      "apendi": 5515,
      "mac": 5516,
      "favorecido": 5517,
      "ministra": 5518,
      "gradu": 5519,
      "##tagem": 5520,
      "constitutivo": 5521,
      "rdc": 5522,
      "especificada": 5523,
      "criminal": 5524,
      "conjunta": 5525,
      "suprimento": 5526,
      "cris": 5527,
      "repor": 5528,
      "reduzir": 5529,
      "isol": 5530,
      "renovacao": 5531,
      "simplesmente": 5532,
      "seguridade": 5533,
      "##inf": 5534,
      "assuntos": 5535,
      "possua": 5536,
      "maiores": 5537,
      "ater": 5538,
      "sw": 5539,
      "##equibilidade": 5540,
      "##ern": 5541,
      "##tex": 5542,
      "hidro": 5543,
      "supletivamente": 5544,
      "iba": 5545,
      "consolida": 5546,
      "externas": 5547,
      "qualificado": 5548,
      "##pil": 5549,
      "desenh": 5550,
      "circunstancia": 5551,
      "tocant": 5552,
      "modificacoes": 5553,
      "formalizada": 5554,
      "tornar": 5555,
      "grafico": 5556,
      "##logica": 5557,
      "ru": 5558,
      "neg": 5559,
      "retorno": 5560,
      "incum": 5561,
      "##gios": 5562,
      "##valho": 5563,
      "reparacao": 5564,
      "operacion": 5565,
      "goncal": 5566,
      "##interrup": 5567,
      "repe": 5568,
      "visitas": 5569,
      "conveniente": 5570,
      "valido": 5571,
      "petroleo": 5572,
      "natal": 5573,
      "cnj": 5574,
      "presidencia": 5575,
      "crc": 5576,
      "ininterrup": 5577,
      "##bserv": 5578,
      "mantidas": 5579,
      "implementar": 5580,
      "iniciativa": 5581,
      "mante": 5582,
      "revestimento": 5583,
      "iniciada": 5584,
      "##berto": 5585,
      "contribuicao": 5586,
      "analisar": 5587,
      "territorio": 5588,
      "indevido": 5589,
      "caucao": 5590,
      "excluindo": 5591,
      "decadencia": 5592,
      "ensejara": 5593,
      "dada": 5594,
      "conserto": 5595,
      "cargas": 5596,
      "refeicao": 5597,
      "preto": 5598,
      "telecomunicacoes": 5599,
      "##bais": 5600,
      "prestadores": 5601,
      "circuito": 5602,
      "cg": 5603,
      "##tins": 5604,
      "relevancia": 5605,
      "pretendida": 5606,
      "raim": 5607,
      "viabilidade": 5608,
      "peda": 5609,
      "fos": 5610,
      "##eix": 5611,
      "limitado": 5612,
      "##unci": 5613,
      "elev": 5614,
      "##postas": 5615,
      "indicacoes": 5616,
      "fator": 5617,
      "condicionada": 5618,
      "entanto": 5619,
      "motoristas": 5620,
      "paralisacao": 5621,
      "indigena": 5622,
      "salas": 5623,
      "borra": 5624,
      "permanecer": 5625,
      "##esf": 5626,
      "calibracao": 5627,
      "pereciveis": 5628,
      "apurado": 5629,
      "ativos": 5630,
      "ibama": 5631,
      "carvalho": 5632,
      "pdf": 5633,
      "suspensa": 5634,
      "inferiores": 5635,
      "civ": 5636,
      "prestando": 5637,
      "inobserv": 5638,
      "##inho": 5639,
      "gerente": 5640,
      "subsequ": 5641,
      "confidenci": 5642,
      "mostra": 5643,
      "cobrado": 5644,
      "##ecem": 5645,
      "##usao": 5646,
      "ilegalidade": 5647,
      "esclarecer": 5648,
      "concent": 5649,
      "peculiar": 5650,
      "trecho": 5651,
      "relativamente": 5652,
      "administrador": 5653,
      "##fazer": 5654,
      "interreg": 5655,
      "responsabilizara": 5656,
      "acarretar": 5657,
      "banda": 5658,
      "azul": 5659,
      "pactuado": 5660,
      "regulamentos": 5661,
      "mor": 5662,
      "justificar": 5663,
      "edicao": 5664,
      "chesf": 5665,
      "subsequentes": 5666,
      "estruturas": 5667,
      "mencionada": 5668,
      "vila": 5669,
      "##romp": 5670,
      "instalada": 5671,
      "interregno": 5672,
      "rr": 5673,
      "##quim": 5674,
      "##alizado": 5675,
      "solicitara": 5676,
      "trinta": 5677,
      "intel": 5678,
      "fornecendo": 5679,
      "cuidados": 5680,
      "##exao": 5681,
      "##hia": 5682,
      "reagentes": 5683,
      "salva": 5684,
      "intimacao": 5685,
      "faca": 5686,
      "beneficiarios": 5687,
      "prorrogaveis": 5688,
      "preserv": 5689,
      "pretende": 5690,
      "evol": 5691,
      "##ider": 5692,
      "notificada": 5693,
      "precisa": 5694,
      "tampa": 5695,
      "sinist": 5696,
      "convenios": 5697,
      "profess": 5698,
      "tocantins": 5699,
      "##fru": 5700,
      "quimicos": 5701,
      "infantaria": 5702,
      "##alizados": 5703,
      "sitios": 5704,
      "altos": 5705,
      "combin": 5706,
      "oferecidos": 5707,
      "contemplados": 5708,
      "##line": 5709,
      "desclassificadas": 5710,
      "numer": 5711,
      "raimundo": 5712,
      "##cionamento": 5713,
      "oitava": 5714,
      "inobservancia": 5715,
      "catar": 5716,
      "tange": 5717,
      "viaturas": 5718,
      "avarias": 5719,
      "contatos": 5720,
      "academ": 5721,
      "optante": 5722,
      "moto": 5723,
      "tamp": 5724,
      "spli": 5725,
      "rodovia": 5726,
      "bilhetes": 5727,
      "configuracoes": 5728,
      "conferir": 5729,
      "contabilidade": 5730,
      "##etario": 5731,
      "alf": 5732,
      "sorte": 5733,
      "tubo": 5734,
      "descontado": 5735,
      "basicos": 5736,
      "expedicao": 5737,
      "subscri": 5738,
      "baseado": 5739,
      "fixa": 5740,
      "judiciario": 5741,
      "conden": 5742,
      "dou": 5743,
      "privada": 5744,
      "contemplando": 5745,
      "semelh": 5746,
      "interromp": 5747,
      "drf": 5748,
      "impedido": 5749,
      "canal": 5750,
      "gerados": 5751,
      "firmada": 5752,
      "igualdade": 5753,
      "espi": 5754,
      "##cando": 5755,
      "cotar": 5756,
      "frontal": 5757,
      "adotados": 5758,
      "sindicato": 5759,
      "custas": 5760,
      "loca": 5761,
      "externos": 5762,
      "deteccao": 5763,
      "filtros": 5764,
      "injustificada": 5765,
      "vul": 5766,
      "anotando": 5767,
      "computador": 5768,
      "permanencia": 5769,
      "esgoto": 5770,
      "eficiente": 5771,
      "previdenciaria": 5772,
      "saldo": 5773,
      "estimadas": 5774,
      "ced": 5775,
      "incidente": 5776,
      "autarquia": 5777,
      "##mico": 5778,
      "acordado": 5779,
      "exempl": 5780,
      "epi": 5781,
      "jes": 5782,
      "horaria": 5783,
      "repasse": 5784,
      "dinheiro": 5785,
      "##cionalmente": 5786,
      "anormalidade": 5787,
      "acessos": 5788,
      "##jam": 5789,
      "copa": 5790,
      "telefonica": 5791,
      "perigoso": 5792,
      "desenhos": 5793,
      "categorias": 5794,
      "melho": 5795,
      "##fatura": 5796,
      "serie": 5797,
      "cola": 5798,
      "comportamento": 5799,
      "inje": 5800,
      "fatores": 5801,
      "quilome": 5802,
      "determinadas": 5803,
      "anexa": 5804,
      "vantagens": 5805,
      "cao": 5806,
      "som": 5807,
      "##ler": 5808,
      "insalubre": 5809,
      "impressa": 5810,
      "senhor": 5811,
      "##terais": 5812,
      "civis": 5813,
      "executando": 5814,
      "##piri": 5815,
      "##ibus": 5816,
      "efetivacao": 5817,
      "acondicionados": 5818,
      "administradores": 5819,
      "prevalecera": 5820,
      "alu": 5821,
      "##itente": 5822,
      "fls": 5823,
      "##cus": 5824,
      "contenham": 5825,
      "obedecera": 5826,
      "integrada": 5827,
      "pab": 5828,
      "##gente": 5829,
      "marcos": 5830,
      "delegacia": 5831,
      "vigo": 5832,
      "compete": 5833,
      "continuada": 5834,
      "alocacao": 5835,
      "piri": 5836,
      "verificarem": 5837,
      "vedacao": 5838,
      "procedendo": 5839,
      "comunicando": 5840,
      "cb": 5841,
      "excel": 5842,
      "franquia": 5843,
      "assem": 5844,
      "rejeita": 5845,
      "ufs": 5846,
      "aditivos": 5847,
      "listados": 5848,
      "##arial": 5849,
      "tesou": 5850,
      "respeitar": 5851,
      "ponta": 5852,
      "alarme": 5853,
      "estacoes": 5854,
      "rora": 5855,
      "lima": 5856,
      "fielmente": 5857,
      "jesus": 5858,
      "entendimento": 5859,
      "zelar": 5860,
      "lubrificantes": 5861,
      "##eitamento": 5862,
      "minuci": 5863,
      "##ema": 5864,
      "##uri": 5865,
      "apendice": 5866,
      "centrais": 5867,
      "esf": 5868,
      "cf": 5869,
      "importante": 5870,
      "baixo": 5871,
      "dificuldades": 5872,
      "transacoes": 5873,
      "entrel": 5874,
      "deslocamentos": 5875,
      "circulacao": 5876,
      "peri": 5877,
      "assegurando": 5878,
      "abertos": 5879,
      "campan": 5880,
      "higienizacao": 5881,
      "correndo": 5882,
      "red": 5883,
      "polies": 5884,
      "ni": 5885,
      "padronizacao": 5886,
      "##sal": 5887,
      "##cagem": 5888,
      "algarismo": 5889,
      "reitoria": 5890,
      "ros": 5891,
      "ente": 5892,
      "compres": 5893,
      "##istindo": 5894,
      "concom": 5895,
      "filtro": 5896,
      "rejeitado": 5897,
      "produtividade": 5898,
      "##lon": 5899,
      "roraima": 5900,
      "qualificada": 5901,
      "imprescindivel": 5902,
      "##quo": 5903,
      "##ron": 5904,
      "concomita": 5905,
      "alvara": 5906,
      "oficina": 5907,
      "operador": 5908,
      "protes": 5909,
      "saber": 5910,
      "justo": 5911,
      "piripiri": 5912,
      "entrelinhas": 5913,
      "prestara": 5914,
      "##tical": 5915,
      "aulas": 5916,
      "##ense": 5917,
      "validacao": 5918,
      "##erados": 5919,
      "beb": 5920,
      "facilidades": 5921,
      "laboratoriais": 5922,
      "passiveis": 5923,
      "##tador": 5924,
      "intuito": 5925,
      "pocos": 5926,
      "bloqu": 5927,
      "mantido": 5928,
      "##polita": 5929,
      "atas": 5930,
      "tributaria": 5931,
      "representar": 5932,
      "convida": 5933,
      "corresponde": 5934,
      "concordancia": 5935,
      "clientes": 5936,
      "executivos": 5937,
      "acordao": 5938,
      "compensatoria": 5939,
      "dp": 5940,
      "cs": 5941,
      "titulos": 5942,
      "##tanto": 5943,
      "fras": 5944,
      "moldes": 5945,
      "metropolita": 5946,
      "incompativ": 5947,
      "ang": 5948,
      "aliquo": 5949,
      "calculados": 5950,
      "submeter": 5951,
      "decorre": 5952,
      "split": 5953,
      "resguar": 5954,
      "operar": 5955,
      "gases": 5956,
      "carlos": 5957,
      "resistente": 5958,
      "##son": 5959,
      "identificadas": 5960,
      "requisicoes": 5961,
      "vargas": 5962,
      "##asa": 5963,
      "restitu": 5964,
      "tesouro": 5965,
      "saneamento": 5966,
      "chapa": 5967,
      "demo": 5968,
      "entretanto": 5969,
      "compoe": 5970,
      "##eli": 5971,
      "##iam": 5972,
      "desconhecimento": 5973,
      "alterar": 5974,
      "##eite": 5975,
      "tributarios": 5976,
      "rou": 5977,
      "garra": 5978,
      "restabel": 5979,
      "reapresent": 5980,
      "livros": 5981,
      "interposicao": 5982,
      "treinamentos": 5983,
      "##instal": 5984,
      "restaura": 5985,
      "proximo": 5986,
      "mig": 5987,
      "quilometragem": 5988,
      "sujeitos": 5989,
      "usuais": 5990,
      "vierem": 5991,
      "institucionais": 5992,
      "fibra": 5993,
      "code": 5994,
      "deles": 5995,
      "incorr": 5996,
      "recl": 5997,
      "imprevis": 5998,
      "administrativamente": 5999,
      "mencionadas": 6000,
      "incorporacao": 6001,
      "##uco": 6002,
      "odontologico": 6003,
      "detran": 6004,
      "dida": 6005,
      "infantil": 6006,
      "detectadas": 6007,
      "incluido": 6008,
      "contadas": 6009,
      "memorial": 6010,
      "importara": 6011,
      "subcontratar": 6012,
      "refrigeracao": 6013,
      "dri": 6014,
      "##uca": 6015,
      "##bar": 6016,
      "medindo": 6017,
      "##cg": 6018,
      "essencial": 6019,
      "materias": 6020,
      "provocacao": 6021,
      "viabilizar": 6022,
      "##ulacoes": 6023,
      "exposto": 6024,
      "caminhao": 6025,
      "roda": 6026,
      "ebs": 6027,
      "laterais": 6028,
      "marinha": 6029,
      "cafe": 6030,
      "exito": 6031,
      "obtida": 6032,
      "##ag": 6033,
      "devolvida": 6034,
      "top": 6035,
      "abri": 6036,
      "aplicados": 6037,
      "exi": 6038,
      "semelhantes": 6039,
      "onibus": 6040,
      "cen": 6041,
      "ama": 6042,
      "disco": 6043,
      "signa": 6044,
      "##uicao": 6045,
      "exim": 6046,
      "identificada": 6047,
      "programadas": 6048,
      "encaminhando": 6049,
      "aprovo": 6050,
      "##rn": 6051,
      "dispostas": 6052,
      "doze": 6053,
      "sujei": 6054,
      "parcelado": 6055,
      "cartuchos": 6056,
      "pactuadas": 6057,
      "prejudi": 6058,
      "fornecera": 6059,
      "##che": 6060,
      "metodos": 6061,
      "gestores": 6062,
      "manaus": 6063,
      "peculiaridades": 6064,
      "nela": 6065,
      "bomba": 6066,
      "caracteristica": 6067,
      "concordata": 6068,
      "cumprindo": 6069,
      "comprobatorios": 6070,
      "organizacoes": 6071,
      "internacionais": 6072,
      "outrem": 6073,
      "escolh": 6074,
      "insercao": 6075,
      "farmace": 6076,
      "terminais": 6077,
      "indispensavel": 6078,
      "##izador": 6079,
      "##postos": 6080,
      "solucionar": 6081,
      "ves": 6082,
      "anexar": 6083,
      "interpre": 6084,
      "garantias": 6085,
      "tecnologias": 6086,
      "##fo": 6087,
      "missao": 6088,
      "quantos": 6089,
      "tabel": 6090,
      "bri": 6091,
      "##ham": 6092,
      "ferro": 6093,
      "ativo": 6094,
      "autorizar": 6095,
      "assumidos": 6096,
      "autoridades": 6097,
      "farmacia": 6098,
      "complexo": 6099,
      "ambas": 6100,
      "##ai": 6101,
      "rfb": 6102,
      "ocupa": 6103,
      "bombas": 6104,
      "cv": 6105,
      "plenario": 6106,
      "##bio": 6107,
      "##og": 6108,
      "##bl": 6109,
      "governamentais": 6110,
      "rejeicao": 6111,
      "motivadamente": 6112,
      "algarismos": 6113,
      "##men": 6114,
      "futuros": 6115,
      "impostas": 6116,
      "gratuita": 6117,
      "virtual": 6118,
      "agendada": 6119,
      "desconexao": 6120,
      "municipalidade": 6121,
      "compu": 6122,
      "bahia": 6123,
      "regra": 6124,
      "comunicada": 6125,
      "##ificada": 6126,
      "epigra": 6127,
      "cobrada": 6128,
      "depu": 6129,
      "marcada": 6130,
      "pertencente": 6131,
      "extin": 6132,
      "cader": 6133,
      "acompanhadas": 6134,
      "fundamentada": 6135,
      "mudancas": 6136,
      "buriti": 6137,
      "produzidos": 6138,
      "aero": 6139,
      "distri": 6140,
      "enfermagem": 6141,
      "##telo": 6142,
      "exigiveis": 6143,
      "propici": 6144,
      "desistencia": 6145,
      "##cur": 6146,
      "varios": 6147,
      "canais": 6148,
      "regulamentares": 6149,
      "acolh": 6150,
      "regionais": 6151,
      "catarina": 6152,
      "sito": 6153,
      "##cp": 6154,
      "impeditivos": 6155,
      "mecanico": 6156,
      "resolvem": 6157,
      "candida": 6158,
      "supervisor": 6159,
      "extre": 6160,
      "membro": 6161,
      "semes": 6162,
      "vertical": 6163,
      "ensaio": 6164,
      "##pp": 6165,
      "resumo": 6166,
      "pagas": 6167,
      "lamp": 6168,
      "multiplica": 6169,
      "##eitu": 6170,
      "complement": 6171,
      "paredes": 6172,
      "arrecada": 6173,
      "contribu": 6174,
      "##endedor": 6175,
      "desenvolvidos": 6176,
      "##gencias": 6177,
      "fianca": 6178,
      "##gara": 6179,
      "correspondera": 6180,
      "contido": 6181,
      "aeronautica": 6182,
      "agenciamento": 6183,
      "aler": 6184,
      "cedula": 6185,
      "transparencia": 6186,
      "colocar": 6187,
      "massa": 6188,
      "fusao": 6189,
      "ces": 6190,
      "crf": 6191,
      "reembolso": 6192,
      "readequ": 6193,
      "ani": 6194,
      "cicl": 6195,
      "ligacao": 6196,
      "findo": 6197,
      "empreen": 6198,
      "diplo": 6199,
      "informamos": 6200,
      "circuitos": 6201,
      "##ea": 6202,
      "contratualmente": 6203,
      "desmontagem": 6204,
      "extras": 6205,
      "atuais": 6206,
      "enviadas": 6207,
      "##tus": 6208,
      "ressalvado": 6209,
      "cadastrados": 6210,
      "injustificadamente": 6211,
      "instaladas": 6212,
      "##fal": 6213,
      "unificado": 6214,
      "equip": 6215,
      "retro": 6216,
      "##eras": 6217,
      "adequadamente": 6218,
      "##ok": 6219,
      "martins": 6220,
      "rescindir": 6221,
      "epigrafe": 6222,
      "facultando": 6223,
      "##tativa": 6224,
      "inidoneas": 6225,
      "refle": 6226,
      "deli": 6227,
      "funcionais": 6228,
      "##lan": 6229,
      "assunto": 6230,
      "contrar": 6231,
      "##dm": 6232,
      "##osidade": 6233,
      "insa": 6234,
      "espirito": 6235,
      "##vera": 6236,
      "prestadas": 6237,
      "codigos": 6238,
      "adul": 6239,
      "planos": 6240,
      "##nde": 6241,
      "impli": 6242,
      "bloqueio": 6243,
      "horizont": 6244,
      "trein": 6245,
      "apreciacao": 6246,
      "##pipe": 6247,
      "transcurso": 6248,
      "pmt": 6249,
      "tomando": 6250,
      "estacao": 6251,
      "bon": 6252,
      "##ys": 6253,
      "eficaz": 6254,
      "executara": 6255,
      "coluna": 6256,
      "tubos": 6257,
      "sema": 6258,
      "##eca": 6259,
      "##itch": 6260,
      "velho": 6261,
      "deu": 6262,
      "ferreira": 6263,
      "##esel": 6264,
      "desli": 6265,
      "subse": 6266,
      "sorteio": 6267,
      "reclam": 6268,
      "##cop": 6269,
      "edificacoes": 6270,
      "santana": 6271,
      "atendem": 6272,
      "tanque": 6273,
      "concomitante": 6274,
      "##vin": 6275,
      "utiliza": 6276,
      "referem": 6277,
      "descarte": 6278,
      "alme": 6279,
      "transparente": 6280,
      "vera": 6281,
      "reprografica": 6282,
      "distintos": 6283,
      "##cesso": 6284,
      "##paro": 6285,
      "ufg": 6286,
      "recebe": 6287,
      "permitam": 6288,
      "fru": 6289,
      "transforma": 6290,
      "ebserh": 6291,
      "del": 6292,
      "negociacoes": 6293,
      "prorrogada": 6294,
      "alin": 6295,
      "switch": 6296,
      "suger": 6297,
      "clinica": 6298,
      "regulado": 6299,
      "compartil": 6300,
      "apontadas": 6301,
      "colocada": 6302,
      "mendes": 6303,
      "ofertas": 6304,
      "instru": 6305,
      "viges": 6306,
      "ocorrido": 6307,
      "pala": 6308,
      "gui": 6309,
      "##hal": 6310,
      "plantas": 6311,
      "tabeliao": 6312,
      "##razoes": 6313,
      "conhecimentos": 6314,
      "metas": 6315,
      "##hoes": 6316,
      "verde": 6317,
      "fisicos": 6318,
      "maj": 6319,
      "condutor": 6320,
      "jornal": 6321,
      "terceirizados": 6322,
      "proteg": 6323,
      "objetivamente": 6324,
      "dedicacao": 6325,
      "respostas": 6326,
      "insatis": 6327,
      "domiciliado": 6328,
      "trabalhador": 6329,
      "caval": 6330,
      "relevantes": 6331,
      "imposto": 6332,
      "protocolos": 6333,
      "canteiro": 6334,
      "assinados": 6335,
      "amplo": 6336,
      "voz": 6337,
      "assinadas": 6338,
      "alineas": 6339,
      "abso": 6340,
      "requisito": 6341,
      "competitividade": 6342,
      "constarao": 6343,
      "jardim": 6344,
      "logistico": 6345,
      "conver": 6346,
      "pereira": 6347,
      "castelo": 6348,
      "preencher": 6349,
      "confidencialidade": 6350,
      "ilici": 6351,
      "##tarias": 6352,
      "animais": 6353,
      "cnen": 6354,
      "modern": 6355,
      "controles": 6356,
      "disponibilizara": 6357,
      "priva": 6358,
      "mono": 6359,
      "arau": 6360,
      "envolvendo": 6361,
      "supracitado": 6362,
      "puder": 6363,
      "deficiencia": 6364,
      "urbano": 6365,
      "assis": 6366,
      "edificacao": 6367,
      "lay": 6368,
      "##icias": 6369,
      "pacote": 6370,
      "assesso": 6371,
      "adotando": 6372,
      "vel": 6373,
      "##mt": 6374,
      "restr": 6375,
      "vincula": 6376,
      "descredenciado": 6377,
      "##cra": 6378,
      "contrarrazoes": 6379,
      "coman": 6380,
      "qt": 6381,
      "atent": 6382,
      "reajustados": 6383,
      "ativacao": 6384,
      "ramal": 6385,
      "operacionalizacao": 6386,
      "expansao": 6387,
      "impedir": 6388,
      "colocado": 6389,
      "bec": 6390,
      "mera": 6391,
      "lumin": 6392,
      "pendencias": 6393,
      "legiti": 6394,
      "dispostos": 6395,
      "prevalecerao": 6396,
      "referir": 6397,
      "especificamente": 6398,
      "apresentamos": 6399,
      "filho": 6400,
      "comu": 6401,
      "idoneidade": 6402,
      "campi": 6403,
      "getu": 6404,
      "positiva": 6405,
      "superficie": 6406,
      "ventil": 6407,
      "getulio": 6408,
      "eletronicas": 6409,
      "datada": 6410,
      "##aveis": 6411,
      "parametro": 6412,
      "excluir": 6413,
      "monitor": 6414,
      "araujo": 6415,
      "paralele": 6416,
      "prejudicar": 6417,
      "##dorias": 6418,
      "preliminares": 6419,
      "rever": 6420,
      "##inhos": 6421,
      "joa": 6422,
      "atestando": 6423,
      "aprovadas": 6424,
      "irr": 6425,
      "individualmente": 6426,
      "##itu": 6427,
      "negocios": 6428,
      "refazer": 6429,
      "seguem": 6430,
      "consequentemente": 6431,
      "prever": 6432,
      "cisao": 6433,
      "substituidas": 6434,
      "disponibilizada": 6435,
      "formais": 6436,
      "lixo": 6437,
      "escolares": 6438,
      "observacoes": 6439,
      "seis": 6440,
      "terres": 6441,
      "moura": 6442,
      "implement": 6443,
      "##eias": 6444,
      "apresentara": 6445,
      "aguas": 6446,
      "##gramas": 6447,
      "intervencao": 6448,
      "online": 6449,
      "##leos": 6450,
      "amar": 6451,
      "formalizado": 6452,
      "##fia": 6453,
      "##itaria": 6454,
      "encontrar": 6455,
      "paralelepipe": 6456,
      "mercadorias": 6457,
      "decididos": 6458,
      "diesel": 6459,
      "autoriza": 6460,
      "insp": 6461,
      "necessariamente": 6462,
      "oferecido": 6463,
      "nomeado": 6464,
      "transacao": 6465,
      "reconhecimento": 6466,
      "viti": 6467,
      "##comp": 6468,
      "tocante": 6469,
      "justa": 6470,
      "insatisfa": 6471,
      "##mia": 6472,
      "elevador": 6473,
      "graduacao": 6474,
      "hon": 6475,
      "ordin": 6476,
      "incidira": 6477,
      "devolvidos": 6478,
      "desgaste": 6479,
      "tecnologico": 6480,
      "recarga": 6481,
      "##cem": 6482,
      "##jf": 6483,
      "dina": 6484,
      "complementacao": 6485,
      "sexto": 6486,
      "tubular": 6487,
      "usufru": 6488,
      "virg": 6489,
      "##oro": 6490,
      "##hora": 6491,
      "##vam": 6492,
      "les": 6493,
      "vencido": 6494,
      "naqu": 6495,
      "paineis": 6496,
      "##ulada": 6497,
      "pedago": 6498,
      "configurar": 6499,
      "condutores": 6500,
      "informatizado": 6501,
      "especializadas": 6502,
      "mantidos": 6503,
      "disponibilizadas": 6504,
      "metropolitana": 6505,
      "##mat": 6506,
      "enf": 6507,
      "##hz": 6508,
      "sou": 6509,
      "conceito": 6510,
      "recebida": 6511,
      "diretores": 6512,
      "adotada": 6513,
      "supressao": 6514,
      "custom": 6515,
      "aplicativo": 6516,
      "reprov": 6517,
      "pronto": 6518,
      "suspenso": 6519,
      "acont": 6520,
      "##midades": 6521,
      "recife": 6522,
      "##denciada": 6523,
      "sabados": 6524,
      "bibliote": 6525,
      "##grafico": 6526,
      "color": 6527,
      "compreendido": 6528,
      "concluida": 6529,
      "conector": 6530,
      "auxiliares": 6531,
      "oficinas": 6532,
      "##girem": 6533,
      "odontologicos": 6534,
      "curiti": 6535,
      "esporte": 6536,
      "baseada": 6537,
      "##gador": 6538,
      "vici": 6539,
      "encontrem": 6540,
      "##esp": 6541,
      "imposta": 6542,
      "liti": 6543,
      "solda": 6544,
      "##enos": 6545,
      "admitidas": 6546,
      "conferido": 6547,
      "divulgar": 6548,
      "##mados": 6549,
      "carro": 6550,
      "juridico": 6551,
      "suspensas": 6552,
      "publicacoes": 6553,
      "subsidiar": 6554,
      "negocio": 6555,
      "interfer": 6556,
      "mangu": 6557,
      "preservacao": 6558,
      "parede": 6559,
      "lido": 6560,
      "encarregado": 6561,
      "##essoes": 6562,
      "descontada": 6563,
      "cabeca": 6564,
      "##fun": 6565,
      "atingir": 6566,
      "planej": 6567,
      "interpor": 6568,
      "estatis": 6569,
      "firmados": 6570,
      "sum": 6571,
      "correlatos": 6572,
      "sever": 6573,
      "pontu": 6574,
      "inspecion": 6575,
      "tv": 6576,
      "##trica": 6577,
      "confia": 6578,
      "preenchida": 6579,
      "habilitada": 6580,
      "reservado": 6581,
      "bombeiros": 6582,
      "cax": 6583,
      "razo": 6584,
      "borracha": 6585,
      "bases": 6586,
      "##tir": 6587,
      "telefonicas": 6588,
      "perfis": 6589,
      "quimica": 6590,
      "pedagog": 6591,
      "influ": 6592,
      "prospec": 6593,
      "pira": 6594,
      "sete": 6595,
      "secunda": 6596,
      "contamin": 6597,
      "renunci": 6598,
      "setur": 6599,
      "acarretem": 6600,
      "dv": 6601,
      "##its": 6602,
      "nob": 6603,
      "lancamento": 6604,
      "colocacao": 6605,
      "migracao": 6606,
      "pil": 6607,
      "tram": 6608,
      "apurados": 6609,
      "posicion": 6610,
      "deputados": 6611,
      "motores": 6612,
      "solo": 6613,
      "reves": 6614,
      "tu": 6615,
      "legivel": 6616,
      "setimo": 6617,
      "excepcionalmente": 6618,
      "neglig": 6619,
      "confeccionado": 6620,
      "dificuldade": 6621,
      "julgados": 6622,
      "banh": 6623,
      "cilindros": 6624,
      "ade": 6625,
      "dela": 6626,
      "letra": 6627,
      "executiva": 6628,
      "autenticidade": 6629,
      "desaten": 6630,
      "apropriado": 6631,
      "sujeitar": 6632,
      "aju": 6633,
      "tant": 6634,
      "localizados": 6635,
      "##uros": 6636,
      "cx": 6637,
      "##wn": 6638,
      "verificados": 6639,
      "rastre": 6640,
      "executa": 6641,
      "##pecu": 6642,
      "##und": 6643,
      "senhora": 6644,
      "dotacoes": 6645,
      "distribu": 6646,
      "divulgado": 6647,
      "avisos": 6648,
      "reservada": 6649,
      "necessitam": 6650,
      "agropecu": 6651,
      "exib": 6652,
      "and": 6653,
      "mecanicos": 6654,
      "formulada": 6655,
      "##duras": 6656,
      "autono": 6657,
      "isenta": 6658,
      "calculos": 6659,
      "irreajustaveis": 6660,
      "submetido": 6661,
      "agronomia": 6662,
      "vigorara": 6663,
      "dissol": 6664,
      "reapresentacao": 6665,
      "microempre": 6666,
      "idepi": 6667,
      "comunidade": 6668,
      "submetidos": 6669,
      "parafusos": 6670,
      "conectores": 6671,
      "consent": 6672,
      "agra": 6673,
      "pp": 6674,
      "sta": 6675,
      "quin": 6676,
      "carimbo": 6677,
      "quebra": 6678,
      "sequencia": 6679,
      "curitiba": 6680,
      "reconh": 6681,
      "##nal": 6682,
      "sra": 6683,
      "outorga": 6684,
      "admitidos": 6685,
      "folder": 6686,
      "realizando": 6687,
      "trav": 6688,
      "conhecer": 6689,
      "##umentos": 6690,
      "vantajoso": 6691,
      "##iada": 6692,
      "dissi": 6693,
      "avaliacoes": 6694,
      "deso": 6695,
      "selecionar": 6696,
      "guerra": 6697,
      "manoel": 6698,
      "##id": 6699,
      "##util": 6700,
      "alternativas": 6701,
      "esfera": 6702,
      "virgula": 6703,
      "desenvolver": 6704,
      "##instalacao": 6705,
      "renov": 6706,
      "veracidade": 6707,
      "belo": 6708,
      "galvan": 6709,
      "interlig": 6710,
      "vidros": 6711,
      "##agem": 6712,
      "verm": 6713,
      "corresponder": 6714,
      "deficiencias": 6715,
      "diferente": 6716,
      "hel": 6717,
      "uru": 6718,
      "intro": 6719,
      "constatadas": 6720,
      "horizonte": 6721,
      "atestacao": 6722,
      "##nais": 6723,
      "nun": 6724,
      "lazer": 6725,
      "##tiona": 6726,
      "sg": 6727,
      "reclamacao": 6728,
      "cocal": 6729,
      "##ama": 6730,
      "citadas": 6731,
      "rocha": 6732,
      "##vasf": 6733,
      "respeitadas": 6734,
      "suspender": 6735,
      "exercicios": 6736,
      "paralelepipedo": 6737,
      "inconveniente": 6738,
      "convocados": 6739,
      "comercializacao": 6740,
      "restrin": 6741,
      "posicao": 6742,
      "incluso": 6743,
      "##cc": 6744,
      "tecnicamente": 6745,
      "estrangeira": 6746,
      "sites": 6747,
      "levar": 6748,
      "comparacao": 6749,
      "estudantes": 6750,
      "ocupantes": 6751,
      "originalmente": 6752,
      "inadequado": 6753,
      "requerida": 6754,
      "aproveitamento": 6755,
      "comprometendo": 6756,
      "prejudique": 6757,
      "##via": 6758,
      "bru": 6759,
      "salvador": 6760,
      "alternativamente": 6761,
      "genu": 6762,
      "codevasf": 6763,
      "extintores": 6764,
      "maca": 6765,
      "citada": 6766,
      "##ed": 6767,
      "sia": 6768,
      "normais": 6769,
      "##teralmente": 6770,
      "acor": 6771,
      "pacotes": 6772,
      "vinculadas": 6773,
      "terra": 6774,
      "encerrar": 6775,
      "esquad": 6776,
      "##gdo": 6777,
      "luiz": 6778,
      "rol": 6779,
      "firme": 6780,
      "nordeste": 6781,
      "digitalizacao": 6782,
      "enquadradas": 6783,
      "subes": 6784,
      "ine": 6785,
      "caes": 6786,
      "constatacao": 6787,
      "##dicao": 6788,
      "redacao": 6789,
      "eletros": 6790,
      "##plas": 6791,
      "vp": 6792,
      "acarretando": 6793,
      "pasta": 6794,
      "goias": 6795,
      "qualificados": 6796,
      "vales": 6797,
      "##hada": 6798,
      "precon": 6799,
      "capita": 6800,
      "exequibilidade": 6801,
      "enquadram": 6802,
      "sinte": 6803,
      "promovendo": 6804,
      "remanescente": 6805,
      "##pis": 6806,
      "##logico": 6807,
      "tiverem": 6808,
      "##imetro": 6809,
      "estagiarios": 6810,
      "##trico": 6811,
      "receitas": 6812,
      "mantida": 6813,
      "tic": 6814,
      "orcamentario": 6815,
      "abre": 6816,
      "anualmente": 6817,
      "descartaveis": 6818,
      "convocadas": 6819,
      "vicio": 6820,
      "##enio": 6821,
      "fnde": 6822,
      "##ete": 6823,
      "umidade": 6824,
      "assembl": 6825,
      "up": 6826,
      "interfaces": 6827,
      "kits": 6828,
      "companhias": 6829,
      "break": 6830,
      "ipca": 6831,
      "arrecadacao": 6832,
      "seguida": 6833,
      "rack": 6834,
      "espacos": 6835,
      "financi": 6836,
      "cessionaria": 6837,
      "observara": 6838,
      "modernizacao": 6839,
      "totalizando": 6840,
      "##bc": 6841,
      "divergencias": 6842,
      "cientifica": 6843,
      "ari": 6844,
      "descredenciada": 6845,
      "elencadas": 6846,
      "extincao": 6847,
      "led": 6848,
      "##trans": 6849,
      "credenciadas": 6850,
      "negligencia": 6851,
      "##sabilidade": 6852,
      "duvida": 6853,
      "medicamento": 6854,
      "muito": 6855,
      "leite": 6856,
      "##mado": 6857,
      "dirigente": 6858,
      "periodi": 6859,
      "mobiliarios": 6860,
      "aplicativos": 6861,
      "povo": 6862,
      "acessivel": 6863,
      "cerca": 6864,
      "##book": 6865,
      "usufruir": 6866,
      "interpretacao": 6867,
      "enum": 6868,
      "pms": 6869,
      "expi": 6870,
      "##equilibrio": 6871,
      "##mer": 6872,
      "cadastrado": 6873,
      "gur": 6874,
      "cameras": 6875,
      "ramais": 6876,
      "consultar": 6877,
      "assinam": 6878,
      "equivalentes": 6879,
      "supervision": 6880,
      "dpe": 6881,
      "consentimento": 6882,
      "satisf": 6883,
      "apresentou": 6884,
      "##pora": 6885,
      "assume": 6886,
      "incra": 6887,
      "##rj": 6888,
      "alegacao": 6889,
      "lateral": 6890,
      "proibicao": 6891,
      "ami": 6892,
      "prevalecendo": 6893,
      "alinhamento": 6894,
      "##segu": 6895,
      "semanais": 6896,
      "fern": 6897,
      "castro": 6898,
      "vagas": 6899,
      "##dial": 6900,
      "surgirem": 6901,
      "recolhida": 6902,
      "goian": 6903,
      "demonstrando": 6904,
      "correr": 6905,
      "##pam": 6906,
      "analisada": 6907,
      "automacao": 6908,
      "afins": 6909,
      "lavrado": 6910,
      "##ulado": 6911,
      "atendera": 6912,
      "joaquim": 6913,
      "selo": 6914,
      "sms": 6915,
      "preparo": 6916,
      "##itada": 6917,
      "layou": 6918,
      "aferir": 6919,
      "caracteriza": 6920,
      "maceio": 6921,
      "renda": 6922,
      "violacao": 6923,
      "horizontal": 6924,
      "anula": 6925,
      "bancos": 6926,
      "expor": 6927,
      "##pto": 6928,
      "abs": 6929,
      "vege": 6930,
      "##ologia": 6931,
      "importacao": 6932,
      "entes": 6933,
      "##queira": 6934,
      "segurado": 6935,
      "dissidio": 6936,
      "##hernet": 6937,
      "nave": 6938,
      "possuam": 6939,
      "mecanismos": 6940,
      "##proposta": 6941,
      "vii": 6942,
      "##egu": 6943,
      "conci": 6944,
      "doencas": 6945,
      "estipulada": 6946,
      "unilateralmente": 6947,
      "causas": 6948,
      "recip": 6949,
      "executor": 6950,
      "daquelas": 6951,
      "eir": 6952,
      "preceitu": 6953,
      "asfal": 6954,
      "declaradas": 6955,
      "localizadas": 6956,
      "down": 6957,
      "##emin": 6958,
      "mei": 6959,
      "revel": 6960,
      "patro": 6961,
      "##han": 6962,
      "agilidade": 6963,
      "contrari": 6964,
      "referencias": 6965,
      "##logicos": 6966,
      "aper": 6967,
      "transmiti": 6968,
      "dissolucao": 6969,
      "pertur": 6970,
      "providencie": 6971,
      "efetivada": 6972,
      "anotacao": 6973,
      "souza": 6974,
      "consignadas": 6975,
      "bancarios": 6976,
      "afastamento": 6977,
      "regimento": 6978,
      "##tual": 6979,
      "impressoes": 6980,
      "continuado": 6981,
      "proprietario": 6982,
      "dem": 6983,
      "moratorios": 6984,
      "mantenha": 6985,
      "industria": 6986,
      "potencial": 6987,
      "formulas": 6988,
      "##torial": 6989,
      "balancos": 6990,
      "vai": 6991,
      "ocorre": 6992,
      "bro": 6993,
      "press": 6994,
      "independentes": 6995,
      "culpos": 6996,
      "estivess": 6997,
      "agru": 6998,
      "alea": 6999,
      "embarque": 7000,
      "dupla": 7001,
      "positivas": 7002,
      "estradas": 7003,
      "impactos": 7004,
      "catmat": 7005,
      "guias": 7006,
      "oferecida": 7007,
      "consequencia": 7008,
      "integrar": 7009,
      "englo": 7010,
      "discos": 7011,
      "figura": 7012,
      "inoxida": 7013,
      "documentacoes": 7014,
      "pna": 7015,
      "goiania": 7016,
      "enquadrem": 7017,
      "estrada": 7018,
      "adquiridas": 7019,
      "assinal": 7020,
      "atribuicao": 7021,
      "ethernet": 7022,
      "oeste": 7023,
      "abrangendo": 7024,
      "comprobatorio": 7025,
      "reconhecido": 7026,
      "ocorridos": 7027,
      "cabeamento": 7028,
      "resolvidos": 7029,
      "organiza": 7030,
      "semanal": 7031,
      "##rs": 7032,
      "io": 7033,
      "armada": 7034,
      "transtor": 7035,
      "rebo": 7036,
      "vitimas": 7037,
      "sinais": 7038,
      "roub": 7039,
      "disju": 7040,
      "hidraulico": 7041,
      "estrategico": 7042,
      "indicador": 7043,
      "rapida": 7044,
      "respeitado": 7045,
      "exista": 7046,
      "depositos": 7047,
      "discriminada": 7048,
      "isent": 7049,
      "melhorias": 7050,
      "palm": 7051,
      "pequenos": 7052,
      "amapa": 7053,
      "idio": 7054,
      "abrangencia": 7055,
      "cobrados": 7056,
      "inoxidavel": 7057,
      "cobre": 7058,
      "##dados": 7059,
      "reta": 7060,
      "prioridade": 7061,
      "conforto": 7062,
      "topico": 7063,
      "arm": 7064,
      "liberada": 7065,
      "distribuidos": 7066,
      "glosa": 7067,
      "centa": 7068,
      "acessibilidade": 7069,
      "solvencia": 7070,
      "rescis": 7071,
      "operadora": 7072,
      "##truir": 7073,
      "mau": 7074,
      "almeida": 7075,
      "##diencia": 7076,
      "detalhadamente": 7077,
      "volumes": 7078,
      "##cen": 7079,
      "##inu": 7080,
      "blinda": 7081,
      "regido": 7082,
      "correia": 7083,
      "glos": 7084,
      "sujeitas": 7085,
      "circunstancias": 7086,
      "contudo": 7087,
      "especifici": 7088,
      "proporcionando": 7089,
      "avaliados": 7090,
      "mecanismo": 7091,
      "etiqueta": 7092,
      "goncalves": 7093,
      "acordos": 7094,
      "realiza": 7095,
      "compac": 7096,
      "reciclagem": 7097,
      "##entamento": 7098,
      "vigilantes": 7099,
      "##ll": 7100,
      "metalica": 7101,
      "##amentos": 7102,
      "##ner": 7103,
      "severidade": 7104,
      "diss": 7105,
      "pin": 7106,
      "provisorios": 7107,
      "capazes": 7108,
      "##uncao": 7109,
      "##th": 7110,
      "gerenciar": 7111,
      "impropri": 7112,
      "manifestamente": 7113,
      "cirurgico": 7114,
      "liquida": 7115,
      "exterior": 7116,
      "acatar": 7117,
      "intimados": 7118,
      "perna": 7119,
      "viavel": 7120,
      "concorrido": 7121,
      "cod": 7122,
      "usados": 7123,
      "providencia": 7124,
      "parente": 7125,
      "guarn": 7126,
      "rigido": 7127,
      "discrimina": 7128,
      "##grafo": 7129,
      "concluidos": 7130,
      "atestadas": 7131,
      "descontadas": 7132,
      "iec": 7133,
      "##load": 7134,
      "##bao": 7135,
      "##bacao": 7136,
      "bolsa": 7137,
      "eleicao": 7138,
      "esca": 7139,
      "anali": 7140,
      "daquela": 7141,
      "balancetes": 7142,
      "##ux": 7143,
      "sucessivas": 7144,
      "vencida": 7145,
      "sinal": 7146,
      "lanches": 7147,
      "incumbi": 7148,
      "nonato": 7149,
      "ts": 7150,
      "##rudencia": 7151,
      "adequacoes": 7152,
      "naval": 7153,
      "saneadoras": 7154,
      "##fet": 7155,
      "cnd": 7156,
      "rubricadas": 7157,
      "sensor": 7158,
      "emiss": 7159,
      "##fs": 7160,
      "distrital": 7161,
      "excepcionais": 7162,
      "inexequivel": 7163,
      "ocorridas": 7164,
      "posse": 7165,
      "uniformizados": 7166,
      "empa": 7167,
      "diploma": 7168,
      "recolher": 7169,
      "reproduz": 7170,
      "cc": 7171,
      "ing": 7172,
      "bilhete": 7173,
      "##iras": 7174,
      "gomes": 7175,
      "demandante": 7176,
      "calam": 7177,
      "sinistro": 7178,
      "fronteira": 7179,
      "morro": 7180,
      "justificados": 7181,
      "aver": 7182,
      "julgadas": 7183,
      "primeiros": 7184,
      "ruas": 7185,
      "##central": 7186,
      "camada": 7187,
      "dezess": 7188,
      "ilicitos": 7189,
      "tratam": 7190,
      "pmp": 7191,
      "intra": 7192,
      "embu": 7193,
      "opcoes": 7194,
      "ful": 7195,
      "esfor": 7196,
      "derivados": 7197,
      "juiz": 7198,
      "litigios": 7199,
      "simultaneamente": 7200,
      "climatizacao": 7201,
      "serra": 7202,
      "anotara": 7203,
      "residencia": 7204,
      "##vid": 7205,
      "ct": 7206,
      "precisao": 7207,
      "perfeitamente": 7208,
      "##gresso": 7209,
      "marques": 7210,
      "ressalta": 7211,
      "amigavel": 7212,
      "constituida": 7213,
      "irres": 7214,
      "recusado": 7215,
      "descumpri": 7216,
      "isolamento": 7217,
      "nutricao": 7218,
      "exime": 7219,
      "topo": 7220,
      "##imas": 7221,
      "agencias": 7222,
      "concession": 7223,
      "pato": 7224,
      "designara": 7225,
      "requerido": 7226,
      "descentral": 7227,
      "existe": 7228,
      "cristal": 7229,
      "##nera": 7230,
      "geradores": 7231,
      "entul": 7232,
      "obrigatorios": 7233,
      "iniciais": 7234,
      "apta": 7235,
      "substancias": 7236,
      "homologada": 7237,
      "valvula": 7238,
      "ciclo": 7239,
      "gil": 7240,
      "##lados": 7241,
      "descontinu": 7242,
      "passar": 7243,
      "sm": 7244,
      "avan": 7245,
      "crm": 7246,
      "ii": 7247,
      "equipara": 7248,
      "pleite": 7249,
      "kv": 7250,
      "teto": 7251,
      "dividida": 7252,
      "emol": 7253,
      "tel": 7254,
      "facilita": 7255,
      "##tadora": 7256,
      "stf": 7257,
      "centavos": 7258,
      "ating": 7259,
      "seguradora": 7260,
      "convencoes": 7261,
      "pires": 7262,
      "calamidade": 7263,
      "descartavel": 7264,
      "junior": 7265,
      "solicitando": 7266,
      "contraproposta": 7267,
      "frasco": 7268,
      "logica": 7269,
      "regida": 7270,
      "comecara": 7271,
      "note": 7272,
      "boletim": 7273,
      "##hone": 7274,
      "entender": 7275,
      "hidraulica": 7276,
      "digitacao": 7277,
      "##emos": 7278,
      "abrange": 7279,
      "algo": 7280,
      "crimin": 7281,
      "abrangidos": 7282,
      "##mou": 7283,
      "relacoes": 7284,
      "cadeiras": 7285,
      "naturais": 7286,
      "toler": 7287,
      "alven": 7288,
      "barb": 7289,
      "##redo": 7290,
      "licitatorios": 7291,
      "polici": 7292,
      "idade": 7293,
      "inspecoes": 7294,
      "aspecto": 7295,
      "assembleia": 7296,
      "##bilizacao": 7297,
      "frustra": 7298,
      "ocul": 7299,
      "profund": 7300,
      "oito": 7301,
      "verificacoes": 7302,
      "meta": 7303,
      "familia": 7304,
      "##mware": 7305,
      "contex": 7306,
      "caracterizacao": 7307,
      "biblioteca": 7308,
      "##mido": 7309,
      "ventura": 7310,
      "periodicamente": 7311,
      "houve": 7312,
      "gerando": 7313,
      "vencedoras": 7314,
      "exato": 7315,
      "##dg": 7316,
      "aereo": 7317,
      "consignado": 7318,
      "##erado": 7319,
      "camaras": 7320,
      "download": 7321,
      "concomitantemente": 7322,
      "sobres": 7323,
      "obedecida": 7324,
      "descredenciamento": 7325,
      "demonstrativo": 7326,
      "providenciara": 7327,
      "ocorrerao": 7328,
      "tempestivamente": 7329,
      "eireli": 7330,
      "reajustes": 7331,
      "traz": 7332,
      "caracterizado": 7333,
      "ambula": 7334,
      "crescente": 7335,
      "pat": 7336,
      "##dante": 7337,
      "encontradas": 7338,
      "reca": 7339,
      "##gueia": 7340,
      "mantem": 7341,
      "##iadas": 7342,
      "cadastros": 7343,
      "subsecao": 7344,
      "subcontratada": 7345,
      "danificados": 7346,
      "tributarias": 7347,
      "gan": 7348,
      "varias": 7349,
      "conjuntos": 7350,
      "##tadores": 7351,
      "comprovacoes": 7352,
      "fiscalizado": 7353,
      "restaurante": 7354,
      "abasteci": 7355,
      "efetuando": 7356,
      "lavra": 7357,
      "costura": 7358,
      "calenda": 7359,
      "irao": 7360,
      "deliber": 7361,
      "leve": 7362,
      "acrescidos": 7363,
      "participado": 7364,
      "envolvidas": 7365,
      "descons": 7366,
      "##tileno": 7367,
      "conama": 7368,
      "faixas": 7369,
      "etiquetas": 7370,
      "fios": 7371,
      "aprendiza": 7372,
      "recondicion": 7373,
      "lampadas": 7374,
      "estritamente": 7375,
      "gurgueia": 7376,
      "sessoes": 7377,
      "##dicios": 7378,
      "veter": 7379,
      "sigil": 7380,
      "rota": 7381,
      "##ical": 7382,
      "executou": 7383,
      "##dania": 7384,
      "vulnera": 7385,
      "constatar": 7386,
      "forum": 7387,
      "rodas": 7388,
      "reconsider": 7389,
      "centros": 7390,
      "mani": 7391,
      "retirado": 7392,
      "emolumentos": 7393,
      "interp": 7394,
      "crachas": 7395,
      "utilizara": 7396,
      "devolvido": 7397,
      "pareceres": 7398,
      "candidatos": 7399,
      "providenciada": 7400,
      "depositados": 7401,
      "comunicara": 7402,
      "celer": 7403,
      "numeracao": 7404,
      "fecha": 7405,
      "cidadania": 7406,
      "remar": 7407,
      "garraf": 7408,
      "constituido": 7409,
      "##enciada": 7410,
      "oficialmente": 7411,
      "atendido": 7412,
      "veterin": 7413,
      "vinculacao": 7414,
      "precedida": 7415,
      "fundos": 7416,
      "camera": 7417,
      "isento": 7418,
      "server": 7419,
      "cama": 7420,
      "alcance": 7421,
      "quei": 7422,
      "verbais": 7423,
      "variaveis": 7424,
      "indigenas": 7425,
      "imun": 7426,
      "instruir": 7427,
      "concluido": 7428,
      "comprovadas": 7429,
      "transportados": 7430,
      "meramente": 7431,
      "correlatas": 7432,
      "##sc": 7433,
      "finalizacao": 7434,
      "notebook": 7435,
      "agesp": 7436,
      "funai": 7437,
      "aprendizagem": 7438,
      "naz": 7439,
      "##mental": 7440,
      "pernamb": 7441,
      "imperme": 7442,
      "automotores": 7443,
      "agespisa": 7444,
      "obediencia": 7445,
      "satisfacao": 7446,
      "terminal": 7447,
      "advin": 7448,
      "layout": 7449,
      "dg": 7450,
      "##rim": 7451,
      "efetivar": 7452,
      "pio": 7453,
      "aula": 7454,
      "editais": 7455,
      "assinaturas": 7456,
      "atendida": 7457,
      "informara": 7458,
      "grandes": 7459,
      "pressu": 7460,
      "##izem": 7461,
      "flexivel": 7462,
      "precl": 7463,
      "transtornos": 7464,
      "ceder": 7465,
      "##terapia": 7466,
      "alco": 7467,
      "regulagem": 7468,
      "detalhados": 7469,
      "tar": 7470,
      "midias": 7471,
      "didatico": 7472,
      "laboratorial": 7473,
      "magnetico": 7474,
      "concern": 7475,
      "dol": 7476,
      "criar": 7477,
      "forro": 7478,
      "agropecuaria": 7479,
      "cmb": 7480,
      "trimes": 7481,
      "adaptacao": 7482,
      "ht": 7483,
      "caderno": 7484,
      "##gular": 7485,
      "aeropor": 7486,
      "cadastrais": 7487,
      "reto": 7488,
      "rege": 7489,
      "normativas": 7490,
      "##vencoes": 7491,
      "nobreak": 7492,
      "exposicao": 7493,
      "pmb": 7494,
      "fire": 7495,
      "curri": 7496,
      "unit": 7497,
      "##pra": 7498,
      "##tifi": 7499,
      "identifique": 7500,
      "##bu": 7501,
      "farao": 7502,
      "nomes": 7503,
      "profundidade": 7504,
      "vitoria": 7505,
      "constem": 7506,
      "van": 7507,
      "fique": 7508,
      "ai": 7509,
      "agul": 7510,
      "mons": 7511,
      "regulamentacao": 7512,
      "turno": 7513,
      "raio": 7514,
      "grama": 7515,
      "dpf": 7516,
      "evolucao": 7517,
      "fel": 7518,
      "empresarial": 7519,
      "concentracao": 7520,
      "poliester": 7521,
      "##cruz": 7522,
      "##om": 7523,
      "locados": 7524,
      "possibilite": 7525,
      "barros": 7526,
      "veicular": 7527,
      "mn": 7528,
      "den": 7529,
      "vencedores": 7530,
      "captura": 7531,
      "##cros": 7532,
      "desenho": 7533,
      "dc": 7534,
      "redig": 7535,
      "vigesima": 7536,
      "excepcional": 7537,
      "blocos": 7538,
      "confeccionada": 7539,
      "##imentos": 7540,
      "##tista": 7541,
      "arrematante": 7542,
      "buscando": 7543,
      "solidaria": 7544,
      "motoci": 7545,
      "funasa": 7546,
      "corrigido": 7547,
      "##tipo": 7548,
      "avaria": 7549,
      "correlata": 7550,
      "sead": 7551,
      "##ecidos": 7552,
      "quimico": 7553,
      "facam": 7554,
      "exclusivos": 7555,
      "campanha": 7556,
      "incompativeis": 7557,
      "procedida": 7558,
      "serv": 7559,
      "informadas": 7560,
      "##tarem": 7561,
      "consecucao": 7562,
      "transferencias": 7563,
      "obedecidas": 7564,
      "aumentar": 7565,
      "##regados": 7566,
      "##culares": 7567,
      "ph": 7568,
      "##cola": 7569,
      "legislativa": 7570,
      "proxima": 7571,
      "advir": 7572,
      "parame": 7573,
      "banpara": 7574,
      "##ancas": 7575,
      "##oito": 7576,
      "deduzidos": 7577,
      "paul": 7578,
      "alegacoes": 7579,
      "recepcion": 7580,
      "igualmente": 7581,
      "identificando": 7582,
      "amazonia": 7583,
      "oxig": 7584,
      "arro": 7585,
      "provocados": 7586,
      "solucion": 7587,
      "imin": 7588,
      "acomo": 7589,
      "center": 7590,
      "efetivado": 7591,
      "agrup": 7592,
      "ressaltar": 7593,
      "semec": 7594,
      "expec": 7595,
      "##computa": 7596,
      "otimizacao": 7597,
      "##hadas": 7598,
      "impericia": 7599,
      "leilo": 7600,
      "socor": 7601,
      "regulamentada": 7602,
      "impede": 7603,
      "dezoito": 7604,
      "satisfatoriamente": 7605,
      "cotacoes": 7606,
      "perfor": 7607,
      "sanitarias": 7608,
      "dobra": 7609,
      "corrigidos": 7610,
      "discu": 7611,
      "competira": 7612,
      "ben": 7613,
      "inscritos": 7614,
      "movimento": 7615,
      "cidadao": 7616,
      "recipi": 7617,
      "marec": 7618,
      "condicionadores": 7619,
      "microcomputa": 7620,
      "custeio": 7621,
      "##med": 7622,
      "anexada": 7623,
      "formuladas": 7624,
      "adequar": 7625,
      "chu": 7626,
      "evidencia": 7627,
      "ambul": 7628,
      "analitica": 7629,
      "##douros": 7630,
      "ug": 7631,
      "prorrogacoes": 7632,
      "mbps": 7633,
      "perturbacao": 7634,
      "marechal": 7635,
      "fals": 7636,
      "minuciosamente": 7637,
      "##mem": 7638,
      "chefia": 7639,
      "trt": 7640,
      "conhece": 7641,
      "dispensada": 7642,
      "socorro": 7643,
      "monsenhor": 7644,
      "leves": 7645,
      "abor": 7646,
      "adesoes": 7647,
      "uftm": 7648,
      "reproducao": 7649,
      "querendo": 7650,
      "propoe": 7651,
      "verso": 7652,
      "prossegu": 7653,
      "cref": 7654,
      "##prev": 7655,
      "restricoes": 7656,
      "teso": 7657,
      "colocados": 7658,
      "habita": 7659,
      "##ap": 7660,
      "indicara": 7661,
      "expedidas": 7662,
      "##toras": 7663,
      "vistor": 7664,
      "tubulacoes": 7665,
      "adiante": 7666,
      "prov": 7667,
      "merenda": 7668,
      "##imoes": 7669,
      "distribuidora": 7670,
      "transfere": 7671,
      "preclusao": 7672,
      "trechos": 7673,
      "degra": 7674,
      "artes": 7675,
      "proveniente": 7676,
      "sanadas": 7677,
      "boca": 7678,
      "campinas": 7679,
      "pequenas": 7680,
      "melhorar": 7681,
      "##posto": 7682,
      "##ilha": 7683,
      "ipen": 7684,
      "##ae": 7685,
      "aposti": 7686,
      "dvd": 7687,
      "##itas": 7688,
      "completos": 7689,
      "declarando": 7690,
      "desenvolvido": 7691,
      "dezesseis": 7692,
      "sefaz": 7693,
      "consegu": 7694,
      "retidos": 7695,
      "permitira": 7696,
      "performan": 7697,
      "##aldo": 7698,
      "pernambuco": 7699,
      "wor": 7700,
      "forneceu": 7701,
      "afix": 7702,
      "revisoes": 7703,
      "intervencoes": 7704,
      "##tizados": 7705,
      "exerc": 7706,
      "app": 7707,
      "artis": 7708,
      "elaborados": 7709,
      "continuos": 7710,
      "##ore": 7711,
      "armazenados": 7712,
      "regulamenta": 7713,
      "agrupamento": 7714,
      "##alizadas": 7715,
      "aperfei": 7716,
      "preven": 7717,
      "agricol": 7718,
      "toner": 7719,
      "servira": 7720,
      "##bina": 7721,
      "divino": 7722,
      "ciencias": 7723,
      "explo": 7724,
      "satisfatorio": 7725,
      "##wall": 7726,
      "movi": 7727,
      "repassar": 7728,
      "respeitados": 7729,
      "fiocruz": 7730,
      "##uso": 7731,
      "transcritos": 7732,
      "oportuna": 7733,
      "cpr": 7734,
      "cultural": 7735,
      "aperfeico": 7736,
      "cabivel": 7737,
      "calendario": 7738,
      "##ardo": 7739,
      "entrar": 7740,
      "destaca": 7741,
      "professores": 7742,
      "cia": 7743,
      "recente": 7744,
      "normativos": 7745,
      "habilitatorias": 7746,
      "instituido": 7747,
      "performance": 7748,
      "requerer": 7749,
      "##hamentos": 7750,
      "cad": 7751,
      "admiss": 7752,
      "samf": 7753,
      "fechados": 7754,
      "pretex": 7755,
      "destinam": 7756,
      "povoado": 7757,
      "visitantes": 7758,
      "intern": 7759,
      "concedente": 7760,
      "achado": 7761,
      "inver": 7762,
      "cardap": 7763,
      "##etas": 7764,
      "aponta": 7765,
      "recomposicao": 7766,
      "distintas": 7767,
      "prescricoes": 7768,
      "algodao": 7769,
      "regioes": 7770,
      "inadimplida": 7771,
      "cripto": 7772,
      "marcacao": 7773,
      "operadores": 7774,
      "tornando": 7775,
      "defeituoso": 7776,
      "ressalvas": 7777,
      "irreajustavel": 7778,
      "simbol": 7779,
      "demonstrado": 7780,
      "confirmar": 7781,
      "eva": 7782,
      "contempla": 7783,
      "cadastrada": 7784,
      "sebas": 7785,
      "aro": 7786,
      "assumido": 7787,
      "contexto": 7788,
      "tema": 7789,
      "microempreendedor": 7790,
      "preenchido": 7791,
      "esquer": 7792,
      "monitorar": 7793,
      "comprobatoria": 7794,
      "hosp": 7795,
      "algumas": 7796,
      "reinici": 7797,
      "diant": 7798,
      "definicoes": 7799,
      "diminuicao": 7800,
      "ademais": 7801,
      "##dios": 7802,
      "noti": 7803,
      "links": 7804,
      "##logias": 7805,
      "implantar": 7806,
      "##ifiquem": 7807,
      "estabelecendo": 7808,
      "justificadas": 7809,
      "inse": 7810,
      "tesoura": 7811,
      "fme": 7812,
      "microfon": 7813,
      "iphan": 7814,
      "intelig": 7815,
      "##ane": 7816,
      "##itado": 7817,
      "discriminando": 7818,
      "##olina": 7819,
      "sebasti": 7820,
      "nesses": 7821,
      "organismo": 7822,
      "sustentavel": 7823,
      "##ionamento": 7824,
      "retirados": 7825,
      "pavi": 7826,
      "##urado": 7827,
      "passam": 7828,
      "wall": 7829,
      "##lao": 7830,
      "##umber": 7831,
      "corresponsabilidade": 7832,
      "##dp": 7833,
      "pop": 7834,
      "##propil": 7835,
      "fotos": 7836,
      "usado": 7837,
      "recicl": 7838,
      "pretexto": 7839,
      "apropriados": 7840,
      "##imal": 7841,
      "##prov": 7842,
      "##iana": 7843,
      "cotas": 7844,
      "onerar": 7845,
      "pul": 7846,
      "perfaz": 7847,
      "paraiba": 7848,
      "oitavo": 7849,
      "funcionar": 7850,
      "conserv": 7851,
      "rotu": 7852,
      "##erro": 7853,
      "anulacao": 7854,
      "demandado": 7855,
      "encaix": 7856,
      "##elhante": 7857,
      "avi": 7858,
      "semelhante": 7859,
      "compostos": 7860,
      "durabilidade": 7861,
      "##duc": 7862,
      "sebastiao": 7863,
      "preceitua": 7864,
      "concili": 7865,
      "confe": 7866,
      "guarnicao": 7867,
      "ampl": 7868,
      "perifer": 7869,
      "advo": 7870,
      "questiona": 7871,
      "irrestrita": 7872,
      "prestacoes": 7873,
      "daquele": 7874,
      "pactuados": 7875,
      "covid": 7876,
      "isencao": 7877,
      "incorrer": 7878,
      "incorreta": 7879,
      "iniciam": 7880,
      "inexig": 7881,
      "endere": 7882,
      "sustentacao": 7883,
      "emails": 7884,
      "defeituosos": 7885,
      "implique": 7886,
      "##tron": 7887,
      "inadimplente": 7888,
      "florianopolis": 7889,
      "##iaba": 7890,
      "enla": 7891,
      "decorrerem": 7892,
      "gerenciais": 7893,
      "##del": 7894,
      "supervenientes": 7895,
      "eleitorais": 7896,
      "irris": 7897,
      "##tf": 7898,
      "analog": 7899,
      "impressas": 7900,
      "apresentam": 7901,
      "multifun": 7902,
      "emergencial": 7903,
      "inval": 7904,
      "##jeto": 7905,
      "aconte": 7906,
      "manifeste": 7907,
      "logomar": 7908,
      "interpreta": 7909,
      "##eccao": 7910,
      "impedidas": 7911,
      "reconstruir": 7912,
      "confiabilidade": 7913,
      "empreendimento": 7914,
      "##hados": 7915,
      "periodicos": 7916,
      "coelho": 7917,
      "comission": 7918,
      "permissao": 7919,
      "idioma": 7920,
      "atribui": 7921,
      "igua": 7922,
      "roubo": 7923,
      "federacao": 7924,
      "incomple": 7925,
      "cumpridos": 7926,
      "aditamento": 7927,
      "cancelado": 7928,
      "tubulacao": 7929,
      "inexequiveis": 7930,
      "rosa": 7931,
      "##itarios": 7932,
      "mis": 7933,
      "atestara": 7934,
      "consignar": 7935,
      "dizeres": 7936,
      "barro": 7937,
      "cortes": 7938,
      "##itico": 7939,
      "##propileno": 7940,
      "requeridos": 7941,
      "##az": 7942,
      "displa": 7943,
      "##dencial": 7944,
      "passando": 7945,
      "cub": 7946,
      "avali": 7947,
      "notificacoes": 7948,
      "bande": 7949,
      "##reo": 7950,
      "formatos": 7951,
      "insuficiente": 7952,
      "##inidade": 7953,
      "pavimento": 7954,
      "##gipe": 7955,
      "terr": 7956,
      "traducao": 7957,
      "contribuintes": 7958,
      "questionamentos": 7959,
      "anexados": 7960,
      "emitente": 7961,
      "recusados": 7962,
      "conferidos": 7963,
      "autu": 7964,
      "supram": 7965,
      "potencialmente": 7966,
      "retencoes": 7967,
      "propiciar": 7968,
      "ans": 7969,
      "##cina": 7970,
      "absor": 7971,
      "armazenagem": 7972,
      "discorda": 7973,
      "contento": 7974,
      "##estes": 7975,
      "##tralmente": 7976,
      "recibos": 7977,
      "##dec": 7978,
      "##massa": 7979,
      "preservar": 7980,
      "analisados": 7981,
      "concessionarias": 7982,
      "associados": 7983,
      "divisorias": 7984,
      "ww": 7985,
      "sergipe": 7986,
      "bc": 7987,
      "graus": 7988,
      "planta": 7989,
      "polipropileno": 7990,
      "artefa": 7991,
      "caxias": 7992,
      "tamanhos": 7993,
      "competencias": 7994,
      "urnas": 7995,
      "mobilizacao": 7996,
      "oxigenio": 7997,
      "anotacoes": 7998,
      "##nes": 7999,
      "sesapi": 8000,
      "interm": 8001,
      "aceitarem": 8002,
      "##tecn": 8003,
      "seduc": 8004,
      "tolerancia": 8005,
      "novamente": 8006,
      "interligacao": 8007,
      "visam": 8008,
      "instrumentais": 8009,
      "arredon": 8010,
      "gel": 8011,
      "mesas": 8012,
      "incluem": 8013,
      "mista": 8014,
      "gr": 8015,
      "nosso": 8016,
      "estimativo": 8017,
      "pontual": 8018,
      "pecu": 8019,
      "dependentes": 8020,
      "atualizadas": 8021,
      "reciclaveis": 8022,
      "##goes": 8023,
      "vencem": 8024,
      "nono": 8025,
      "##lante": 8026,
      "volta": 8027,
      "embora": 8028,
      "deveres": 8029,
      "afetar": 8030,
      "acus": 8031,
      "##tudo": 8032,
      "##graficos": 8033,
      "formularios": 8034,
      "eximira": 8035,
      "hc": 8036,
      "editalicias": 8037,
      "laser": 8038,
      "inclusas": 8039,
      "metalicas": 8040,
      "samu": 8041,
      "##hs": 8042,
      "poco": 8043,
      "autorizacoes": 8044,
      "glp": 8045,
      "existir": 8046,
      "reven": 8047,
      "profer": 8048,
      "inca": 8049,
      "faculdade": 8050,
      "##diz": 8051,
      "##vora": 8052,
      "esterilizacao": 8053,
      "psico": 8054,
      "##fis": 8055,
      "##rimo": 8056,
      "fixando": 8057,
      "manha": 8058,
      "motocicle": 8059,
      "telefonicos": 8060,
      "justificadamente": 8061,
      "manga": 8062,
      "pales": 8063,
      "##infra": 8064,
      "id": 8065,
      "constituindo": 8066,
      "alvenaria": 8067,
      "sobretudo": 8068,
      "humano": 8069,
      "ocupacao": 8070,
      "bre": 8071,
      "exara": 8072,
      "contador": 8073,
      "etica": 8074,
      "##cedo": 8075,
      "##tenta": 8076,
      "leilao": 8077,
      "plu": 8078,
      "comprometam": 8079,
      "##orno": 8080,
      "ressalvados": 8081,
      "rodoviaria": 8082,
      "aplicam": 8083,
      "bebe": 8084,
      "##onas": 8085,
      "fon": 8086,
      "proteger": 8087,
      "dispensado": 8088,
      "sess": 8089,
      "areia": 8090,
      "desk": 8091,
      "soares": 8092,
      "embalados": 8093,
      "conciliacao": 8094,
      "gave": 8095,
      "sar": 8096,
      "reajustado": 8097,
      "borges": 8098,
      "##virus": 8099,
      "textos": 8100,
      "rapido": 8101,
      "##zas": 8102,
      "pecuaria": 8103,
      "prerro": 8104,
      "recolhido": 8105,
      "usar": 8106,
      "superintendente": 8107,
      "cinza": 8108,
      "incorrecao": 8109,
      "roupas": 8110,
      "estrategia": 8111,
      "cobrar": 8112,
      "desempenhar": 8113,
      "##trito": 8114,
      "passo": 8115,
      "##mesticos": 8116,
      "descontar": 8117,
      "interrupcoes": 8118,
      "##jos": 8119,
      "eletrosul": 8120,
      "##upcao": 8121,
      "eixo": 8122,
      "existem": 8123,
      "adjudicada": 8124,
      "impossibilitem": 8125,
      "excessiv": 8126,
      "quantas": 8127,
      "delas": 8128,
      "parametriz": 8129,
      "coletivas": 8130,
      "bloque": 8131,
      "extrema": 8132,
      "amparo": 8133,
      "dirimidas": 8134,
      "prerroga": 8135,
      "caracterizada": 8136,
      "paulista": 8137,
      "##tigo": 8138,
      "assegurados": 8139,
      "combinado": 8140,
      "##riedade": 8141,
      "##onia": 8142,
      "plastica": 8143,
      "macedo": 8144,
      "cobradas": 8145,
      "correios": 8146,
      "equivalencia": 8147,
      "cun": 8148,
      "##ariais": 8149,
      "tubulares": 8150,
      "demandados": 8151,
      "##tracao": 8152,
      "equivo": 8153,
      "cooperacao": 8154,
      "credores": 8155,
      "cuiaba": 8156,
      "fitas": 8157,
      "notadamente": 8158,
      "assessoramento": 8159,
      "##istentes": 8160,
      "proporcao": 8161,
      "comunicados": 8162,
      "listagem": 8163,
      "arga": 8164,
      "realidade": 8165,
      "barbosa": 8166,
      "##culo": 8167,
      "lavratura": 8168,
      "##gel": 8169,
      "controlador": 8170,
      "display": 8171,
      "articul": 8172,
      "##volu": 8173,
      "ventilacao": 8174,
      "era": 8175,
      "guardar": 8176,
      "recolhidos": 8177,
      "requisitado": 8178,
      "irre": 8179,
      "drenagem": 8180,
      "hotel": 8181,
      "acident": 8182,
      "dependendo": 8183,
      "ilha": 8184,
      "##iros": 8185,
      "ministro": 8186,
      "passara": 8187,
      "##bidade": 8188,
      "resolucoes": 8189,
      "enumerados": 8190,
      "##bri": 8191,
      "virtuais": 8192,
      "hd": 8193,
      "corros": 8194,
      "eletrodu": 8195,
      "proibida": 8196,
      "##legadas": 8197,
      "out": 8198,
      "##namentais": 8199,
      "devolver": 8200,
      "banheiros": 8201,
      "desligamento": 8202,
      "reter": 8203,
      "locomo": 8204,
      "tributario": 8205,
      "cometida": 8206,
      "teclado": 8207,
      "gasolina": 8208,
      "indenizar": 8209,
      "pisos": 8210,
      "##ibi": 8211,
      "criancas": 8212,
      "##idez": 8213,
      "##eu": 8214,
      "incent": 8215,
      "remota": 8216,
      "sessenta": 8217,
      "colegio": 8218,
      "conteudos": 8219,
      "condens": 8220,
      "srf": 8221,
      "consorci": 8222,
      "acompanha": 8223,
      "##dutor": 8224,
      "optica": 8225,
      "##logicas": 8226,
      "furos": 8227,
      "galvanizado": 8228,
      "interpostos": 8229,
      "##lito": 8230,
      "fisio": 8231,
      "formalidades": 8232,
      "senhas": 8233,
      "publicados": 8234,
      "chum": 8235,
      "desab": 8236,
      "iniciara": 8237,
      "suportes": 8238,
      "involu": 8239,
      "redibi": 8240,
      "celeridade": 8241,
      "perce": 8242,
      "demonstrada": 8243,
      "terceirizacao": 8244,
      "permanentemente": 8245,
      "governador": 8246,
      "##ide": 8247,
      "##onomia": 8248,
      "fixar": 8249,
      "passivel": 8250,
      "securi": 8251,
      "legitimidade": 8252,
      "status": 8253,
      "trabalhar": 8254,
      "linux": 8255,
      "proteses": 8256,
      "avenca": 8257,
      "vistoriar": 8258,
      "anda": 8259,
      "malha": 8260,
      "alvo": 8261,
      "regulares": 8262,
      "ia": 8263,
      "##cui": 8264,
      "##ls": 8265,
      "deseja": 8266,
      "servidora": 8267,
      "polie": 8268,
      "dominio": 8269,
      "partida": 8270,
      "ocasionados": 8271,
      "inviabil": 8272,
      "autonomia": 8273,
      "caminhoes": 8274,
      "aliquota": 8275,
      "##tricas": 8276,
      "depender": 8277,
      "exige": 8278,
      "alegar": 8279,
      "concedidos": 8280,
      "visivel": 8281,
      "emenda": 8282,
      "anuais": 8283,
      "arco": 8284,
      "responsabilizacao": 8285,
      "he": 8286,
      "ny": 8287,
      "rescisorias": 8288,
      "substituindo": 8289,
      "quilometro": 8290,
      "ferraz": 8291,
      "furto": 8292,
      "professor": 8293,
      "hz": 8294,
      "empil": 8295,
      "the": 8296,
      "##zo": 8297,
      "ocupacional": 8298,
      "sn": 8299,
      "boleto": 8300,
      "sali": 8301,
      "descrever": 8302,
      "##eria": 8303,
      "aprimo": 8304,
      "cimento": 8305,
      "sofrido": 8306,
      "valvulas": 8307,
      "mec": 8308,
      "averi": 8309,
      "acondicionado": 8310,
      "iniciando": 8311,
      "coron": 8312,
      "rodoviario": 8313,
      "emergenciais": 8314,
      "facilidade": 8315,
      "resultar": 8316,
      "brasileiras": 8317,
      "acrescent": 8318,
      "##ee": 8319,
      "fib": 8320,
      "eman": 8321,
      "anular": 8322,
      "privadas": 8323,
      "##cuo": 8324,
      "separados": 8325,
      "##isas": 8326,
      "##quica": 8327,
      "absol": 8328,
      "resolver": 8329,
      "acordados": 8330,
      "##vios": 8331,
      "##copia": 8332,
      "prima": 8333,
      "agendar": 8334,
      "proporcionalidade": 8335,
      "pon": 8336,
      "cartucho": 8337,
      "ultimas": 8338,
      "especificar": 8339,
      "segundos": 8340,
      "question": 8341,
      "indicios": 8342,
      "traseira": 8343,
      "julio": 8344,
      "auxiliado": 8345,
      "oeiras": 8346,
      "##ntor": 8347,
      "nestes": 8348,
      "improbidade": 8349,
      "bancarias": 8350,
      "habilitadas": 8351,
      "alterados": 8352,
      "encargo": 8353,
      "eliminacao": 8354,
      "##antamentos": 8355,
      "pontuacao": 8356,
      "imprudencia": 8357,
      "departamentos": 8358,
      "exijam": 8359,
      "anualidade": 8360,
      "transportar": 8361,
      "adoles": 8362,
      "iguacu": 8363,
      "seria": 8364,
      "tomou": 8365,
      "descarre": 8366,
      "caracterizando": 8367,
      "duplo": 8368,
      "guin": 8369,
      "polietileno": 8370,
      "ebc": 8371,
      "qse": 8372,
      "motivacao": 8373,
      "remarcacao": 8374,
      "relacionamento": 8375,
      "empresario": 8376,
      "vesti": 8377,
      "variacoes": 8378,
      "dependera": 8379,
      "monitoracao": 8380,
      "constara": 8381,
      "##imetros": 8382,
      "adaptacoes": 8383,
      "vigilante": 8384,
      "absoluta": 8385,
      "##enciadas": 8386,
      "claro": 8387,
      "conferida": 8388,
      "sensores": 8389,
      "palmeira": 8390,
      "sas": 8391,
      "rata": 8392,
      "botao": 8393,
      "rendimento": 8394,
      "usina": 8395,
      "parciais": 8396,
      "##fil": 8397,
      "antt": 8398,
      "detalhamentos": 8399,
      "economicos": 8400,
      "familias": 8401,
      "expressas": 8402,
      "prevenir": 8403,
      "aterramento": 8404,
      "aliquotas": 8405,
      "nunes": 8406,
      "dens": 8407,
      "garante": 8408,
      "##mi": 8409,
      "faculta": 8410,
      "alcool": 8411,
      "inexigibilidade": 8412,
      "suges": 8413,
      "mnumber": 8414,
      "terreo": 8415,
      "recursal": 8416,
      "beneficiaria": 8417,
      "referencial": 8418,
      "barr": 8419,
      "descontinuidade": 8420,
      "##ies": 8421,
      "har": 8422,
      "admissao": 8423,
      "verda": 8424,
      "encontrados": 8425,
      "qualidades": 8426,
      "##culas": 8427,
      "disponibilizando": 8428,
      "firewall": 8429,
      "zo": 8430,
      "discre": 8431,
      "captacao": 8432,
      "superficies": 8433,
      "##ander": 8434,
      "pendencia": 8435,
      "globais": 8436,
      "chegada": 8437,
      "privativa": 8438,
      "separadamente": 8439,
      "nada": 8440,
      "quente": 8441,
      "animal": 8442,
      "simoes": 8443,
      "cade": 8444,
      "##gus": 8445,
      "verifique": 8446,
      "assegurara": 8447,
      "concer": 8448,
      "##centos": 8449,
      "pj": 8450,
      "##eo": 8451,
      "comunicadas": 8452,
      "acolhimento": 8453,
      "terreno": 8454,
      "papelao": 8455,
      "ilustra": 8456,
      "avaliada": 8457,
      "unif": 8458,
      "julgada": 8459,
      "carb": 8460,
      "##ecida": 8461,
      "urbanos": 8462,
      "discordancia": 8463,
      "disposta": 8464,
      "embarca": 8465,
      "estr": 8466,
      "senado": 8467,
      "composicoes": 8468,
      "invent": 8469,
      "##unicip": 8470,
      "figu": 8471,
      "oi": 8472,
      "realizou": 8473,
      "logomarca": 8474,
      "conjuntamente": 8475,
      "tarifa": 8476,
      "introduz": 8477,
      "eletrodo": 8478,
      "responsabiliza": 8479,
      "www": 8480,
      "periodicas": 8481,
      "atinentes": 8482,
      "concernentes": 8483,
      "depre": 8484,
      "restauracao": 8485,
      "demonstre": 8486,
      "balanceamento": 8487,
      "documental": 8488,
      "jurisdicao": 8489,
      "vistorias": 8490,
      "comprometimento": 8491,
      "representando": 8492,
      "folhe": 8493,
      "aeronave": 8494,
      "eletricis": 8495,
      "orto": 8496,
      "demol": 8497,
      "##ang": 8498,
      "compreensao": 8499,
      "fazendas": 8500,
      "quantitativa": 8501,
      "esportes": 8502,
      "solidariedade": 8503,
      "##uni": 8504,
      "normalmente": 8505,
      "perimetro": 8506,
      "##erica": 8507,
      "arcando": 8508,
      "analisadas": 8509,
      "nylon": 8510,
      "desembar": 8511,
      "perfazendo": 8512,
      "##at": 8513,
      "sf": 8514,
      "secoes": 8515,
      "farmaceu": 8516,
      "##tima": 8517,
      "##iu": 8518,
      "computacional": 8519,
      "intera": 8520,
      "comprasgo": 8521,
      "manufatura": 8522,
      "confea": 8523,
      "obstante": 8524,
      "mento": 8525,
      "reequilibrio": 8526,
      "anexado": 8527,
      "formalizadas": 8528,
      "requeridas": 8529,
      "carimbos": 8530,
      "vacuo": 8531,
      "apto": 8532,
      "##xi": 8533,
      "cabine": 8534,
      "ambientalmente": 8535,
      "acredi": 8536,
      "pretendido": 8537,
      "condicionados": 8538,
      "corretamente": 8539,
      "resolve": 8540,
      "inadimplidos": 8541,
      "ber": 8542,
      "mpdg": 8543,
      "ame": 8544,
      "##ntina": 8545,
      "hospitais": 8546,
      "confianca": 8547,
      "revogacao": 8548,
      "supramencion": 8549,
      "mulher": 8550,
      "hp": 8551,
      "peix": 8552,
      "##entar": 8553,
      "surgir": 8554,
      "energe": 8555,
      "agricolas": 8556,
      "##orizacao": 8557,
      "ipva": 8558,
      "kva": 8559,
      "exaus": 8560,
      "registrando": 8561,
      "##metria": 8562,
      "cilindro": 8563,
      "canto": 8564,
      "##dando": 8565,
      "##elhamento": 8566,
      "impecam": 8567,
      "atox": 8568,
      "interpel": 8569,
      "insumo": 8570,
      "reduzida": 8571,
      "indevida": 8572,
      "almoco": 8573,
      "##oracao": 8574,
      "peli": 8575,
      "estabil": 8576,
      "designacao": 8577,
      "monitores": 8578,
      "bis": 8579,
      "desn": 8580,
      "raios": 8581,
      "##jas": 8582,
      "realize": 8583,
      "normalizada": 8584,
      "importa": 8585,
      "enunci": 8586,
      "decorridos": 8587,
      "locomocao": 8588,
      "leal": 8589,
      "tip": 8590,
      "convencionado": 8591,
      "##alha": 8592,
      "aplicara": 8593,
      "stan": 8594,
      "padre": 8595,
      "adesivo": 8596,
      "frei": 8597,
      "sangue": 8598,
      "simultanea": 8599,
      "bits": 8600,
      "versa": 8601,
      "fabricado": 8602,
      "pmc": 8603,
      "reutil": 8604,
      "vantajosidade": 8605,
      "alcancar": 8606,
      "subestacao": 8607,
      "redibitorios": 8608,
      "alarmes": 8609,
      "urbanismo": 8610,
      "artefatos": 8611,
      "feiras": 8612,
      "enquadrada": 8613,
      "instauracao": 8614,
      "irrisorios": 8615,
      "simplificada": 8616,
      "lubrificacao": 8617,
      "processadas": 8618,
      "##cionada": 8619,
      "orcado": 8620,
      "amostragem": 8621,
      "instituida": 8622,
      "cometidas": 8623,
      "dolosa": 8624,
      "tempos": 8625,
      "vice": 8626,
      "caesb": 8627,
      "explica": 8628,
      "rubricados": 8629,
      "assuncao": 8630,
      "levantamentos": 8631,
      "estacionamento": 8632,
      "obrigam": 8633,
      "constantemente": 8634,
      "envolvam": 8635,
      "inidonea": 8636,
      "ocorrida": 8637,
      "excedente": 8638,
      "redigida": 8639,
      "ocorram": 8640,
      "intens": 8641,
      "plasticos": 8642,
      "maioria": 8643,
      "lacrados": 8644,
      "console": 8645,
      "elevacao": 8646,
      "eu": 8647,
      "##teli": 8648,
      "garrafoes": 8649,
      "comeca": 8650,
      "pronta": 8651,
      "deixando": 8652,
      "aluno": 8653,
      "conectividade": 8654,
      "cancelar": 8655,
      "desembolso": 8656,
      "##teza": 8657,
      "provimento": 8658,
      "##izadores": 8659,
      "abrir": 8660,
      "reservatorio": 8661,
      "##imes": 8662,
      "tantas": 8663,
      "##fin": 8664,
      "nuvem": 8665,
      "dirigentes": 8666,
      "##dis": 8667,
      "dispo": 8668,
      "fia": 8669,
      "salc": 8670,
      "ptres": 8671,
      "tst": 8672,
      "produzido": 8673,
      "resumida": 8674,
[...]
