{
  "version": "1.0",
  "truncation": null,
  "padding": null,
  "added_tokens": [
    {
      "id": 0,
      "content": "[PAD]",
      "single_word": false,
      "lstrip": false,
      "rstrip": false,
      "normalized": false,
      "special": true
    },
    {
      "id": 1,
      "content": "[UNK]",
      "single_word": false,
      "lstrip": false,
      "rstrip": false,
      "normalized": false,
      "special": true
    },
    {
      "id": 2,
      "content": "[CLS]",
      "single_word": false,
      "lstrip": false,
      "rstrip": false,
      "normalized": false,
      "special": true
    },
    {
      "id": 3,
      "content": "[SEP]",
      "single_word": false,
      "lstrip": false,
      "rstrip": false,
      "normalized": false,
      "special": true
    },
    {
      "id": 4,
      "content": "[MASK]",
      "single_word": false,
      "lstrip": false,
      "rstrip": false,
      "normalized": false,
      "special": true
    }
  ],
  "normalizer": {
    "type": "BertNormalizer",
    "clean_text": true,
    "handle_chinese_chars": true,
    "strip_accents": null,
    "lowercase": true
  },
  "pre_tokenizer": {
    "type": "BertPreTokenizer"
  },
  "post_processor": {
    "type": "TemplateProcessing",
    "single": [
      {
        "SpecialToken": {
          "id": "[CLS]",
          "type_id": 0
        }
      },
      {
        "Sequence": {
          "id": "A",
          "type_id": 0
        }
      },
      {
        "SpecialToken": {
          "id": "[SEP]",
          "type_id": 0
        }
      }
    ],
    "pair": [
      {
        "SpecialToken": {
          "id": "[CLS]",
          "type_id": 0
        }
      },
      {
        "Sequence": {
          "id": "A",
          "type_id": 0
        }
      },
      {
        "SpecialToken": {
          "id": "[SEP]",
          "type_id": 0
        }
      },
      {
        "Sequence": {
          "id": "B",
          "type_id": 1
        }
      },
      {
        "SpecialToken": {
          "id": "[SEP]",
          "type_id": 1
        }
      }
    ],
    "special_tokens": {
      "[CLS]": {
        "id": "[CLS]",
        "ids": [
          2
        ],
        "tokens": [
          "[CLS]"
        ]
      },
      "[SEP]": {
        "id": "[SEP]",
        "ids": [
          3
        ],
        "tokens": [
          "[SEP]"
        ]
      }
    }
  },
  "decoder": {
    "type": "WordPiece",
    "prefix": "##",
    "cleanup": true
  },
  "model": {
    "type": "WordPiece",
    "unk_token": "[UNK]",
    "continuing_subword_prefix": "##",
    "max_input_chars_per_word": 100,
    "vocab": {
      "[PAD]": 0,
      "[UNK]": 1,
      "[CLS]": 2,
      "[SEP]": 3,
      "[MASK]": 4,
      "!": 5,
      "\"": 6,
      "#": 7,
      "$": 8,
      "%": 9,
      "&": 10,
      "'": 11,
      "(": 12,
      ")": 13,
      "*": 14,
      "+": 15,
      ",": 16,
      "-": 17,
      ".": 18,
      "/": 19,
      "0": 20,
      "1": 21,
      "2": 22,
      "3": 23,
      "4": 24,
      "5": 25,
      "6": 26,
      "7": 27,
      "8": 28,
      "9": 29,
      ":": 30,
      ";": 31,
      "<": 32,
      "=": 33,
      ">": 34,
      "?": 35,
      "@": 36,
      "[": 37,
      "\\": 38,
      "]": 39,
      "^": 40,
      "_": 41,
      "`": 42,
      "a": 43,
      "b": 44,
      "c": 45,
      "d": 46,
      "e": 47,
      "f": 48,
      "g": 49,
      "h": 50,
      "i": 51,
      "j": 52,
      "k": 53,
      "l": 54,
      "m": 55,
      "n": 56,
      "o": 57,
      "p": 58,
      "q": 59,
      "r": 60,
      "s": 61,
      "t": 62,
      "u": 63,
      "v": 64,
      "w": 65,
      "x": 66,
      "y": 67,
      "z": 68,
      "{": 69,
      "|": 70,
      "}": 71,
      "~": 72,
      "¡": 73,
      "¢": 74,
      "£": 75,
      "¥": 76,
      "§": 77,
      "¨": 78,
      "©": 79,
      "ª": 80,
      "«": 81,
      "¬": 82,
      "®": 83,
      "°": 84,
      "±": 85,
      "²": 86,
      "³": 87,
      "´": 88,
      "¶": 89,
      "·": 90,
      "¸": 91,
      "¹": 92,
      "º": 93,
      "»": 94,
      "¼": 95,
      "½": 96,
      "¾": 97,
      "¿": 98,
      "×": 99,
      "ß": 100,
      "à": 101,
      "á": 102,
      "â": 103,
      "ã": 104,
      "ä": 105,
      "å": 106,
      "æ": 107,
      "ç": 108,
      "è": 109,
      "é": 110,
      "ê": 111,
      "ë": 112,
      "ì": 113,
      "í": 114,
      "î": 115,
      "ï": 116,
      "ñ": 117,
      "ò": 118,
      "ó": 119,
      "ô": 120,
      "õ": 121,
      "ö": 122,
      "÷": 123,
      "ø": 124,
      "ù": 125,
      "ú": 126,
      "û": 127,
      "ü": 128,
      "ý": 129,
      "č": 130,
      "ė": 131,
      "ĭ": 132,
      "ı": 133,
      "œ": 134,
      "ũ": 135,
      "ž": 136,
      "ƒ": 137,
      "ʃ": 138,
      "ˆ": 139,
      "˚": 140,
      "̀": 141,
      "́": 142,
      "̂": 143,
      "̃": 144,
      "̄": 145,
      "̈": 146,
      "̊": 147,
      "̌": 148,
      "̓": 149,
      "̔": 150,
      "̧": 151,
      "̳": 152,
      "̶": 153,
      "̸": 154,
      "͂": 155,
      "͑": 156,
      ";": 157,
      "ά": 158,
      "ή": 159,
      "ί": 160,
      "α": 161,
      "β": 162,
      "γ": 163,
      "δ": 164,
      "ε": 165,
      "η": 166,
      "θ": 167,
      "ι": 168,
      "κ": 169,
      "λ": 170,
      "μ": 171,
      "ν": 172,
      "ξ": 173,
      "ο": 174,
      "π": 175,
      "ρ": 176,
      "ς": 177,
      "σ": 178,
      "τ": 179,
      "υ": 180,
      "φ": 181,
      "χ": 182,
      "ω": 183,
      "ό": 184,
      "ϭ": 185,
      "а": 186,
      "б": 187,
      "в": 188,
      "г": 189,
      "д": 190,
      "е": 191,
      "з": 192,
      "и": 193,
      "й": 194,
      "к": 195,
      "л": 196,
      "м": 197,
      "н": 198,
      "о": 199,
      "п": 200,
      "р": 201,
      "с": 202,
      "т": 203,
      "у": 204,
      "х": 205,
      "ч": 206,
      "ш": 207,
      "щ": 208,
      "ъ": 209,
      "ы": 210,
      "э": 211,
      "ю": 212,
      "я": 213,
      "ѓ": 214,
      "є": 215,
      "ѕ": 216,
      "і": 217,
      "њ": 218,
      "د": 219,
      "ᵒ": 220,
      "ẽ": 221,
      "ἀ": 222,
      "‐": 223,
      "‑": 224,
      "‒": 225,
      "–": 226,
      "—": 227,
      "―": 228,
      "‖": 229,
      "‘": 230,
      "’": 231,
      "‚": 232,
      "“": 233,
      "”": 234,
      "„": 235,
      "‟": 236,
      "†": 237,
      "•": 238,
      "…": 239,
      "‧": 240,
      "‰": 241,
      "‹": 242,
      "›": 243,
      "⁄": 244,
      "€": 245,
      "™": 246,
      "↑": 247,
      "→": 248,
      "⇒": 249,
      "∆": 250,
      "∏": 251,
      "∑": 252,
      "−": 253,
      "∗": 254,
      "√": 255,
      "∞": 256,
      "∩": 257,
      "∫": 258,
      "≈": 259,
      "≡": 260,
      "≤": 261,
      "≥": 262,
      "⊃": 263,
      "⋯": 264,
      "─": 265,
      "■": 266,
      "□": 267,
      "▪": 268,
      "◆": 269,
      "◇": 270,
      "◊": 271,
      "●": 272,
      "◦": 273,
      "✓": 274,
      "➥": 275,
      "⩽": 276,
      "兩": 277,
      "ﬁ": 278,
      "ﬂ": 279,
      "﬚": 280,
      "##e": 281,
      "##q": 282,
      "##u": 283,
      "##r": 284,
      "##o": 285,
      "##p": 286,
      "##f": 287,
      "##i": 288,
      "##s": 289,
      "##n": 290,
      "##a": 291,
      "##l": 292,
      "##d": 293,
      "##m": 294,
      "##t": 295,
      "##z": 296,
      "##g": 297,
      "##5": 298,
      "##º": 299,
      "##1": 300,
      "##4": 301,
      "##3": 302,
      "##ç": 303,
      "##õ": 304,
      "##ã": 305,
      "##c": 306,
      "##b": 307,
      "##h": 308,
      "##0": 309,
      "##2": 310,
      "##́": 311,
      "##̂": 312,
      "##v": 313,
      "##é": 314,
      "##á": 315,
      "##6": 316,
      "##8": 317,
      "##9": 318,
      "##7": 319,
      "##ü": 320,
      "##°": 321,
      "##w": 322,
      "##j": 323,
      "##λ": 324,
      "##ι": 325,
      "##α": 326,
      "##ó": 327,
      "##x": 328,
      "##í": 329,
      "##y": 330,
      "##̃": 331,
      "##̧": 332,
      "##̀": 333,
      "##â": 334,
      "##k": 335,
      "##ê": 336,
      "##ú": 337,
      "##à": 338,
      "##ô": 339,
      "##ò": 340,
      "##²": 341,
      "##̈": 342,
      "##⁄": 343,
      "##ä": 344,
      "##ª": 345,
      "##´": 346,
      "##ε": 347,
      "##ρ": 348,
      "##њ": 349,
      "##ﬁ": 350,
      "##σ": 351,
      "##ν": 352,
      "##г": 353,
      "##ñ": 354,
      "##θ": 355,
      "##−": 356,
      "##ı": 357,
      "##è": 358,
      "##ý": 359,
      "##³": 360,
      "##±": 361,
      "##ì": 362,
      "##ö": 363,
      "##¸": 364,
      "##¬": 365,
      "##®": 366,
      "##◦": 367,
      "##н": 368,
      "##υ": 369,
      "##μ": 370,
      "##β": 371,
      "##ο": 372,
      "##æ": 373,
      "##η": 374,
      "##͂": 375,
      "##ς": 376,
      "##∆": 377,
      "##с": 378,
      "##ᵒ": 379,
      "##̔": 380,
      "##х": 381,
      "##̓": 382,
      "##π": 383,
      "##κ": 384,
      "##б": 385,
      "##щ": 386,
      "##а": 387,
      "##я": 388,
      "##ъ": 389,
      "##ù": 390,
      "##ž": 391,
      "##ω": 392,
      "##з": 393,
      "##р": 394,
      "##о": 395,
      "##и": 396,
      "##л": 397,
      "##в": 398,
      "##ч": 399,
      "##¨": 400,
      "##̸": 401,
      "##τ": 402,
      "##ˆ": 403,
      "##ß": 404,
      "##≥": 405,
      "##⋯": 406,
      "##×": 407,
      "##γ": 408,
      "##™": 409,
      "##ï": 410,
      "##д": 411,
      "##е": 412,
      "##к": 413,
      "##∞": 414,
      "##ø": 415,
      "##у": 416,
      "##▪": 417,
      "##χ": 418,
      "##ẽ": 419,
      "##ﬂ": 420,
      "##─": 421,
      "##≤": 422,
      "##э": 423,
      "##˚": 424,
      "##ξ": 425,
      "##ά": 426,
      "##œ": 427,
      "##ѕ": 428,
      "##î": 429,
      "##п": 430,
      "##ы": 431,
      "##т": 432,
      "##č": 433,
      "##ί": 434,
      "##¹": 435,
      "##◊": 436,
      "##ũ": 437,
      "##∑": 438,
      "##¢": 439,
      "##⩽": 440,
      "##ш": 441,
      "##δ": 442,
      "##̌": 443,
      "##ѓ": 444,
      "##̄": 445,
      "##ë": 446,
      "##û": 447,
      "##є": 448,
      "##й": 449,
      "##φ": 450,
      "##̊": 451,
      "##ĭ": 452,
      "##ό": 453,
      "##﬚": 454,
      "##м": 455,
      "##ϭ": 456,
      "de": 457,
      "##nt": 458,
      "##ra": 459,
      "##os": 460,
      "##es": 461,
      "##ri": 462,
      "##ão": 463,
      "##ad": 464,
      "co": 465,
      "##ent": 466,
      "##ci": 467,
      "##er": 468,
      "##as": 469,
      "##st": 470,
      "##or": 471,
      "##al": 472,
      "re": 473,
      "do": 474,
      "##ção": 475,
      "##ro": 476,
      "##ic": 477,
      "##ar": 478,
      "##id": 479,
      "##ment": 480,
      "da": 481,
      "##en": 482,
      "##is": 483,
      "##re": 484,
      "qu": 485,
      "##it": 486,
      "##in": 487,
      "se": 488,
      "##ti": 489,
      "con": 490,
      "##el": 491,
      "com": 492,
      "##on": 493,
      "in": 494,
      "em": 495,
      "##ação": 496,
      "que": 497,
      "##do": 498,
      "##to": 499,
      "##an": 500,
      "##ist": 501,
      "pro": 502,
      "no": 503,
      "##mento": 504,
      "##em": 505,
      "##cia": 506,
      "##ara": 507,
      "##ta": 508,
      "ar": 509,
      "##ul": 510,
      "##ado": 511,
      "##ed": 512,
      "##ess": 513,
      "ex": 514,
      "##un": 515,
      "##era": 516,
      "##ei": 517,
      "na": 518,
      "##ade": 519,
      "ou": 520,
      "est": 521,
      "##ma": 522,
      "su": 523,
      "##tiv": 524,
      "##ica": 525,
      "##̃o": 526,
      "as": 527,
      "##ncia": 528,
      "##cu": 529,
      "para": 530,
      "##qu": 531,
      "##rio": 532,
      "##ria": 533,
      "##ol": 534,
      "art": 535,
      "os": 536,
      "##di": 537,
      "di": 538,
      "##ão": 539,
      "ju": 540,
      "##il": 541,
      "##ões": 542,
      "ser": 543,
      "##res": 544,
      "##cion": 545,
      "##da": 546,
      "##idade": 547,
      "por": 548,
      "##nte": 549,
      "##ada": 550,
      "##pe": 551,
      "##ç": 552,
      "##ados": 553,
      "##te": 554,
      "##gra": 555,
      "ao": 556,
      "pel": 557,
      "ap": 558,
      "##mp": 559,
      "dos": 560,
      "##ência": 561,
      "##inist": 562,
      "##so": 563,
      "##ente": 564,
      "##ções": 565,
      "##la": 566,
      "##ais": 567,
      "##iz": 568,
      "##le": 569,
      "20": 570,
      "##itu": 571,
      "cont": 572,
      "##ia": 573,
      "não": 574,
      "des": 575,
      "##ito": 576,
      "so": 577,
      "##cess": 578,
      "par": 579,
      "##de": 580,
      "pre": 581,
      "##bl": 582,
      "##gu": 583,
      "##mente": 584,
      "##ut": 585,
      "##go": 586,
      "##im": 587,
      "##us": 588,
      "reg": 589,
      "es": 590,
      "tra": 591,
      "##ção": 592,
      "das": 593,
      "##rib": 594,
      "##stitu": 595,
      "##ab": 596,
      "po": 597,
      "##iv": 598,
      "##cional": 599,
      "##am": 600,
      "##ico": 601,
      "minist": 602,
      "res": 603,
      "at": 604,
      "##vi": 605,
      "##ho": 606,
      "##amento": 607,
      "##eral": 608,
      "##vid": 609,
      "ma": 610,
      "int": 611,
      "##vo": 612,
      "ac": 613,
      "##mo": 614,
      "##pos": 615,
      "##cial": 616,
      "pres": 617,
      "cons": 618,
      "##ras": 619,
      "##são": 620,
      "##adas": 621,
      "##fe": 622,
      "##ver": 623,
      "lei": 624,
      "##cur": 625,
      "dis": 626,
      "##ando": 627,
      "rela": 628,
      "19": 629,
      "##úbl": 630,
      "##ário": 631,
      "##io": 632,
      "an": 633,
      "ent": 634,
      "imp": 635,
      "dire": 636,
      "recur": 637,
      "##ros": 638,
      "##ir": 639,
      "for": 640,
      "pelo": 641,
      "ad": 642,
      "inter": 643,
      "fed": 644,
      "agra": 645,
      "##co": 646,
      "##at": 647,
      "##eg": 648,
      "ca": 649,
      "##ig": 650,
      "##ce": 651,
      "trib": 652,
      "ob": 653,
      "al": 654,
      "##dos": 655,
      "##entes": 656,
      "##for": 657,
      "##ça": 658,
      "##ores": 659,
      "##fic": 660,
      "sob": 661,
      "##der": 662,
      "ter": 663,
      "##ição": 664,
      "rep": 665,
      "au": 666,
      "##tra": 667,
      "##ura": 668,
      "como": 669,
      "##ant": 670,
      "##cl": 671,
      "##ido": 672,
      "dest": 673,
      "pri": 674,
      "nos": 675,
      "201": 676,
      "or": 677,
      "en": 678,
      "process": 679,
      "regi": 680,
      "##ve": 681,
      "##du": 682,
      "##cre": 683,
      "per": 684,
      "federal": 685,
      "fun": 686,
      "pa": 687,
      "##ades": 688,
      "##mentos": 689,
      "to": 690,
      "tribun": 691,
      "##je": 692,
      "ass": 693,
      "##tivo": 694,
      "##ida": 695,
      "segu": 696,
      "nº": 697,
      "##vel": 698,
      "##tiva": 699,
      "##ora": 700,
      "##me": 701,
      "cor": 702,
      "##he": 703,
      "##cor": 704,
      "##pre": 705,
      "just": 706,
      "agravo": 707,
      "constitu": 708,
      "##con": 709,
      "##ens": 710,
      "##rios": 711,
      "##ual": 712,
      "##ru": 713,
      "ii": 714,
      "un": 715,
      "um": 716,
      "pela": 717,
      "cas": 718,
      "10": 719,
      "cu": 720,
      "##ord": 721,
      "tribunal": 722,
      "##enh": 723,
      "poder": 724,
      "##fer": 725,
      "car": 726,
      "##ced": 727,
      "uma": 728,
      "ministro": 729,
      "##ública": 730,
      "arti": 731,
      "##iç": 732,
      "##idades": 733,
      "fa": 734,
      "contra": 735,
      "mo": 736,
      "##endo": 737,
      "deci": 738,
      "##ele": 739,
      "##tos": 740,
      "vi": 741,
      "recurso": 742,
      "comp": 743,
      "##ici": 744,
      "out": 745,
      "##va": 746,
      "med": 747,
      "##itos": 748,
      "qual": 749,
      "##emb": 750,
      "adm": 751,
      "jul": 752,
      "##ca": 753,
      "pen": 754,
      "##min": 755,
      "##ib": 756,
      "##eiro": 757,
      "artigo": 758,
      "espe": 759,
      "fin": 760,
      "##í": 761,
      "sobre": 762,
      "##esso": 763,
      "cri": 764,
      "200": 765,
      "pos": 766,
      "##aliz": 767,
      "gra": 768,
      "aos": 769,
      "##ecu": 770,
      "leg": 771,
      "##gos": 772,
      "ne": 773,
      "sub": 774,
      "##sa": 775,
      "prev": 776,
      "##vimento": 777,
      "nacional": 778,
      "##cio": 779,
      "##est": 780,
      "##end": 781,
      "##ilidade": 782,
      "##no": 783,
      "##rior": 784,
      "##dade": 785,
      "##zo": 786,
      "bras": 787,
      "##rias": 788,
      "##ter": 789,
      "##̃es": 790,
      "##ex": 791,
      "execu": 792,
      "##mos": 793,
      "##nci": 794,
      "00": 795,
      "##sos": 796,
      "##inistra": 797,
      "##mental": 798,
      "##ula": 799,
      "sua": 800,
      "##se": 801,
      "relat": 802,
      "extra": 803,
      "##ga": 804,
      "##eira": 805,
      "inci": 806,
      "val": 807,
      "dispos": 808,
      "administra": 809,
      "##icas": 810,
      "apl": 811,
      "##por": 812,
      "##ária": 813,
      "estado": 814,
      "tem": 815,
      "1º": 816,
      "def": 817,
      "11": 818,
      "auto": 819,
      "cap": 820,
      "ab": 821,
      "##pon": 822,
      "##po": 823,
      "##feri": 824,
      "pr": 825,
      "##cí": 826,
      "##ns": 827,
      "##das": 828,
      "vo": 829,
      "##bal": 830,
      "##ribu": 831,
      "fo": 832,
      "##ntes": 833,
      "pra": 834,
      "##idos": 835,
      "##ju": 836,
      "direito": 837,
      "judi": 838,
      "julg": 839,
      "##ço": 840,
      "presid": 841,
      "##na": 842,
      "##mb": 843,
      "##ec": 844,
      "regimental": 845,
      "pesso": 846,
      "##embro": 847,
      "##quer": 848,
      "##mas": 849,
      "##ran": 850,
      "entre": 851,
      "##ório": 852,
      "##ou": 853,
      "##ordin": 854,
      "trabal": 855,
      "##ix": 856,
      "##cul": 857,
      "públ": 858,
      "república": 859,
      "pl": 860,
      "##nto": 861,
      "##ério": 862,
      "##riz": 863,
      "##erv": 864,
      "##tu": 865,
      "##rig": 866,
      "##resent": 867,
      "##vol": 868,
      "processo": 869,
      "199": 870,
      "inst": 871,
      "efe": 872,
      "##tação": 873,
      "decisão": 874,
      "##tes": 875,
      "decre": 876,
      "##á": 877,
      "##rg": 878,
      "##ncias": 879,
      "extraordin": 880,
      "##tivos": 881,
      "caso": 882,
      "##pera": 883,
      "man": 884,
      "pu": 885,
      "##tica": 886,
      "12": 887,
      "brasil": 888,
      "servi": 889,
      "mes": 890,
      "##cimento": 891,
      "acor": 892,
      "ag": 893,
      "##ação": 894,
      "##tas": 895,
      "##man": 896,
      "##ões": 897,
      "##utos": 898,
      "ind": 899,
      "senh": 900,
      "estab": 901,
      "trans": 902,
      "##pl": 903,
      "forma": 904,
      "trata": 905,
      "of": 906,
      "ele": 907,
      "##ja": 908,
      "##ista": 909,
      "senhor": 910,
      "##icos": 911,
      "compe": 912,
      "mar": 913,
      "será": 914,
      "ord": 915,
      "estabele": 916,
      "##ré": 917,
      "##nico": 918,
      "##iça": 919,
      "##idas": 920,
      "decreto": 921,
      "##icação": 922,
      "ministério": 923,
      "justiça": 924,
      "necess": 925,
      "##corr": 926,
      "##ha": 927,
      "institu": 928,
      "até": 929,
      "geral": 930,
      "##clus": 931,
      "extraordinário": 932,
      "##fica": 933,
      "respe": 934,
      "me": 935,
      "nor": 936,
      "segui": 937,
      "##quis": 938,
      "quando": 939,
      "2º": 940,
      "##ita": 941,
      "ante": 942,
      "##̂ncia": 943,
      "ve": 944,
      "nas": 945,
      "##idera": 946,
      "##graf": 947,
      "##ciais": 948,
      "dist": 949,
      "##ários": 950,
      "##veis": 951,
      "parti": 952,
      "##form": 953,
      "sem": 954,
      "##rá": 955,
      "deste": 956,
      "pol": 957,
      "##vis": 958,
      "mais": 959,
      "lo": 960,
      "parte": 961,
      "##istem": 962,
      "termos": 963,
      "ativ": 964,
      "justi": 965,
      "ra": 966,
      "supre": 967,
      "desta": 968,
      "pará": 969,
      "##lação": 970,
      "##que": 971,
      "hab": 972,
      "##tivas": 973,
      "##anto": 974,
      "parágraf": 975,
      "funda": 976,
      "##cri": 977,
      "considera": 978,
      "##ase": 979,
      "##́rio": 980,
      "##ião": 981,
      "recursos": 982,
      "##ções": 983,
      "##ições": 984,
      "constituição": 985,
      "##ância": 986,
      "const": 987,
      "voto": 988,
      "##cionais": 989,
      "##ização": 990,
      "trabalho": 991,
      "sistem": 992,
      "##forma": 993,
      "##tura": 994,
      "inf": 995,
      "##elho": 996,
      "órg": 997,
      "juri": 998,
      "seu": 999,
      "realiz": 1000,
      "desp": 1001,
      "##ante": 1002,
      "##tar": 1003,
      "poss": 1004,
      "especial": 1005,
      "parágrafo": 1006,
      "##rí": 1007,
      "le": 1008,
      "13": 1009,
      "im": 1010,
      "pe": 1011,
      "sent": 1012,
      "##rov": 1013,
      "##té": 1014,
      "supremo": 1015,
      "provimento": 1016,
      "iii": 1017,
      "15": 1018,
      "##ion": 1019,
      "##iss": 1020,
      "foi": 1021,
      "disposto": 1022,
      "à": 1023,
      "exer": 1024,
      "##ur": 1025,
      "este": 1026,
      "##ne": 1027,
      "##anc": 1028,
      "##ços": 1029,
      "supe": 1030,
      "##itar": 1031,
      "emp": 1032,
      "não": 1033,
      "obs": 1034,
      "legis": 1035,
      "é": 1036,
      "inte": 1037,
      "às": 1038,
      "lu": 1039,
      "valor": 1040,
      "##ip": 1041,
      "##úm": 1042,
      "##ória": 1043,
      "##leg": 1044,
      "##enção": 1045,
      "rece": 1046,
      "##lement": 1047,
      "##lo": 1048,
      "refer": 1049,
      "prim": 1050,
      "qualquer": 1051,
      "##tal": 1052,
      "##til": 1053,
      "lim": 1054,
      "##issão": 1055,
      "desen": 1056,
      "##col": 1057,
      "obje": 1058,
      "prazo": 1059,
      "##ém": 1060,
      "acordo": 1061,
      "público": 1062,
      "##antes": 1063,
      "##isc": 1064,
      "compet": 1065,
      "união": 1066,
      "##ís": 1067,
      "##imento": 1068,
      "go": 1069,
      "emb": 1070,
      "plan": 1071,
      "presidente": 1072,
      "inciso": 1073,
      "##ber": 1074,
      "conf": 1075,
      "secre": 1076,
      "social": 1077,
      "desenvol": 1078,
      "penal": 1079,
      "14": 1080,
      "##eio": 1081,
      "conhe": 1082,
      "##um": 1083,
      "dever": 1084,
      "##ular": 1085,
      "##ios": 1086,
      "publ": 1087,
      "##ível": 1088,
      "vig": 1089,
      "produ": 1090,
      "##rito": 1091,
      "serão": 1092,
      "##iva": 1093,
      "##ass": 1094,
      "16": 1095,
      "dias": 1096,
      "18": 1097,
      "conselho": 1098,
      "##enda": 1099,
      "##ific": 1100,
      "##amb": 1101,
      "mun": 1102,
      "servid": 1103,
      "##ará": 1104,
      "previst": 1105,
      "##ene": 1106,
      "##menta": 1107,
      "julgamento": 1108,
      "dez": 1109,
      "##cer": 1110,
      "tr": 1111,
      "decl": 1112,
      "civ": 1113,
      "##taria": 1114,
      "único": 1115,
      "##olu": 1116,
      "##esa": 1117,
      "ins": 1118,
      "progra": 1119,
      "seg": 1120,
      "##ríd": 1121,
      "17": 1122,
      "respec": 1123,
      "ordem": 1124,
      "seus": 1125,
      "cl": 1126,
      "min": 1127,
      "##val": 1128,
      "000": 1129,
      "esta": 1130,
      "te": 1131,
      "bem": 1132,
      "declara": 1133,
      "integra": 1134,
      "fica": 1135,
      "mil": 1136,
      "juríd": 1137,
      "inde": 1138,
      "juris": 1139,
      "medida": 1140,
      "##ibilidade": 1141,
      "##esta": 1142,
      "##́m": 1143,
      "##ela": 1144,
      "orig": 1145,
      "##ign": 1146,
      "respon": 1147,
      "presente": 1148,
      "27": 1149,
      "##vido": 1150,
      "base": 1151,
      "justiça": 1152,
      "##ulo": 1153,
      "faz": 1154,
      "##ador": 1155,
      "impos": 1156,
      "autos": 1157,
      "fisc": 1158,
      "ta": 1159,
      "##rar": 1160,
      "fe": 1161,
      "##mpri": 1162,
      "autoriz": 1163,
      "proced": 1164,
      "sa": 1165,
      "neg": 1166,
      "empres": 1167,
      "##enci": 1168,
      "caput": 1169,
      "observ": 1170,
      "nov": 1171,
      "superior": 1172,
      "##gan": 1173,
      "tur": 1174,
      "3º": 1175,
      "##ável": 1176,
      "##tado": 1177,
      "##ít": 1178,
      "21": 1179,
      "##termin": 1180,
      "##eas": 1181,
      "##ências": 1182,
      "af": 1183,
      "men": 1184,
      "opera": 1185,
      "relator": 1186,
      "serviços": 1187,
      "civil": 1188,
      "corp": 1189,
      "##este": 1190,
      "habeas": 1191,
      "##alidade": 1192,
      "ped": 1193,
      "informa": 1194,
      "##rado": 1195,
      "##ress": 1196,
      "##fici": 1197,
      "atividades": 1198,
      "dep": 1199,
      "são": 1200,
      "pública": 1201,
      "sistema": 1202,
      "##esti": 1203,
      "28": 1204,
      "iv": 1205,
      "constitucional": 1206,
      "apresent": 1207,
      "##istência": 1208,
      "##ridade": 1209,
      "cent": 1210,
      "##esse": 1211,
      "##ência": 1212,
      "exp": 1213,
      "##ál": 1214,
      "cada": 1215,
      "estabeleci": 1216,
      "##árias": 1217,
      "##ór": 1218,
      "is": 1219,
      "determin": 1220,
      "meio": 1221,
      "30": 1222,
      "ver": 1223,
      "ementa": 1224,
      "util": 1225,
      "sup": 1226,
      "##clu": 1227,
      "econ": 1228,
      "tamb": 1229,
      "dezembro": 1230,
      "proje": 1231,
      "form": 1232,
      "##cip": 1233,
      "1o": 1234,
      "##dência": 1235,
      "poderá": 1236,
      "infra": 1237,
      "##íl": 1238,
      "##om": 1239,
      "##estão": 1240,
      "##cus": 1241,
      "data": 1242,
      "##óp": 1243,
      "sal": 1244,
      "segun": 1245,
      "financ": 1246,
      "bene": 1247,
      "seja": 1248,
      "instru": 1249,
      "ado": 1250,
      "condi": 1251,
      "##endi": 1252,
      "31": 1253,
      "corpus": 1254,
      "st": 1255,
      "suas": 1256,
      "##ag": 1257,
      "##réd": 1258,
      "organ": 1259,
      "raz": 1260,
      "##orden": 1261,
      "##ós": 1262,
      "##gia": 1263,
      "ain": 1264,
      "##ódi": 1265,
      "##ero": 1266,
      "##vent": 1267,
      "embar": 1268,
      "assim": 1269,
      "##ãos": 1270,
      "cumpri": 1271,
      "créd": 1272,
      "##eiros": 1273,
      "pes": 1274,
      "ato": 1275,
      "coorden": 1276,
      "promo": 1277,
      "ainda": 1278,
      "turma": 1279,
      "conv": 1280,
      "gover": 1281,
      "desenvolvimento": 1282,
      "##icial": 1283,
      "##iar": 1284,
      "##ér": 1285,
      "processos": 1286,
      "##nta": 1287,
      "##za": 1288,
      "represent": 1289,
      "impor": 1290,
      "##constitu": 1291,
      "##tific": 1292,
      "##dão": 1293,
      "pag": 1294,
      "súm": 1295,
      "##edade": 1296,
      "24": 1297,
      "execução": 1298,
      "contro": 1299,
      "viol": 1300,
      "aus": 1301,
      "##eração": 1302,
      "##icar": 1303,
      "judicia": 1304,
      "del": 1305,
      "mul": 1306,
      "##anh": 1307,
      "##inar": 1308,
      "mas": 1309,
      "##rança": 1310,
      "##vida": 1311,
      "media": 1312,
      "##enho": 1313,
      "administração": 1314,
      "outras": 1315,
      "ro": 1316,
      "##ício": 1317,
      "loc": 1318,
      "defin": 1319,
      "##ej": 1320,
      "acór": 1321,
      "##forme": 1322,
      "secretaria": 1323,
      "pena": 1324,
      "aplicação": 1325,
      "##ivo": 1326,
      "##posto": 1327,
      "inv": 1328,
      "##pio": 1329,
      "pode": 1330,
      "##cent": 1331,
      "mer": 1332,
      "22": 1333,
      "##ime": 1334,
      "indi": 1335,
      "aco": 1336,
      "casos": 1337,
      "acórdão": 1338,
      "regist": 1339,
      "outros": 1340,
      "situ": 1341,
      "fix": 1342,
      "referi": 1343,
      "contribu": 1344,
      "respons": 1345,
      "##ame": 1346,
      "4º": 1347,
      "maté": 1348,
      "legislação": 1349,
      "provis": 1350,
      "25": 1351,
      "comun": 1352,
      "apo": 1353,
      "cab": 1354,
      "preced": 1355,
      "id": 1356,
      "##rut": 1357,
      "##enta": 1358,
      "ação": 1359,
      "partes": 1360,
      "equ": 1361,
      "cargos": 1362,
      "conforme": 1363,
      "198": 1364,
      "##pa": 1365,
      "##tor": 1366,
      "relatório": 1367,
      "anos": 1368,
      "##ina": 1369,
      "##00": 1370,
      "aqu": 1371,
      "direitos": 1372,
      "el": 1373,
      "23": 1374,
      "recon": 1375,
      "empre": 1376,
      "##ise": 1377,
      "anex": 1378,
      "##uais": 1379,
      "inclus": 1380,
      "mediante": 1381,
      "órgãos": 1382,
      "cn": 1383,
      "mesmo": 1384,
      "##ral": 1385,
      "pelos": 1386,
      "interna": 1387,
      "militar": 1388,
      "##adores": 1389,
      "##ízo": 1390,
      "##mit": 1391,
      "##rial": 1392,
      "códi": 1393,
      "diver": 1394,
      "##ii": 1395,
      "limit": 1396,
      "cer": 1397,
      "##ín": 1398,
      "exercí": 1399,
      "áre": 1400,
      "atribu": 1401,
      "##nde": 1402,
      "marco": 1403,
      "##fico": 1404,
      "partir": 1405,
      "total": 1406,
      "ha": 1407,
      "gara": 1408,
      "juiz": 1409,
      "##ten": 1410,
      "defesa": 1411,
      "mag": 1412,
      "ela": 1413,
      "##lementar": 1414,
      "##erais": 1415,
      "##tados": 1416,
      "cond": 1417,
      "origem": 1418,
      "##mon": 1419,
      "##aneiro": 1420,
      "##olo": 1421,
      "##ndo": 1422,
      "##endimento": 1423,
      "tj": 1424,
      "código": 1425,
      "##rit": 1426,
      "estados": 1427,
      "##constitucional": 1428,
      "##cação": 1429,
      "todos": 1430,
      "maio": 1431,
      "súmula": 1432,
      "alt": 1433,
      "corte": 1434,
      "la": 1435,
      "estad": 1436,
      "relato": 1437,
      "concess": 1438,
      "##cont": 1439,
      "26": 1440,
      "grau": 1441,
      "amb": 1442,
      "##imo": 1443,
      "deve": 1444,
      "fal": 1445,
      "quanto": 1446,
      "seguintes": 1447,
      "##ital": 1448,
      "garant": 1449,
      "##cado": 1450,
      "particip": 1451,
      "##cios": 1452,
      "fora": 1453,
      "##car": 1454,
      "pesquis": 1455,
      "matéria": 1456,
      "##ias": 1457,
      "##enas": 1458,
      "##ília": 1459,
      "serviço": 1460,
      "pessoas": 1461,
      "docu": 1462,
      "aval": 1463,
      "dev": 1464,
      "ano": 1465,
      "##ença": 1466,
      "exercício": 1467,
      "##icado": 1468,
      "##éc": 1469,
      "##mbito": 1470,
      "##abilidade": 1471,
      "sentido": 1472,
      "##mais": 1473,
      "##ncí": 1474,
      "servidores": 1475,
      "##cesso": 1476,
      "##rutura": 1477,
      "próp": 1478,
      "5º": 1479,
      "anterior": 1480,
      "prof": 1481,
      "##tro": 1482,
      "princí": 1483,
      "##mar": 1484,
      "resul": 1485,
      "##formidade": 1486,
      "##indo": 1487,
      "##ição": 1488,
      "##tamente": 1489,
      "stf": 1490,
      "região": 1491,
      "neste": 1492,
      "téc": 1493,
      "sendo": 1494,
      "segurança": 1495,
      "##ações": 1496,
      "##vada": 1497,
      "##ática": 1498,
      "destin": 1499,
      "2o": 1500,
      "mé": 1501,
      "##dio": 1502,
      "aut": 1503,
      "vist": 1504,
      "primeira": 1505,
      "29": 1506,
      "pagamento": 1507,
      "##ive": 1508,
      "regime": 1509,
      "normas": 1510,
      "uso": 1511,
      "ba": 1512,
      "##odo": 1513,
      "##tri": 1514,
      "crédito": 1515,
      "conformidade": 1516,
      "tenh": 1517,
      "##mun": 1518,
      "##ficas": 1519,
      "janeiro": 1520,
      "acomp": 1521,
      "##pios": 1522,
      "decorr": 1523,
      "pessoa": 1524,
      "quad": 1525,
      "ações": 1526,
      "##lio": 1527,
      "edu": 1528,
      "reconhe": 1529,
      "##iver": 1530,
      "provisória": 1531,
      "##ba": 1532,
      "cust": 1533,
      "ausência": 1534,
      "##ecer": 1535,
      "##ensa": 1536,
      "nu": 1537,
      "interno": 1538,
      "pas": 1539,
      "##ça": 1540,
      "##osa": 1541,
      "##pend": 1542,
      "mai": 1543,
      "substitu": 1544,
      "##ês": 1545,
      "##ôm": 1546,
      "mu": 1547,
      "nego": 1548,
      "##ótes": 1549,
      "##ipótes": 1550,
      "##icí": 1551,
      "##tidos": 1552,
      "lhe": 1553,
      "pedido": 1554,
      "crimin": 1555,
      "sus": 1556,
      "aprov": 1557,
      "lib": 1558,
      "caus": 1559,
      "atu": 1560,
      "##ub": 1561,
      "perí": 1562,
      "utiliz": 1563,
      "cid": 1564,
      "##tic": 1565,
      "hipótes": 1566,
      "anexo": 1567,
      "inclusive": 1568,
      "entidades": 1569,
      "soci": 1570,
      "ata": 1571,
      "atos": 1572,
      "##rido": 1573,
      "demais": 1574,
      "também": 1575,
      "##bora": 1576,
      "precedentes": 1577,
      "declaração": 1578,
      "tec": 1579,
      "há": 1580,
      "magist": 1581,
      "processual": 1582,
      "exig": 1583,
      "##nica": 1584,
      "órgão": 1585,
      "embargos": 1586,
      "disp": 1587,
      "##vas": 1588,
      "presidência": 1589,
      "##vante": 1590,
      "refere": 1591,
      "requis": 1592,
      "##mpl": 1593,
      "norma": 1594,
      "vez": 1595,
      "executivo": 1596,
      "via": 1597,
      "mant": 1598,
      "conced": 1599,
      "brasília": 1600,
      "region": 1601,
      "##lex": 1602,
      "##bil": 1603,
      "si": 1604,
      "mate": 1605,
      "competência": 1606,
      "já": 1607,
      "independ": 1608,
      "controle": 1609,
      "##tada": 1610,
      "fins": 1611,
      "aplica": 1612,
      "##órios": 1613,
      "##sas": 1614,
      "condições": 1615,
      "##reza": 1616,
      "prod": 1617,
      "quais": 1618,
      "##ulação": 1619,
      "benef": 1620,
      "legal": 1621,
      "orça": 1622,
      "preju": 1623,
      "fat": 1624,
      "tendo": 1625,
      "propos": 1626,
      "essa": 1627,
      "ministra": 1628,
      "##pri": 1629,
      "seguinte": 1630,
      "âmbito": 1631,
      "plen": 1632,
      "sol": 1633,
      "rio": 1634,
      "##vog": 1635,
      "corre": 1636,
      "##if": 1637,
      "##elh": 1638,
      "medidas": 1639,
      "cumprimento": 1640,
      "deverá": 1641,
      "apenas": 1642,
      "##pru": 1643,
      "tecn": 1644,
      "país": 1645,
      "##rada": 1646,
      "##ender": 1647,
      "##cussão": 1648,
      "2015": 1649,
      "##rados": 1650,
      "##igu": 1651,
      "##tamento": 1652,
      "cnj": 1653,
      "tempo": 1654,
      "##úde": 1655,
      "##aram": 1656,
      "jurispru": 1657,
      "municí": 1658,
      "econôm": 1659,
      "##tin": 1660,
      "gru": 1661,
      "regula": 1662,
      "altera": 1663,
      "ministros": 1664,
      "mon": 1665,
      "informações": 1666,
      "vista": 1667,
      "anál": 1668,
      "maior": 1669,
      "##inh": 1670,
      "exce": 1671,
      "aplic": 1672,
      "##ch": 1673,
      "saúde": 1674,
      "##ission": 1675,
      "foram": 1676,
      "judiciário": 1677,
      "cp": 1678,
      "ponto": 1679,
      "concessão": 1680,
      "outro": 1681,
      "relação": 1682,
      "paci": 1683,
      "natu": 1684,
      "event": 1685,
      "##ino": 1686,
      "pessoal": 1687,
      "conden": 1688,
      "##and": 1689,
      "##gem": 1690,
      "estadual": 1691,
      "bar": 1692,
      "dados": 1693,
      "bens": 1694,
      "são": 1695,
      "##rélio": 1696,
      "natureza": 1697,
      "aurélio": 1698,
      "ed": 1699,
      "análise": 1700,
      "##cel": 1701,
      "sido": 1702,
      "comissão": 1703,
      "acompanh": 1704,
      "recor": 1705,
      "ren": 1706,
      "##iação": 1707,
      "##emp": 1708,
      "trabalh": 1709,
      "##gn": 1710,
      "apre": 1711,
      "valores": 1712,
      "##ôn": 1713,
      "esse": 1714,
      "tre": 1715,
      "##gr": 1716,
      "receb": 1717,
      "##́bl": 1718,
      "desde": 1719,
      "estrutura": 1720,
      "##çamento": 1721,
      "35": 1722,
      "##ge": 1723,
      "##duz": 1724,
      "33": 1725,
      "jurídica": 1726,
      "cul": 1727,
      "discu": 1728,
      "##tante": 1729,
      "##jam": 1730,
      "segundo": 1731,
      "nega": 1732,
      "set": 1733,
      "##jo": 1734,
      "##20": 1735,
      "vis": 1736,
      "##tico": 1737,
      "cur": 1738,
      "judicial": 1739,
      "rec": 1740,
      "eu": 1741,
      "vin": 1742,
      "pod": 1743,
      "ci": 1744,
      "governo": 1745,
      "jun": 1746,
      "den": 1747,
      "##embros": 1748,
      "##tivamente": 1749,
      "##ira": 1750,
      "##egu": 1751,
      "após": 1752,
      "fim": 1753,
      "##respon": 1754,
      "abri": 1755,
      "isso": 1756,
      "op": 1757,
      "ori": 1758,
      "va": 1759,
      "fiscal": 1760,
      "empresa": 1761,
      "cargo": 1762,
      "##ende": 1763,
      "demon": 1764,
      "demonst": 1765,
      "públ": 1766,
      "##culo": 1767,
      "##tações": 1768,
      "membros": 1769,
      "##ráficas": 1770,
      "adi": 1771,
      "perman": 1772,
      "##õe": 1773,
      "##dam": 1774,
      "##ima": 1775,
      "poderão": 1776,
      "planej": 1777,
      "##vor": 1778,
      "##alização": 1779,
      "##mentação": 1780,
      "programa": 1781,
      "somente": 1782,
      "apro": 1783,
      "##can": 1784,
      "pelas": 1785,
      "rel": 1786,
      "pat": 1787,
      "previd": 1788,
      "relacion": 1789,
      "gestão": 1790,
      "administrativo": 1791,
      "red": 1792,
      "quadro": 1793,
      "impe": 1794,
      "orçament": 1795,
      "encont": 1796,
      "##dades": 1797,
      "##pro": 1798,
      "##cido": 1799,
      "##ên": 1800,
      "quant": 1801,
      "produtos": 1802,
      "2012": 1803,
      "40": 1804,
      "tribunais": 1805,
      "##ice": 1806,
      "investi": 1807,
      "resolu": 1808,
      "##imidade": 1809,
      "capa": 1810,
      "indic": 1811,
      "##bat": 1812,
      "despro": 1813,
      "prisão": 1814,
      "fato": 1815,
      "ch": 1816,
      "##pec": 1817,
      "conju": 1818,
      "transpor": 1819,
      "##tanto": 1820,
      "##dor": 1821,
      "aleg": 1822,
      "34": 1823,
      "inform": 1824,
      "ade": 1825,
      "ident": 1826,
      "junho": 1827,
      "atividade": 1828,
      "registro": 1829,
      "provid": 1830,
      "peri": 1831,
      "acesso": 1832,
      "50": 1833,
      "correspon": 1834,
      "estu": 1835,
      "inclu": 1836,
      "estes": 1837,
      "##esas": 1838,
      "##ças": 1839,
      "manif": 1840,
      "conhecimento": 1841,
      "##ciamento": 1842,
      "paciente": 1843,
      "##ciação": 1844,
      "passa": 1845,
      "período": 1846,
      "projetos": 1847,
      "tal": 1848,
      "reper": 1849,
      "##bilidade": 1850,
      "##áveis": 1851,
      "##íveis": 1852,
      "##riores": 1853,
      "##nd": 1854,
      "veri": 1855,
      "tribut": 1856,
      "procu": 1857,
      "cir": 1858,
      "sust": 1859,
      "elabora": 1860,
      "196": 1861,
      "esp": 1862,
      "hu": 1863,
      "polí": 1864,
      "remun": 1865,
      "objeto": 1866,
      "orçamento": 1867,
      "##ing": 1868,
      "jurisprudência": 1869,
      "##rang": 1870,
      "##tificação": 1871,
      "especí": 1872,
      "liber": 1873,
      "agravante": 1874,
      "ambi": 1875,
      "propor": 1876,
      "##eiras": 1877,
      "84": 1878,
      "##nos": 1879,
      "empresas": 1880,
      "##dia": 1881,
      "pass": 1882,
      "san": 1883,
      "##et": 1884,
      "distrito": 1885,
      "dje": 1886,
      "alí": 1887,
      "interess": 1888,
      "##ivos": 1889,
      "##via": 1890,
      "##óg": 1891,
      "prevista": 1892,
      "despesas": 1893,
      "está": 1894,
      "##imentos": 1895,
      "plano": 1896,
      "hipótese": 1897,
      "##ntos": 1898,
      "ref": 1899,
      "##ifica": 1900,
      "ofensa": 1901,
      "dois": 1902,
      "modo": 1903,
      "agravada": 1904,
      "compete": 1905,
      "julho": 1906,
      "organiz": 1907,
      "tít": 1908,
      "100": 1909,
      "##́ria": 1910,
      "princípio": 1911,
      "crime": 1912,
      "##dente": 1913,
      "prote": 1914,
      "##ux": 1915,
      "escol": 1916,
      "má": 1917,
      "difer": 1918,
      "37": 1919,
      "02": 1920,
      "mín": 1921,
      "human": 1922,
      "mod": 1923,
      "us": 1924,
      "32": 1925,
      "vigor": 1926,
      "hou": 1927,
      "2011": 1928,
      "##opera": 1929,
      "direta": 1930,
      "##té": 1931,
      "educação": 1932,
      "##almente": 1933,
      "jurisdi": 1934,
      "grande": 1935,
      "especi": 1936,
      "efeitos": 1937,
      "##ff": 1938,
      "argu": 1939,
      "mercado": 1940,
      "exist": 1941,
      "impetra": 1942,
      "sociedade": 1943,
      "ress": 1944,
      "197": 1945,
      "área": 1946,
      "##cas": 1947,
      "2009": 1948,
      "##terior": 1949,
      "programas": 1950,
      "##corre": 1951,
      "tax": 1952,
      "unidades": 1953,
      "##com": 1954,
      "pesquisa": 1955,
      "##ki": 1956,
      "subs": 1957,
      "igu": 1958,
      "interesse": 1959,
      "##her": 1960,
      "dia": 1961,
      "##estion": 1962,
      "ir": 1963,
      "regul": 1964,
      "funcion": 1965,
      "repercussão": 1966,
      "agr": 1967,
      "dent": 1968,
      "necessidade": 1969,
      "requer": 1970,
      "mora": 1971,
      "permit": 1972,
      "adequ": 1973,
      "liberdade": 1974,
      "##itas": 1975,
      "profission": 1976,
      "juízo": 1977,
      "dura": 1978,
      "du": 1979,
      "razões": 1980,
      "favor": 1981,
      "reex": 1982,
      "impu": 1983,
      "novembro": 1984,
      "núm": 1985,
      "conta": 1986,
      "complementar": 1987,
      "enqu": 1988,
      "##men": 1989,
      "autoridade": 1990,
      "notas": 1991,
      "suje": 1992,
      "deman": 1993,
      "class": 1994,
      "##ícios": 1995,
      "##irm": 1996,
      "outra": 1997,
      "##âncias": 1998,
      "arts": 1999,
      "trt": 2000,
      "responsabilidade": 2001,
      "distribu": 2002,
      "interpre": 2003,
      "##just": 2004,
      "##tadas": 2005,
      "questão": 2006,
      "decis": 2007,
      "projeto": 2008,
      "exclus": 2009,
      "ale": 2010,
      "razão": 2011,
      "nome": 2012,
      "princi": 2013,
      "##utel": 2014,
      "45": 2015,
      "tor": 2016,
      "prestação": 2017,
      "##cup": 2018,
      "atual": 2019,
      "express": 2020,
      "##oli": 2021,
      "##rim": 2022,
      "36": 2023,
      "##posição": 2024,
      "local": 2025,
      "cin": 2026,
      "empreg": 2027,
      "sess": 2028,
      "##ses": 2029,
      "deverão": 2030,
      "acordam": 2031,
      "##ubro": 2032,
      "tex": 2033,
      "##ás": 2034,
      "vistos": 2035,
      "judici": 2036,
      "cara": 2037,
      "obrig": 2038,
      "##lti": 2039,
      "##tem": 2040,
      "coopera": 2041,
      "##ram": 2042,
      "##fere": 2043,
      "expl": 2044,
      "ordin": 2045,
      "susp": 2046,
      "exposto": 2047,
      "outubro": 2048,
      "publicação": 2049,
      "grupo": 2050,
      "fam": 2051,
      "##nea": 2052,
      "fatos": 2053,
      "gu": 2054,
      "toff": 2055,
      "toffoli": 2056,
      "##ticas": 2057,
      "discutidos": 2058,
      "##ares": 2059,
      "assegu": 2060,
      "##ferência": 2061,
      "fazenda": 2062,
      "##rog": 2063,
      "porque": 2064,
      "##ár": 2065,
      "regional": 2066,
      "relatados": 2067,
      "disposit": 2068,
      "portanto": 2069,
      "##cun": 2070,
      "cole": 2071,
      "##inha": 2072,
      "ficam": 2073,
      "setembro": 2074,
      "##mpre": 2075,
      "##berto": 2076,
      "reexame": 2077,
      "servidor": 2078,
      "priv": 2079,
      "tenha": 2080,
      "cpc": 2081,
      "##rin": 2082,
      "ocorr": 2083,
      "ino": 2084,
      "infraconstitucional": 2085,
      "contrato": 2086,
      "##omia": 2087,
      "85": 2088,
      "promover": 2089,
      "recla": 2090,
      "causa": 2091,
      "##gresso": 2092,
      "##̂ncias": 2093,
      "##reg": 2094,
      "tecnolo": 2095,
      "##encial": 2096,
      "incidência": 2097,
      "primeiro": 2098,
      "imó": 2099,
      "segunda": 2100,
      "fundo": 2101,
      "6º": 2102,
      "diret": 2103,
      "exame": 2104,
      "##cil": 2105,
      "##riga": 2106,
      "final": 2107,
      "##ificação": 2108,
      "imposto": 2109,
      "ens": 2110,
      "##elo": 2111,
      "instrumento": 2112,
      "sul": 2113,
      "multa": 2114,
      "públicos": 2115,
      "tab": 2116,
      "polít": 2117,
      "dispon": 2118,
      "60": 2119,
      "previstas": 2120,
      "planejamento": 2121,
      "regra": 2122,
      "internacional": 2123,
      "inex": 2124,
      "43": 2125,
      "the": 2126,
      "camp": 2127,
      "inicial": 2128,
      "##oração": 2129,
      "todas": 2130,
      "segue": 2131,
      "##iu": 2132,
      "desemp": 2133,
      "respeito": 2134,
      "##ramento": 2135,
      "requisitos": 2136,
      "provas": 2137,
      "nesse": 2138,
      "2013": 2139,
      "ali": 2140,
      "operações": 2141,
      "41": 2142,
      "##iliar": 2143,
      "##estão": 2144,
      "##tividade": 2145,
      "##tocol": 2146,
      "subme": 2147,
      "54": 2148,
      "previstos": 2149,
      "devida": 2150,
      "##ém": 2151,
      "aux": 2152,
      "núm": 2153,
      "menos": 2154,
      "##dentes": 2155,
      "julgado": 2156,
      "impugn": 2157,
      "luiz": 2158,
      "90": 2159,
      "03": 2160,
      "munici": 2161,
      "##enhora": 2162,
      "39": 2163,
      "2016": 2164,
      "anal": 2165,
      "estra": 2166,
      "entendimento": 2167,
      "protocol": 2168,
      "##dica": 2169,
      "previsto": 2170,
      "##ído": 2171,
      "##miss": 2172,
      "tes": 2173,
      "serem": 2174,
      "federa": 2175,
      "efeito": 2176,
      "disposições": 2177,
      "obriga": 2178,
      "só": 2179,
      "proferi": 2180,
      "revis": 2181,
      "senhora": 2182,
      "superv": 2183,
      "orient": 2184,
      "sentença": 2185,
      "dom": 2186,
      "2010": 2187,
      "ban": 2188,
      "ressal": 2189,
      "amp": 2190,
      "##agem": 2191,
      "93": 2192,
      "ti": 2193,
      "##crição": 2194,
      "38": 2195,
      "279": 2196,
      "apura": 2197,
      "tit": 2198,
      "ensino": 2199,
      "##plo": 2200,
      "terc": 2201,
      "convenção": 2202,
      "independência": 2203,
      "##are": 2204,
      "novos": 2205,
      "considerando": 2206,
      "##tiz": 2207,
      "##missão": 2208,
      "assin": 2209,
      "comer": 2210,
      "aber": 2211,
      "##mação": 2212,
      "##ridades": 2213,
      "incisos": 2214,
      "afas": 2215,
      "2014": 2216,
      "solici": 2217,
      "asso": 2218,
      "avaliação": 2219,
      "sejam": 2220,
      "envol": 2221,
      "fundamentos": 2222,
      "imposs": 2223,
      "sede": 2224,
      "pré": 2225,
      "finan": 2226,
      "criminal": 2227,
      "implement": 2228,
      "violação": 2229,
      "55": 2230,
      "01": 2231,
      "conjunto": 2232,
      "capaci": 2233,
      "unan": 2234,
      "sim": 2235,
      "##ível": 2236,
      "44": 2237,
      "cre": 2238,
      "unanimidade": 2239,
      "62": 2240,
      "paulo": 2241,
      "mencion": 2242,
      "vir": 2243,
      "número": 2244,
      "liv": 2245,
      "cento": 2246,
      "##gosto": 2247,
      "47": 2248,
      "##toria": 2249,
      "polí": 2250,
      "territ": 2251,
      "48": 2252,
      "taqu": 2253,
      "##́s": 2254,
      "##entemente": 2255,
      "percent": 2256,
      "3o": 2257,
      "baix": 2258,
      "públicas": 2259,
      "##mes": 2260,
      "atribuições": 2261,
      "##ológ": 2262,
      "diante": 2263,
      "agosto": 2264,
      "##cam": 2265,
      "2017": 2266,
      "recurs": 2267,
      "nova": 2268,
      "##istas": 2269,
      "##fa": 2270,
      "constru": 2271,
      "taquig": 2272,
      "sign": 2273,
      "taquigráficas": 2274,
      "diz": 2275,
      "individ": 2276,
      "bus": 2277,
      "##cida": 2278,
      "pois": 2279,
      "##erva": 2280,
      "##éci": 2281,
      "69": 2282,
      "produção": 2283,
      "##ibil": 2284,
      "##icardo": 2285,
      "we": 2286,
      "n°": 2287,
      "organização": 2288,
      "49": 2289,
      "abril": 2290,
      "eleito": 2291,
      "distância": 2292,
      "ileg": 2293,
      "59": 2294,
      "execução": 2295,
      "mé": 2296,
      "equip": 2297,
      "ho": 2298,
      "funções": 2299,
      "circun": 2300,
      "42": 2301,
      "possu": 2302,
      "##dit": 2303,
      "ge": 2304,
      "cultura": 2305,
      "##iqu": 2306,
      "recorr": 2307,
      "legisla": 2308,
      "##eni": 2309,
      "rosa": 2310,
      "88": 2311,
      "prova": 2312,
      "simpl": 2313,
      "2006": 2314,
      "além": 2315,
      "administrativa": 2316,
      "vincul": 2317,
      "##lu": 2318,
      "ocup": 2319,
      "##dução": 2320,
      "##ída": 2321,
      "probat": 2322,
      "carac": 2323,
      "7º": 2324,
      "ce": 2325,
      "texto": 2326,
      "votos": 2327,
      "06": 2328,
      "mesma": 2329,
      "##pal": 2330,
      "##entado": 2331,
      "situação": 2332,
      "vigo": 2333,
      "assistência": 2334,
      "possibilidade": 2335,
      "cal": 2336,
      "##edia": 2337,
      "prejuízo": 2338,
      "63": 2339,
      "##tou": 2340,
      "##para": 2341,
      "##iciais": 2342,
      "antes": 2343,
      "##clusão": 2344,
      "financeira": 2345,
      "##artamento": 2346,
      "##cipl": 2347,
      "66": 2348,
      "##ança": 2349,
      "compre": 2350,
      "parcial": 2351,
      "inconstitucional": 2352,
      "conte": 2353,
      "estat": 2354,
      "especiais": 2355,
      "comprov": 2356,
      "procedimentos": 2357,
      "carre": 2358,
      "publicado": 2359,
      "tema": 2360,
      "##ite": 2361,
      "##ac": 2362,
      "liminar": 2363,
      "seria": 2364,
      "receita": 2365,
      "jo": 2366,
      "março": 2367,
      "entidade": 2368,
      "design": 2369,
      "nesta": 2370,
      "taxa": 2371,
      "oficial": 2372,
      "46": 2373,
      "manut": 2374,
      "instal": 2375,
      "prevent": 2376,
      "cautel": 2377,
      "gerais": 2378,
      "##rem": 2379,
      "vigência": 2380,
      "##itação": 2381,
      "##vereiro": 2382,
      "também": 2383,
      "##curso": 2384,
      "meses": 2385,
      "consul": 2386,
      "cará": 2387,
      "apos": 2388,
      "federais": 2389,
      "concre": 2390,
      "política": 2391,
      "benefici": 2392,
      "eventual": 2393,
      "vii": 2394,
      "garantia": 2395,
      "weber": 2396,
      "##tros": 2397,
      "fux": 2398,
      "caráter": 2399,
      "##ine": 2400,
      "##gua": 2401,
      "##erá": 2402,
      "contin": 2403,
      "##ensão": 2404,
      "tais": 2405,
      "70": 2406,
      "compro": 2407,
      "apoio": 2408,
      "##uto": 2409,
      "alcan": 2410,
      "desempenho": 2411,
      "fevereiro": 2412,
      "61": 2413,
      "reque": 2414,
      "desse": 2415,
      "interpretação": 2416,
      "redação": 2417,
      "barros": 2418,
      "limites": 2419,
      "documentos": 2420,
      "80": 2421,
      "71": 2422,
      "acer": 2423,
      "roberto": 2424,
      "##ração": 2425,
      "exped": 2426,
      "cabe": 2427,
      "banco": 2428,
      "##lant": 2429,
      "52": 2430,
      "desa": 2431,
      "xx": 2432,
      "durante": 2433,
      "negar": 2434,
      "##cos": 2435,
      "##̂n": 2436,
      "fundament": 2437,
      "##cra": 2438,
      "hon": 2439,
      "legais": 2440,
      "##umo": 2441,
      "áreas": 2442,
      "##zes": 2443,
      "verific": 2444,
      "impossibilidade": 2445,
      "impro": 2446,
      "atendimento": 2447,
      "lev": 2448,
      "instituto": 2449,
      "procedimento": 2450,
      "che": 2451,
      "tele": 2452,
      "vigorar": 2453,
      "regulamento": 2454,
      "ved": 2455,
      "contas": 2456,
      "capital": 2457,
      "unidade": 2458,
      "fer": 2459,
      "53": 2460,
      "ant": 2461,
      "material": 2462,
      "##arão": 2463,
      "51": 2464,
      "algu": 2465,
      "todo": 2466,
      "contribuição": 2467,
      "departamento": 2468,
      "##ws": 2469,
      "escri": 2470,
      "dispõe": 2471,
      "transporte": 2472,
      "revel": 2473,
      "##vidas": 2474,
      "brasileiro": 2475,
      "##estionamento": 2476,
      "origin": 2477,
      "circunst": 2478,
      "mínimo": 2479,
      "excel": 2480,
      "##isco": 2481,
      "venci": 2482,
      "título": 2483,
      "maioria": 2484,
      "##tr": 2485,
      "imedia": 2486,
      "diretriz": 2487,
      "previdência": 2488,
      "##dado": 2489,
      "##íti": 2490,
      "contratos": 2491,
      "##sia": 2492,
      "##uta": 2493,
      "09": 2494,
      "central": 2495,
      "sempre": 2496,
      "municípios": 2497,
      "participação": 2498,
      "coordenar": 2499,
      "bo": 2500,
      "respectivos": 2501,
      "constantes": 2502,
      "81": 2503,
      "barroso": 2504,
      "relação": 2505,
      "##ições": 2506,
      "serv": 2507,
      "jurídico": 2508,
      "cár": 2509,
      "##postos": 2510,
      "##izar": 2511,
      "gestão": 2512,
      "##rovér": 2513,
      "ricardo": 2514,
      "dá": 2515,
      "fil": 2516,
      "propri": 2517,
      "dessa": 2518,
      "seguimento": 2519,
      "existência": 2520,
      "##́r": 2521,
      "artic": 2522,
      "rea": 2523,
      "novo": 2524,
      "56": 2525,
      "##itiva": 2526,
      "##́rias": 2527,
      "titular": 2528,
      "inad": 2529,
      "##culos": 2530,
      "98": 2531,
      "controvér": 2532,
      "solu": 2533,
      "anual": 2534,
      "rele": 2535,
      "objetivo": 2536,
      "confl": 2537,
      "revog": 2538,
      "econômica": 2539,
      "fundamento": 2540,
      "momento": 2541,
      "restri": 2542,
      "##tantes": 2543,
      "leis": 2544,
      "lú": 2545,
      "##íst": 2546,
      "73": 2547,
      "discipl": 2548,
      "97": 2549,
      "fá": 2550,
      "2018": 2551,
      "realização": 2552,
      "68": 2553,
      "lúcia": 2554,
      "indu": 2555,
      "lew": 2556,
      "##wski": 2557,
      "##adamente": 2558,
      "05": 2559,
      "ener": 2560,
      "supervis": 2561,
      "lewando": 2562,
      "rura": 2563,
      "instituições": 2564,
      "lewandowski": 2565,
      "ix": 2566,
      "cármen": 2567,
      "ora": 2568,
      "preventiva": 2569,
      "am": 2570,
      "podem": 2571,
      "64": 2572,
      "cinco": 2573,
      "manutenção": 2574,
      "##tual": 2575,
      "##eros": 2576,
      "vara": 2577,
      "dentro": 2578,
      "##ulas": 2579,
      "mend": 2580,
      "simples": 2581,
      "curso": 2582,
      "tecnologia": 2583,
      "efetu": 2584,
      "brasileira": 2585,
      "benefício": 2586,
      "decorrentes": 2587,
      "57": 2588,
      "continu": 2589,
      "proposta": 2590,
      "hom": 2591,
      "mulher": 2592,
      "espéci": 2593,
      "linha": 2594,
      "reun": 2595,
      "fís": 2596,
      "04": 2597,
      "65": 2598,
      "pop": 2599,
      "despesa": 2600,
      "##son": 2601,
      "102": 2602,
      "recorrido": 2603,
      "á": 2604,
      "renda": 2605,
      "##́ri": 2606,
      "##asse": 2607,
      "deix": 2608,
      "encar": 2609,
      "sin": 2610,
      "lit": 2611,
      "mens": 2612,
      "providências": 2613,
      "74": 2614,
      "##tensão": 2615,
      "comit": 2616,
      "aqui": 2617,
      "mendes": 2618,
      "87": 2619,
      "cele": 2620,
      "políticas": 2621,
      "08": 2622,
      "consign": 2623,
      "fazer": 2624,
      "igual": 2625,
      "99": 2626,
      "07": 2627,
      "conver": 2628,
      "dig": 2629,
      "inconstitucionalidade": 2630,
      "autorização": 2631,
      "sistemas": 2632,
      "relativas": 2633,
      "excelência": 2634,
      "daqu": 2635,
      "aci": 2636,
      "##ídos": 2637,
      "58": 2638,
      "##̂m": 2639,
      "eleitoral": 2640,
      "##ismo": 2641,
      "78": 2642,
      "col": 2643,
      "relatora": 2644,
      "tenham": 2645,
      "assu": 2646,
      "tri": 2647,
      "imped": 2648,
      "município": 2649,
      "natura": 2650,
      "tabela": 2651,
      "advog": 2652,
      "76": 2653,
      "magistrados": 2654,
      "##gress": 2655,
      "gil": 2656,
      "##ona": 2657,
      "judiciário": 2658,
      "##tando": 2659,
      "humanos": 2660,
      "competente": 2661,
      "máx": 2662,
      "controvérsia": 2663,
      "##sões": 2664,
      "##́fico": 2665,
      "pris": 2666,
      "mont": 2667,
      "8º": 2668,
      "##riais": 2669,
      "justific": 2670,
      "função": 2671,
      "assent": 2672,
      "##rida": 2673,
      "indire": 2674,
      "##́rios": 2675,
      "indust": 2676,
      "próprio": 2677,
      "press": 2678,
      "utilização": 2679,
      "deno": 2680,
      "##be": 2681,
      "diretrizes": 2682,
      "produto": 2683,
      "az": 2684,
      "conclu": 2685,
      "judiciais": 2686,
      "últi": 2687,
      "qualidade": 2688,
      "##gar": 2689,
      "resid": 2690,
      "reforma": 2691,
      "às": 2692,
      "devido": 2693,
      "modi": 2694,
      "##ana": 2695,
      "ness": 2696,
      "risco": 2697,
      "artigos": 2698,
      "comercial": 2699,
      "estabelecimento": 2700,
      "reflex": 2701,
      "91": 2702,
      "##esc": 2703,
      "trâ": 2704,
      "depo": 2705,
      "##tre": 2706,
      "território": 2707,
      "mérito": 2708,
      "contr": 2709,
      "necessário": 2710,
      "sociais": 2711,
      "demo": 2712,
      "resta": 2713,
      "##tação": 2714,
      "##ulos": 2715,
      "exem": 2716,
      "67": 2717,
      "##térios": 2718,
      "jurí": 2719,
      "devem": 2720,
      "estabelecer": 2721,
      "necessários": 2722,
      "encam": 2723,
      "##eles": 2724,
      "bás": 2725,
      "##ização": 2726,
      "orçamentária": 2727,
      "congresso": 2728,
      "adu": 2729,
      "vol": 2730,
      "##maz": 2731,
      "75": 2732,
      "documento": 2733,
      "alínea": 2734,
      "sessão": 2735,
      "gilmar": 2736,
      "perce": 2737,
      "efetivo": 2738,
      "##vidos": 2739,
      "luís": 2740,
      "expor": 2741,
      "incor": 2742,
      "##ário": 2743,
      "##arem": 2744,
      "atra": 2745,
      "##ças": 2746,
      "inden": 2747,
      "89": 2748,
      "##ônio": 2749,
      "##́st": 2750,
      "apel": 2751,
      "cr": 2752,
      "96": 2753,
      "respectivo": 2754,
      "exterior": 2755,
      "pad": 2756,
      "##nsito": 2757,
      "prática": 2758,
      "individual": 2759,
      "ina": 2760,
      "impl": 2761,
      "teo": 2762,
      "##icia": 2763,
      "critérios": 2764,
      "proteção": 2765,
      "exam": 2766,
      "constitucionais": 2767,
      "79": 2768,
      "univer": 2769,
      "relatório": 2770,
      "observado": 2771,
      "percentual": 2772,
      "nacionais": 2773,
      "muito": 2774,
      "##qü": 2775,
      "configu": 2776,
      "##posta": 2777,
      "ações": 2778,
      "##ércio": 2779,
      "cuja": 2780,
      "recorrente": 2781,
      "4o": 2782,
      "aquis": 2783,
      "revisão": 2784,
      "##vio": 2785,
      "1°": 2786,
      "##tido": 2787,
      "##ece": 2788,
      "86": 2789,
      "economia": 2790,
      "ur": 2791,
      "referido": 2792,
      "##úncia": 2793,
      "##terna": 2794,
      "2008": 2795,
      "95": 2796,
      "ame": 2797,
      "nem": 2798,
      "##dição": 2799,
      "##ide": 2800,
      "##atória": 2801,
      "##icações": 2802,
      "remuneração": 2803,
      "analis": 2804,
      "assist": 2805,
      "##bate": 2806,
      "##qui": 2807,
      "comitê": 2808,
      "possível": 2809,
      "demanda": 2810,
      "##gação": 2811,
      "##dores": 2812,
      "##ú": 2813,
      "coleg": 2814,
      "finalidade": 2815,
      "implant": 2816,
      "##udo": 2817,
      "viii": 2818,
      "conce": 2819,
      "##inte": 2820,
      "exclusiva": 2821,
      "probatório": 2822,
      "serviç": 2823,
      "limite": 2824,
      "cál": 2825,
      "profissional": 2826,
      "cooperação": 2827,
      "conse": 2828,
      "evid": 2829,
      "ocorre": 2830,
      "##riamente": 2831,
      "protocolo": 2832,
      "acres": 2833,
      "interposto": 2834,
      "enquad": 2835,
      "técnica": 2836,
      "sustent": 2837,
      "##ute": 2838,
      "83": 2839,
      "elementos": 2840,
      "falta": 2841,
      "respectivas": 2842,
      "excep": 2843,
      "comércio": 2844,
      "energia": 2845,
      "informação": 2846,
      "ofício": 2847,
      "and": 2848,
      "termo": 2849,
      "mor": 2850,
      "mês": 2851,
      "2020": 2852,
      "##amentos": 2853,
      "92": 2854,
      "princípios": 2855,
      "toda": 2856,
      "##és": 2857,
      "##amente": 2858,
      "constante": 2859,
      "indeferi": 2860,
      "cob": 2861,
      "##iado": 2862,
      "confere": 2863,
      "sp": 2864,
      "77": 2865,
      "estabelecidos": 2866,
      "abs": 2867,
      "interm": 2868,
      "##enso": 2869,
      "tanto": 2870,
      "##tion": 2871,
      "gera": 2872,
      "##cad": 2873,
      "devidamente": 2874,
      "cois": 2875,
      "pratic": 2876,
      "denomin": 2877,
      "ambiente": 2878,
      "##ental": 2879,
      "##mentar": 2880,
      "##eno": 2881,
      "três": 2882,
      "##rea": 2883,
      "il": 2884,
      "fl": 2885,
      "##irá": 2886,
      "carta": 2887,
      "fiscalização": 2888,
      "ordinário": 2889,
      "insu": 2890,
      "94": 2891,
      "195": 2892,
      "sant": 2893,
      "1990": 2894,
      "campo": 2895,
      "pressu": 2896,
      "trânsito": 2897,
      "produz": 2898,
      "provido": 2899,
      "internacionais": 2900,
      "concurso": 2901,
      "funcionamento": 2902,
      "##ves": 2903,
      "relativos": 2904,
      "onde": 2905,
      "consum": 2906,
      "##íci": 2907,
      "reit": 2908,
      "azim": 2909,
      "parecer": 2910,
      "estabelecidas": 2911,
      "nível": 2912,
      "2007": 2913,
      "2019": 2914,
      "firm": 2915,
      "sab": 2916,
      "cautelar": 2917,
      "jurisdicional": 2918,
      "quantidade": 2919,
      "tipo": 2920,
      "control": 2921,
      "encaminh": 2922,
      "teor": 2923,
      "incorp": 2924,
      "admit": 2925,
      "dar": 2926,
      "comum": 2927,
      "##tário": 2928,
      "permanente": 2929,
      "espécie": 2930,
      "72": 2931,
      "dotações": 2932,
      "diretor": 2933,
      "##ciado": 2934,
      "82": 2935,
      "plenário": 2936,
      "créditos": 2937,
      "##vendo": 2938,
      "número": 2939,
      "cálculo": 2940,
      "aposentado": 2941,
      "univers": 2942,
      "partic": 2943,
      "gros": 2944,
      "2001": 2945,
      "##ossa": 2946,
      "tom": 2947,
      "feito": 2948,
      "coordenadas": 2949,
      "exercer": 2950,
      "já": 2951,
      "estudos": 2952,
      "cel": 2953,
      "##tida": 2954,
      "sufici": 2955,
      "resultados": 2956,
      "assess": 2957,
      "##ál": 2958,
      "##crá": 2959,
      "atender": 2960,
      "##atório": 2961,
      "##êm": 2962,
      "institucional": 2963,
      "##amos": 2964,
      "condu": 2965,
      "até": 2966,
      "##rador": 2967,
      "caracte": 2968,
      "acus": 2969,
      "resolução": 2970,
      "arre": 2971,
      "vigente": 2972,
      "fonte": 2973,
      "##vul": 2974,
      "promoção": 2975,
      "delib": 2976,
      "manifest": 2977,
      "##́g": 2978,
      "trá": 2979,
      "##ival": 2980,
      "atuação": 2981,
      "própria": 2982,
      "técn": 2983,
      "instituição": 2984,
      "técnico": 2985,
      "implementação": 2986,
      "dí": 2987,
      "lon": 2988,
      "recol": 2989,
      "##izado": 2990,
      "forne": 2991,
      "##zos": 2992,
      "audi": 2993,
      "financeiro": 2994,
      "terá": 2995,
      "setor": 2996,
      "##ront": 2997,
      "integrantes": 2998,
      "aumento": 2999,
      "2002": 3000,
      "##elas": 3001,
      "##itados": 3002,
      "houve": 3003,
      "região": 3004,
      "pertin": 3005,
      "mandado": 3006,
      "##́p": 3007,
      "##ins": 3008,
      "##rimônio": 3009,
      "conselh": 3010,
      "aer": 3011,
      "necessárias": 3012,
      "instância": 3013,
      "integral": 3014,
      "objetivos": 3015,
      "remunera": 3016,
      "2004": 3017,
      "agente": 3018,
      "crimes": 3019,
      "inexistência": 3020,
      "acol": 3021,
      "afir": 3022,
      "oficiais": 3023,
      "cadas": 3024,
      "consol": 3025,
      "##mis": 3026,
      "duas": 3027,
      "9º": 3028,
      "forem": 3029,
      "celeb": 3030,
      "##idação": 3031,
      "estabelecido": 3032,
      "formação": 3033,
      "2000": 3034,
      "##ricul": 3035,
      "honor": 3036,
      "espa": 3037,
      "correspondente": 3038,
      "##voc": 3039,
      "estrang": 3040,
      "##itado": 3041,
      "deneg": 3042,
      "financeiros": 3043,
      "recom": 3044,
      "azimute": 3045,
      "suplementar": 3046,
      "##́c": 3047,
      "##ano": 3048,
      "gráfico": 3049,
      "cujo": 3050,
      "entra": 3051,
      "bas": 3052,
      "##dico": 3053,
      "tratamento": 3054,
      "vida": 3055,
      "refor": 3056,
      "prio": 3057,
      "patrimônio": 3058,
      "##ências": 3059,
      "federativa": 3060,
      "acompanhar": 3061,
      "mos": 3062,
      "ampla": 3063,
      "resultado": 3064,
      "conclusão": 3065,
      "prequ": 3066,
      "item": 3067,
      "dirig": 3068,
      "##sto": 3069,
      "obrigações": 3070,
      "##comp": 3071,
      "hc": 3072,
      "reclamação": 3073,
      "obras": 3074,
      "militares": 3075,
      "identific": 3076,
      "imóvel": 3077,
      "##port": 3078,
      "encontra": 3079,
      "habil": 3080,
      "estar": 3081,
      "diretamente": 3082,
      "inicia": 3083,
      "conhecido": 3084,
      "##étri": 3085,
      "##eia": 3086,
      "##edor": 3087,
      "autoridades": 3088,
      "101": 3089,
      "reconhecimento": 3090,
      "alegação": 3091,
      "pesquisas": 3092,
      "apreciação": 3093,
      "##par": 3094,
      "referida": 3095,
      "equival": 3096,
      "carreira": 3097,
      "geo": 3098,
      "anál": 3099,
      "urb": 3100,
      "##ze": 3101,
      "##tição": 3102,
      "##atro": 3103,
      "##has": 3104,
      "realizada": 3105,
      "1998": 3106,
      "priva": 3107,
      "##éu": 3108,
      "autorizado": 3109,
      "ampl": 3110,
      "##blem": 3111,
      "hist": 3112,
      "mato": 3113,
      "realizar": 3114,
      "realizadas": 3115,
      "particular": 3116,
      "prop": 3117,
      "devendo": 3118,
      "nenh": 3119,
      "decisões": 3120,
      "essas": 3121,
      "fático": 3122,
      "grosso": 3123,
      "houver": 3124,
      "significa": 3125,
      "benefícios": 3126,
      "##tego": 3127,
      "##itada": 3128,
      "indis": 3129,
      "magistrado": 3130,
      "transferência": 3131,
      "alega": 3132,
      "rural": 3133,
      "##izada": 3134,
      "figu": 3135,
      "##vam": 3136,
      "pron": 3137,
      "dispositivos": 3138,
      "cient": 3139,
      "aspec": 3140,
      "##pais": 3141,
      "resolução": 3142,
      "conduta": 3143,
      "daí": 3144,
      "##encia": 3145,
      "insta": 3146,
      "apelação": 3147,
      "operação": 3148,
      "julgar": 3149,
      "haver": 3150,
      "##ídas": 3151,
      "juizados": 3152,
      "adqui": 3153,
      "1991": 3154,
      "##riedade": 3155,
      "reflexa": 3156,
      "ciência": 3157,
      "custo": 3158,
      "##cidos": 3159,
      "catego": 3160,
      "arqu": 3161,
      "financiamento": 3162,
      "##vação": 3163,
      "números": 3164,
      "nul": 3165,
      "enf": 3166,
      "decidi": 3167,
      "1997": 3168,
      "regras": 3169,
      "responsável": 3170,
      "invia": 3171,
      "lic": 3172,
      "##ris": 3173,
      "##portun": 3174,
      "fra": 3175,
      "sustenta": 3176,
      "5o": 3177,
      "##enciais": 3178,
      "##ismos": 3179,
      "contratante": 3180,
      "##ena": 3181,
      "considerada": 3182,
      "interesses": 3183,
      "deferi": 3184,
      "países": 3185,
      "destinados": 3186,
      "exemplo": 3187,
      "alterações": 3188,
      "salvo": 3189,
      "esses": 3190,
      "##ello": 3191,
      "divul": 3192,
      "então": 3193,
      "norte": 3194,
      "praticados": 3195,
      "ú": 3196,
      "real": 3197,
      "exclu": 3198,
      "gratificação": 3199,
      "adicional": 3200,
      "parcel": 3201,
      "juros": 3202,
      "problem": 3203,
      "##dar": 3204,
      "##tórios": 3205,
      "xii": 3206,
      "procurado": 3207,
      "##ticos": 3208,
      "tiver": 3209,
      "decid": 3210,
      "jus": 3211,
      "##eram": 3212,
      "##dito": 3213,
      "2003": 3214,
      "recolh": 3215,
      "import": 3216,
      "câ": 3217,
      "##adora": 3218,
      "público": 3219,
      "desprovido": 3220,
      "##órias": 3221,
      "apont": 3222,
      "secretário": 3223,
      "redução": 3224,
      "1995": 3225,
      "máximo": 3226,
      "relações": 3227,
      "##tório": 3228,
      "extin": 3229,
      "oportun": 3230,
      "adol": 3231,
      "planos": 3232,
      "representantes": 3233,
      "##erante": 3234,
      "prov": 3235,
      "preci": 3236,
      "fundamentação": 3237,
      "##imos": 3238,
      "referidos": 3239,
      "junto": 3240,
      "reduz": 3241,
      "agricul": 3242,
      "suspensão": 3243,
      "dispositivo": 3244,
      "##idor": 3245,
      "aquisição": 3246,
      "vossa": 3247,
      "quatro": 3248,
      "jurídicas": 3249,
      "propriedade": 3250,
      "regular": 3251,
      "determinar": 3252,
      "quaisquer": 3253,
      "##cula": 3254,
      "##enha": 3255,
      "ajust": 3256,
      "além": 3257,
      "perí": 3258,
      "específica": 3259,
      "mono": 3260,
      "liqu": 3261,
      "##rica": 3262,
      "cidad": 3263,
      "luc": 3264,
      "##ários": 3265,
      "juí": 3266,
      "torn": 3267,
      "há": 3268,
      "importação": 3269,
      "suma": 3270,
      "tráfico": 3271,
      "##xto": 3272,
      "prequestionamento": 3273,
      "relacionados": 3274,
      "fase": 3275,
      "impetração": 3276,
      "análise": 3277,
      "parc": 3278,
      "referentes": 3279,
      "minas": 3280,
      "comunicação": 3281,
      "adolesc": 3282,
      "##icidade": 3283,
      "celso": 3284,
      "ven": 3285,
      "efici": 3286,
      "facul": 3287,
      "lici": 3288,
      "auxiliar": 3289,
      "metas": 3290,
      "##rogas": 3291,
      "decorrente": 3292,
      "##ço": 3293,
      "quem": 3294,
      "aposentadoria": 3295,
      "##ficos": 3296,
      "##rina": 3297,
      "eletro": 3298,
      "tecnológ": 3299,
      "mello": 3300,
      "ger": 3301,
      "er": 3302,
      "veí": 3303,
      "prece": 3304,
      "##des": 3305,
      "##hes": 3306,
      "##̂s": 3307,
      "##iação": 3308,
      "emprego": 3309,
      "familiar": 3310,
      "regionais": 3311,
      "vant": 3312,
      "##ala": 3313,
      "194": 3314,
      "compens": 3315,
      "2005": 3316,
      "excepcional": 3317,
      "##tid": 3318,
      "aprovação": 3319,
      "direção": 3320,
      "instrumentos": 3321,
      "indireta": 3322,
      "1996": 3323,
      "condenação": 3324,
      "1999": 3325,
      "membro": 3326,
      "##rou": 3327,
      "ocorrência": 3328,
      "subse": 3329,
      "concedida": 3330,
      "colo": 3331,
      "##́veis": 3332,
      "incent": 3333,
      "##ervação": 3334,
      "montante": 3335,
      "pror": 3336,
      "enquanto": 3337,
      "recursal": 3338,
      "metros": 3339,
      "cand": 3340,
      "1988": 3341,
      "##cidade": 3342,
      "##ís": 3343,
      "relacionadas": 3344,
      "ense": 3345,
      "convên": 3346,
      "##mul": 3347,
      "cheg": 3348,
      "venda": 3349,
      "pens": 3350,
      "emit": 3351,
      "embora": 3352,
      "##tais": 3353,
      "pequ": 3354,
      "está": 3355,
      "depend": 3356,
      "##gamentos": 3357,
      "exclusivamente": 3358,
      "assuntos": 3359,
      "cong": 3360,
      "##vado": 3361,
      "nulidade": 3362,
      "##eios": 3363,
      "feita": 3364,
      "regimento": 3365,
      "imóveis": 3366,
      "manda": 3367,
      "vezes": 3368,
      "quo": 3369,
      "prision": 3370,
      "construção": 3371,
      "outor": 3372,
      "estraté": 3373,
      "comar": 3374,
      "##riam": 3375,
      "recebimento": 3376,
      "clá": 3377,
      "##rimento": 3378,
      "eles": 3379,
      "contribuições": 3380,
      "natural": 3381,
      "ofer": 3382,
      "acompanhamento": 3383,
      "##́vel": 3384,
      "##ouro": 3385,
      "br": 3386,
      "corr": 3387,
      "##iste": 3388,
      "contrário": 3389,
      "acerca": 3390,
      "assessora": 3391,
      "trf": 3392,
      "on": 3393,
      "descri": 3394,
      "infe": 3395,
      "caracteriz": 3396,
      "##éb": 3397,
      "monito": 3398,
      "integração": 3399,
      "superiores": 3400,
      "informações": 3401,
      "agentes": 3402,
      "face": 3403,
      "##pção": 3404,
      "podendo": 3405,
      "fund": 3406,
      "##inas": 3407,
      "##cab": 3408,
      "##estões": 3409,
      "atribuição": 3410,
      "recu": 3411,
      "are": 3412,
      "reserva": 3413,
      "proferida": 3414,
      "##itivo": 3415,
      "##int": 3416,
      "usu": 3417,
      "##ôr": 3418,
      "impugnado": 3419,
      "##abil": 3420,
      "##ms": 3421,
      "localiz": 3422,
      "tratar": 3423,
      "arrecad": 3424,
      "fic": 3425,
      "menor": 3426,
      "pública": 3427,
      "honorários": 3428,
      "mec": 3429,
      "intim": 3430,
      "##cendo": 3431,
      "##̃os": 3432,
      "classe": 3433,
      "circunstâncias": 3434,
      "##cumb": 3435,
      "diversas": 3436,
      "##idados": 3437,
      "era": 3438,
      "vinte": 3439,
      "respectiva": 3440,
      "##volu": 3441,
      "demonstra": 3442,
      "##enção": 3443,
      "capacidade": 3444,
      "##gias": 3445,
      "mostra": 3446,
      "sat": 3447,
      "afe": 3448,
      "trinta": 3449,
      "período": 3450,
      "##21": 3451,
      "1993": 3452,
      "alterna": 3453,
      "procuradoria": 3454,
      "ol": 3455,
      "ace": 3456,
      "##úst": 3457,
      "estaduais": 3458,
      "##íqu": 3459,
      "educa": 3460,
      "econômico": 3461,
      "drogas": 3462,
      "encargos": 3463,
      "##uco": 3464,
      "previdenci": 3465,
      "##ilo": 3466,
      "coordenação": 3467,
      "distribuição": 3468,
      "manter": 3469,
      "##tização": 3470,
      "hipóteses": 3471,
      "inadmiss": 3472,
      "financeiras": 3473,
      "depois": 3474,
      "orçamentárias": 3475,
      "defici": 3476,
      "##cho": 3477,
      "modific": 3478,
      "entrada": 3479,
      "exceto": 3480,
      "municipal": 3481,
      "##vos": 3482,
      "argumentos": 3483,
      "perante": 3484,
      "##esto": 3485,
      "##uso": 3486,
      "assegurar": 3487,
      "manifesta": 3488,
      "##ndice": 3489,
      "stj": 3490,
      "fiscais": 3491,
      "haja": 3492,
      "melho": 3493,
      "denúncia": 3494,
      "rede": 3495,
      "posterior": 3496,
      "ip": 3497,
      "prévia": 3498,
      "profissionais": 3499,
      "certific": 3500,
      "##gência": 3501,
      "##endido": 3502,
      "tesouro": 3503,
      "garantir": 3504,
      "considerado": 3505,
      "equipamentos": 3506,
      "##ipe": 3507,
      "##icação": 3508,
      "chefe": 3509,
      "exti": 3510,
      "início": 3511,
      "##́tica": 3512,
      "##dios": 3513,
      "companh": 3514,
      "acima": 3515,
      "##estrutura": 3516,
      "ví": 3517,
      "digital": 3518,
      "##ósito": 3519,
      "poderes": 3520,
      "coisa": 3521,
      "interposição": 3522,
      "condição": 3523,
      "pun": 3524,
      "serviços": 3525,
      "##ressão": 3526,
      "substitui": 3527,
      "aper": 3528,
      "melh": 3529,
      "cidade": 3530,
      "ai": 3531,
      "##ificado": 3532,
      "elaboração": 3533,
      "aju": 3534,
      "1994": 3535,
      "test": 3536,
      "tese": 3537,
      "##tude": 3538,
      "ple": 3539,
      "##izados": 3540,
      "fir": 3541,
      "centro": 3542,
      "dada": 3543,
      "especifica": 3544,
      "recursais": 3545,
      "especialmente": 3546,
      "##crática": 3547,
      "propostas": 3548,
      "crian": 3549,
      "emenda": 3550,
      "##guar": 3551,
      "aprovado": 3552,
      "luz": 3553,
      "elétri": 3554,
      "subst": 3555,
      "dívida": 3556,
      "##ts": 3557,
      "2°": 3558,
      "próp": 3559,
      "volu": 3560,
      "traz": 3561,
      "senten": 3562,
      "obst": 3563,
      "existentes": 3564,
      "agricultura": 3565,
      "##peri": 3566,
      "cláus": 3567,
      "gen": 3568,
      "##ações": 3569,
      "##cada": 3570,
      "busca": 3571,
      "diretoria": 3572,
      "anteriormente": 3573,
      "ocor": 3574,
      "carga": 3575,
      "##ronta": 3576,
      "decisões": 3577,
      "fixação": 3578,
      "sil": 3579,
      "média": 3580,
      "violência": 3581,
      "processuais": 3582,
      "questões": 3583,
      "nessa": 3584,
      "estiver": 3585,
      "##tores": 3586,
      "estraté": 3587,
      "fol": 3588,
      "preen": 3589,
      "tributário": 3590,
      "aberto": 3591,
      "articulação": 3592,
      "##emais": 3593,
      "df": 3594,
      "tempor": 3595,
      "rad": 3596,
      "##bit": 3597,
      "consequ": 3598,
      "ev": 3599,
      "gest": 3600,
      "meios": 3601,
      "discri": 3602,
      "receber": 3603,
      "rev": 3604,
      "fé": 3605,
      "terras": 3606,
      "cientí": 3607,
      "deleg": 3608,
      "gas": 3609,
      "perten": 3610,
      "razo": 3611,
      "substituição": 3612,
      "##todo": 3613,
      "indúst": 3614,
      "relativa": 3615,
      "cursos": 3616,
      "##ílio": 3617,
      "advogado": 3618,
      "arm": 3619,
      "física": 3620,
      "legit": 3621,
      "##ceu": 3622,
      "previs": 3623,
      "títulos": 3624,
      "inferior": 3625,
      "relev": 3626,
      "casa": 3627,
      "trt1": 3628,
      "sof": 3629,
      "aé": 3630,
      "##utu": 3631,
      "comiss": 3632,
      "pec": 3633,
      "##gráficas": 3634,
      "fre": 3635,
      "parcela": 3636,
      "bol": 3637,
      "##ial": 3638,
      "anteriores": 3639,
      "diss": 3640,
      "amaz": 3641,
      "delibera": 3642,
      "força": 3643,
      "apar": 3644,
      "##iminar": 3645,
      "eletr": 3646,
      "##voca": 3647,
      "alien": 3648,
      "##mentais": 3649,
      "í": 3650,
      "##bo": 3651,
      "procurador": 3652,
      "disso": 3653,
      "##cons": 3654,
      "jurisdição": 3655,
      "déb": 3656,
      "quer": 3657,
      "##ixa": 3658,
      "##comun": 3659,
      "grupos": 3660,
      "alteração": 3661,
      "comple": 3662,
      "materiais": 3663,
      "##edades": 3664,
      "especific": 3665,
      "##inci": 3666,
      "##rão": 3667,
      "colegiado": 3668,
      "prorrog": 3669,
      "##roga": 3670,
      "abre": 3671,
      "##hos": 3672,
      "##xim": 3673,
      "visando": 3674,
      "relatoria": 3675,
      "concil": 3676,
      "competências": 3677,
      "seguro": 3678,
      "##1o": 3679,
      "desses": 3680,
      "calcul": 3681,
      "##gio": 3682,
      "emin": 3683,
      "sele": 3684,
      "gab": 3685,
      "contexto": 3686,
      "pá": 3687,
      "depos": 3688,
      "novas": 3689,
      "custos": 3690,
      "##gado": 3691,
      "apresentar": 3692,
      "ób": 3693,
      "##mara": 3694,
      "##fi": 3695,
      "##rir": 3696,
      "excesso": 3697,
      "impac": 3698,
      "próprios": 3699,
      "lado": 3700,
      "##dic": 3701,
      "aplicada": 3702,
      "diversos": 3703,
      "pap": 3704,
      "área": 3705,
      "sera": 3706,
      "supervision": 3707,
      "ademais": 3708,
      "mecan": 3709,
      "afronta": 3710,
      "facil": 3711,
      "##rican": 3712,
      "consumo": 3713,
      "inspe": 3714,
      "teori": 3715,
      "tratam": 3716,
      "rendi": 3717,
      "cess": 3718,
      "prazos": 3719,
      "subsid": 3720,
      "danos": 3721,
      "empregados": 3722,
      "las": 3723,
      "antecip": 3724,
      "judiciárias": 3725,
      "independentemente": 3726,
      "acordos": 3727,
      "téc": 3728,
      "salário": 3729,
      "conheço": 3730,
      "estabelecida": 3731,
      "exa": 3732,
      "##lagra": 3733,
      "ess": 3734,
      "representante": 3735,
      "##agens": 3736,
      "##gou": 3737,
      "modelo": 3738,
      "ilegalidade": 3739,
      "##ridos": 3740,
      "manej": 3741,
      "num": 3742,
      "investimentos": 3743,
      "encer": 3744,
      "##ivas": 3745,
      "##anho": 3746,
      "##tério": 3747,
      "acolh": 3748,
      "##endidos": 3749,
      "6o": 3750,
      "importante": 3751,
      "afirma": 3752,
      "processamento": 3753,
      "come": 3754,
      "satis": 3755,
      "considerados": 3756,
      "tu": 3757,
      "realizado": 3758,
      "za": 3759,
      "meta": 3760,
      "cola": 3761,
      "pronun": 3762,
      "tro": 3763,
      "representa": 3764,
      "hi": 3765,
      "disponibil": 3766,
      "autoriza": 3767,
      "cria": 3768,
      "lan": 3769,
      "fundos": 3770,
      "pretensão": 3771,
      "experi": 3772,
      "conflito": 3773,
      "criação": 3774,
      "verbe": 3775,
      "escola": 3776,
      "guar": 3777,
      "dou": 3778,
      "indenização": 3779,
      "transferi": 3780,
      "delito": 3781,
      "##ulado": 3782,
      "orden": 3783,
      "##iza": 3784,
      "prisional": 3785,
      "estão": 3786,
      "critério": 3787,
      "monet": 3788,
      "##tens": 3789,
      "utilizados": 3790,
      "##úde": 3791,
      "mercadorias": 3792,
      "##leo": 3793,
      "prestar": 3794,
      "marin": 3795,
      "uni": 3796,
      "saúde": 3797,
      "maneira": 3798,
      "ic": 3799,
      "câmara": 3800,
      "reforço": 3801,
      "representação": 3802,
      "meu": 3803,
      "ambiental": 3804,
      "patri": 3805,
      "política": 3806,
      "mera": 3807,
      "##mou": 3808,
      "formal": 3809,
      "receitas": 3810,
      "seis": 3811,
      "assem": 3812,
      "saber": 3813,
      "omissão": 3814,
      "obrigação": 3815,
      "orientação": 3816,
      "consta": 3817,
      "et": 3818,
      "lhes": 3819,
      "apuração": 3820,
      "aplicar": 3821,
      "##atos": 3822,
      "abrang": 3823,
      "##uma": 3824,
      "penais": 3825,
      "varia": 3826,
      "reajust": 3827,
      "preench": 3828,
      "##bele": 3829,
      "##porte": 3830,
      "contradit": 3831,
      "mulheres": 3832,
      "autor": 3833,
      "maj": 3834,
      "idade": 3835,
      "apresentação": 3836,
      "cha": 3837,
      "##uns": 3838,
      "reman": 3839,
      "pressupostos": 3840,
      "zavas": 3841,
      "fática": 3842,
      "profess": 3843,
      "nota": 3844,
      "legalidade": 3845,
      "##ron": 3846,
      "##endida": 3847,
      "##ciar": 3848,
      "fec": 3849,
      "##cki": 3850,
      "reno": 3851,
      "##los": 3852,
      "dano": 3853,
      "negativa": 3854,
      "500": 3855,
      "##peração": 3856,
      "##ciados": 3857,
      "legislativo": 3858,
      "##usão": 3859,
      "zavascki": 3860,
      "estim": 3861,
      "ativa": 3862,
      "edital": 3863,
      "suprema": 3864,
      "ambos": 3865,
      "diferentes": 3866,
      "associação": 3867,
      "280": 3868,
      "portu": 3869,
      "decisão": 3870,
      "temp": 3871,
      "##vejo": 3872,
      "policial": 3873,
      "xi": 3874,
      "porte": 3875,
      "pontos": 3876,
      "mobil": 3877,
      "determinado": 3878,
      "ilegal": 3879,
      "mol": 3880,
      "##lig": 3881,
      "extinção": 3882,
      "cuj": 3883,
      "indústria": 3884,
      "divis": 3885,
      "observância": 3886,
      "virtual": 3887,
      "necessária": 3888,
      "titulares": 3889,
      "xxx": 3890,
      "visto": 3891,
      "##ficações": 3892,
      "comb": 3893,
      "instrução": 3894,
      "dentre": 3895,
      "abrir": 3896,
      "extre": 3897,
      "lugar": 3898,
      "acess": 3899,
      "avaliar": 3900,
      "domici": 3901,
      "boa": 3902,
      "virtude": 3903,
      "viabil": 3904,
      "##ódia": 3905,
      "jor": 3906,
      "tratado": 3907,
      "livre": 3908,
      "reje": 3909,
      "govern": 3910,
      "figura": 3911,
      "precedente": 3912,
      "contratantes": 3913,
      "##eu": 3914,
      "mud": 3915,
      "compromis": 3916,
      "conferi": 3917,
      "##ng": 3918,
      "##liminar": 3919,
      "inteiro": 3920,
      "súmulas": 3921,
      "parcialmente": 3922,
      "##erem": 3923,
      "contraditório": 3924,
      "violência": 3925,
      "##quo": 3926,
      "atrav": 3927,
      "movi": 3928,
      "##cados": 3929,
      "acre": 3930,
      "obed": 3931,
      "restaura": 3932,
      "fab": 3933,
      "flagra": 3934,
      "gradu": 3935,
      "##cumpri": 3936,
      "prescrição": 3937,
      "sí": 3938,
      "utilizado": 3939,
      "moder": 3940,
      "hos": 3941,
      "baixados": 3942,
      "##mula": 3943,
      "mensal": 3944,
      "observa": 3945,
      "preliminar": 3946,
      "geográficas": 3947,
      "##rança": 3948,
      "santa": 3949,
      "##aste": 3950,
      "sumário": 3951,
      "jos": 3952,
      "compor": 3953,
      "posto": 3954,
      "enfr": 3955,
      "referidas": 3956,
      "vistas": 3957,
      "aqueles": 3958,
      "##itude": 3959,
      "administrativos": 3960,
      "anteced": 3961,
      "adotar": 3962,
      "quar": 3963,
      "##gue": 3964,
      "fundamental": 3965,
      "polícia": 3966,
      "dele": 3967,
      "contratação": 3968,
      "##rando": 3969,
      "ministe": 3970,
      "cf": 3971,
      "rodo": 3972,
      "cos": 3973,
      "exter": 3974,
      "disciplinar": 3975,
      "posse": 3976,
      "vencimentos": 3977,
      "horas": 3978,
      "popula": 3979,
      "julgada": 3980,
      "cóp": 3981,
      "fi": 3982,
      "custódia": 3983,
      "melhor": 3984,
      "audito": 3985,
      "##esão": 3986,
      "##judi": 3987,
      "##enciamento": 3988,
      "concreto": 3989,
      "gabine": 3990,
      "##ênt": 3991,
      "infração": 3992,
      "pla": 3993,
      "debate": 3994,
      "vencimento": 3995,
      "possibil": 3996,
      "##cidas": 3997,
      "assinado": 3998,
      "histo": 3999,
      "fech": 4000,
      "reitera": 4001,
      "rever": 4002,
      "trabalhadores": 4003,
      "dif": 4004,
      "efetiva": 4005,
      "minha": 4006,
      "alíquo": 4007,
      "##onomia": 4008,
      "motivo": 4009,
      "observadas": 4010,
      "banc": 4011,
      "##rização": 4012,
      "presentes": 4013,
      "preten": 4014,
      "consumidor": 4015,
      "##édio": 4016,
      "##cito": 4017,
      "ps": 4018,
      "##íveis": 4019,
      "pers": 4020,
      "estatuto": 4021,
      "pág": 4022,
      "deu": 4023,
      "##logia": 4024,
      "##itura": 4025,
      "terceiros": 4026,
      "##ácia": 4027,
      "lav": 4028,
      "incorpora": 4029,
      "ação": 4030,
      "regulament": 4031,
      "papel": 4032,
      "complex": 4033,
      "pleno": 4034,
      "verbete": 4035,
      "public": 4036,
      "extraordinária": 4037,
      "possa": 4038,
      "tramit": 4039,
      "##emun": 4040,
      "longo": 4041,
      "bi": 4042,
      "observados": 4043,
      "possam": 4044,
      "réu": 4045,
      "##pet": 4046,
      "ating": 4047,
      "estabelecimentos": 4048,
      "teria": 4049,
      "negou": 4050,
      "lat": 4051,
      "sujeito": 4052,
      "##áut": 4053,
      "arbit": 4054,
      "parce": 4055,
      "industrial": 4056,
      "rem": 4057,
      "impetrante": 4058,
      "##ísticas": 4059,
      "1989": 4060,
      "extensão": 4061,
      "confi": 4062,
      "possui": 4063,
      "fiscaliz": 4064,
      "gratu": 4065,
      "##validados": 4066,
      "dizer": 4067,
      "##ua": 4068,
      "##utela": 4069,
      "##estre": 4070,
      "flagrante": 4071,
      "terão": 4072,
      "situações": 4073,
      "governa": 4074,
      "decorrência": 4075,
      "tributária": 4076,
      "alg": 4077,
      "##gada": 4078,
      "complement": 4079,
      "##ecimento": 4080,
      "respectivamente": 4081,
      "organizações": 4082,
      "decidido": 4083,
      "##arqu": 4084,
      "##guai": 4085,
      "sociedades": 4086,
      "considerar": 4087,
      "testemun": 4088,
      "preço": 4089,
      "líqu": 4090,
      "##rais": 4091,
      "barb": 4092,
      "locais": 4093,
      "dessas": 4094,
      "separa": 4095,
      "##erão": 4096,
      "ocas": 4097,
      "eminente": 4098,
      "##onáut": 4099,
      "alegada": 4100,
      "ensej": 4101,
      "radio": 4102,
      "irre": 4103,
      "sen": 4104,
      "rest": 4105,
      "edson": 4106,
      "argumento": 4107,
      "formas": 4108,
      "comprovação": 4109,
      "cobrança": 4110,
      "##ust": 4111,
      "xvi": 4112,
      "##atórios": 4113,
      "proveni": 4114,
      "exced": 4115,
      "requerente": 4116,
      "bal": 4117,
      "funcional": 4118,
      "produtividade": 4119,
      "havendo": 4120,
      "grav": 4121,
      "##tenção": 4122,
      "terceiro": 4123,
      "administrativas": 4124,
      "colabora": 4125,
      "lista": 4126,
      "##aqu": 4127,
      "inici": 4128,
      "diplo": 4129,
      "fixado": 4130,
      "##ento": 4131,
      "através": 4132,
      "alguns": 4133,
      "dado": 4134,
      "programação": 4135,
      "exploração": 4136,
      "tão": 4137,
      "##ude": 4138,
      "##teriores": 4139,
      "entende": 4140,
      "fortal": 4141,
      "quantita": 4142,
      "vers": 4143,
      "##eda": 4144,
      "informação": 4145,
      "investimento": 4146,
      "##venção": 4147,
      "comarca": 4148,
      "##eição": 4149,
      "cadastro": 4150,
      "eletrô": 4151,
      "tari": 4152,
      "av": 4153,
      "mantida": 4154,
      "página": 4155,
      "estri": 4156,
      "##corrência": 4157,
      "preços": 4158,
      "implantação": 4159,
      "aplicável": 4160,
      "entrega": 4161,
      "rs": 4162,
      "agro": 4163,
      "aeronáut": 4164,
      "legisl": 4165,
      "##quanto": 4166,
      "##chin": 4167,
      "reconhecida": 4168,
      "##áticas": 4169,
      "disposição": 4170,
      "##gas": 4171,
      "grave": 4172,
      "determinação": 4173,
      "perda": 4174,
      "##ere": 4175,
      "cres": 4176,
      "##ato": 4177,
      "112": 4178,
      "último": 4179,
      "invi": 4180,
      "supervisionar": 4181,
      "conven": 4182,
      "vincula": 4183,
      "instâncias": 4184,
      "situação": 4185,
      "##iras": 4186,
      "##dad": 4187,
      "##10": 4188,
      "##astecimento": 4189,
      "##atura": 4190,
      "indicadores": 4191,
      "gabinete": 4192,
      "alex": 4193,
      "judiciária": 4194,
      "##ídu": 4195,
      "lig": 4196,
      "incluindo": 4197,
      "executiva": 4198,
      "emissão": 4199,
      "fixada": 4200,
      "proporcional": 4201,
      "##comunicações": 4202,
      "revela": 4203,
      "##endas": 4204,
      "portaria": 4205,
      "exportação": 4206,
      "##feito": 4207,
      "lucro": 4208,
      "dispens": 4209,
      "â": 4210,
      "ór": 4211,
      "glo": 4212,
      "sucess": 4213,
      "condicion": 4214,
      "##ítima": 4215,
      "constitui": 4216,
      "##icamente": 4217,
      "iniciativa": 4218,
      "barbosa": 4219,
      "diário": 4220,
      "autorizada": 4221,
      "ilíci": 4222,
      "privadas": 4223,
      "principal": 4224,
      "conversão": 4225,
      "estudo": 4226,
      "mandato": 4227,
      "ago": 4228,
      "los": 4229,
      "descumpri": 4230,
      "pros": 4231,
      "##bre": 4232,
      "requerimento": 4233,
      "##ntese": 4234,
      "obra": 4235,
      "patrimon": 4236,
      "emer": 4237,
      "desemb": 4238,
      "##ficul": 4239,
      "##ím": 4240,
      "##gãos": 4241,
      "##ixo": 4242,
      "referência": 4243,
      "amea": 4244,
      "contado": 4245,
      "órgãos": 4246,
      "contribuinte": 4247,
      "vên": 4248,
      "juízes": 4249,
      "##íg": 4250,
      "formaliz": 4251,
      "transform": 4252,
      "##gens": 4253,
      "##cla": 4254,
      "##ítulo": 4255,
      "assessoramento": 4256,
      "##ct": 4257,
      "solução": 4258,
      "adoção": 4259,
      "competentes": 4260,
      "anexos": 4261,
      "admiss": 4262,
      "fachin": 4263,
      "eng": 4264,
      "##nas": 4265,
      "privado": 4266,
      "justifica": 4267,
      "litig": 4268,
      "alcance": 4269,
      "##ribilidade": 4270,
      "##dif": 4271,
      "vag": 4272,
      "##utor": 4273,
      "certo": 4274,
      "indicados": 4275,
      "firmado": 4276,
      "reme": 4277,
      "categoria": 4278,
      "elaborar": 4279,
      "socio": 4280,
      "conflitos": 4281,
      "operacional": 4282,
      "jorn": 4283,
      "exigência": 4284,
      "fundação": 4285,
      "##izadas": 4286,
      "##onas": 4287,
      "282": 4288,
      "nd": 4289,
      "poderia": 4290,
      "situado": 4291,
      "assembl": 4292,
      "poten": 4293,
      "irreg": 4294,
      "previsão": 4295,
      "##fera": 4296,
      "dificul": 4297,
      "7o": 4298,
      "##tam": 4299,
      "destinadas": 4300,
      "343": 4301,
      "efetivos": 4302,
      "##ticamente": 4303,
      "opin": 4304,
      "equivalente": 4305,
      "cru": 4306,
      "improvido": 4307,
      "fos": 4308,
      "possível": 4309,
      "dimin": 4310,
      "secreta": 4311,
      "autarqu": 4312,
      "##radas": 4313,
      "judiciária": 4314,
      "##tel": 4315,
      "sujeitos": 4316,
      "estão": 4317,
      "aproxim": 4318,
      "##19": 4319,
      "writ": 4320,
      "ms": 4321,
      "##ará": 4322,
      "abastecimento": 4323,
      "discrimin": 4324,
      "joaqu": 4325,
      "##fas": 4326,
      "##ficácia": 4327,
      "comput": 4328,
      "##andre": 4329,
      "pensão": 4330,
      "joaquim": 4331,
      "escl": 4332,
      "técnicos": 4333,
      "indicação": 4334,
      "##ancel": 4335,
      "repar": 4336,
      "margem": 4337,
      "##ndes": 4338,
      "absolu": 4339,
      "âmbito": 4340,
      "proib": 4341,
      "máqu": 4342,
      "estratég": 4343,
      "##érios": 4344,
      "imediatamente": 4345,
      "privada": 4346,
      "##cante": 4347,
      "##itais": 4348,
      "##ônia": 4349,
      "fg": 4350,
      "acusado": 4351,
      "aspectos": 4352,
      "1973": 4353,
      "elétrica": 4354,
      "021": 4355,
      "progress": 4356,
      "0000": 4357,
      "detal": 4358,
      "alcanç": 4359,
      "prepara": 4360,
      "extrajudi": 4361,
      "##ária": 4362,
      "##ínio": 4363,
      "##ít": 4364,
      "##fei": 4365,
      "adequada": 4366,
      "##tória": 4367,
      "passo": 4368,
      "arrecadação": 4369,
      "monitoramento": 4370,
      "aprove": 4371,
      "notificação": 4372,
      "conhecer": 4373,
      "##pi": 4374,
      "##cando": 4375,
      "recolhimento": 4376,
      "arg": 4377,
      "marinha": 4378,
      "alexandre": 4379,
      "far": 4380,
      "cla": 4381,
      "##anha": 4382,
      "saldo": 4383,
      "hosp": 4384,
      "agora": 4385,
      "##dicos": 4386,
      "##xx": 4387,
      "resci": 4388,
      "##metro": 4389,
      "desprovejo": 4390,
      "diminu": 4391,
      "justificadamente": 4392,
      "##postas": 4393,
      "elas": 4394,
      "relativo": 4395,
      "##cant": 4396,
      "pretende": 4397,
      "instalação": 4398,
      "##adequ": 4399,
      "recorribilidade": 4400,
      "básico": 4401,
      "##emos": 4402,
      "##ono": 4403,
      "aquele": 4404,
      "infraestrutura": 4405,
      "escrito": 4406,
      "referente": 4407,
      "expressa": 4408,
      "defens": 4409,
      "destinado": 4410,
      "##30": 4411,
      "segurança": 4412,
      "igualmente": 4413,
      "orientar": 4414,
      "##itantes": 4415,
      "suficiente": 4416,
      "susci": 4417,
      "imediata": 4418,
      "discussão": 4419,
      "##erá": 4420,
      "desenvolver": 4421,
      "ocupantes": 4422,
      "liquidação": 4423,
      "##feiço": 4424,
      "##ati": 4425,
      "gestor": 4426,
      "sex": 4427,
      "civis": 4428,
      "classificação": 4429,
      "acu": 4430,
      "alun": 4431,
      "insufici": 4432,
      "##unção": 4433,
      "inclusão": 4434,
      "assum": 4435,
      "isenção": 4436,
      "enfrent": 4437,
      "ocorrer": 4438,
      "##ferências": 4439,
      "150": 4440,
      "motiv": 4441,
      "impr": 4442,
      "##ército": 4443,
      "vari": 4444,
      "mesmos": 4445,
      "##cimentos": 4446,
      "##raz": 4447,
      "moral": 4448,
      "vice": 4449,
      "##oso": 4450,
      "improced": 4451,
      "monocrática": 4452,
      "mg": 4453,
      "devedor": 4454,
      "correspondentes": 4455,
      "cred": 4456,
      "##́pios": 4457,
      "abertura": 4458,
      "pendentes": 4459,
      "##idores": 4460,
      "##esar": 4461,
      "varas": 4462,
      "1992": 4463,
      "metodo": 4464,
      "reuni": 4465,
      "mic": 4466,
      "combate": 4467,
      "##iquem": 4468,
      "##vados": 4469,
      "políticas": 4470,
      "trabalhos": 4471,
      "##tice": 4472,
      "##icou": 4473,
      "seguir": 4474,
      "participar": 4475,
      "reserv": 4476,
      "correção": 4477,
      "importância": 4478,
      "agência": 4479,
      "forças": 4480,
      "assentou": 4481,
      "##vou": 4482,
      "planejar": 4483,
      "unidas": 4484,
      "inovação": 4485,
      "convalidados": 4486,
      "aperfeiço": 4487,
      "instalações": 4488,
      "parcelas": 4489,
      "consulta": 4490,
      "técnicas": 4491,
      "implica": 4492,
      "executar": 4493,
      "##ín": 4494,
      "vér": 4495,
      "eficácia": 4496,
      "subje": 4497,
      "acion": 4498,
      "inscrição": 4499,
      "auxílio": 4500,
      "veículos": 4501,
      "contudo": 4502,
      "caracter": 4503,
      "be": 4504,
      "##hia": 4505,
      "reta": 4506,
      "##enciado": 4507,
      "pret": 4508,
      "folha": 4509,
      "estabelece": 4510,
      "exército": 4511,
      "pi": 4512,
      "atuação": 4513,
      "víti": 4514,
      "##tidas": 4515,
      "mecanismos": 4516,
      "eta": 4517,
      "seguridade": 4518,
      "sig": 4519,
      "defenso": 4520,
      "intermédio": 4521,
      "##segu": 4522,
      "fixados": 4523,
      "diploma": 4524,
      "julgados": 4525,
      "vencido": 4526,
      "contar": 4527,
      "realizados": 4528,
      "ó": 4529,
      "imo": 4530,
      "prat": 4531,
      "rj": 4532,
      "##itário": 4533,
      "confront": 4534,
      "conselhos": 4535,
      "apelo": 4536,
      "moraes": 4537,
      "inscri": 4538,
      "nenhuma": 4539,
      "urg": 4540,
      "apropri": 4541,
      "##ân": 4542,
      "competência": 4543,
      "tutela": 4544,
      "##iários": 4545,
      "matérias": 4546,
      "vértice": 4547,
      "##ques": 4548,
      "domicil": 4549,
      "despor": 4550,
      "garantias": 4551,
      "tradi": 4552,
      "compara": 4553,
      "##propri": 4554,
      "depósito": 4555,
      "ativos": 4556,
      "##plom": 4557,
      "instaura": 4558,
      "territo": 4559,
      "óbice": 4560,
      "cad": 4561,
      "##ritto": 4562,
      "empregado": 4563,
      "falar": 4564,
      "1a": 4565,
      "##rismo": 4566,
      "##́stica": 4567,
      "1986": 4568,
      "##metros": 4569,
      "imun": 4570,
      "inviabilidade": 4571,
      "específico": 4572,
      "taxas": 4573,
      "##itadas": 4574,
      "ul": 4575,
      "síntese": 4576,
      "compar": 4577,
      "cham": 4578,
      "##dig": 4579,
      "criminais": 4580,
      "recomenda": 4581,
      "conservação": 4582,
      "advogados": 4583,
      "temas": 4584,
      "##entos": 4585,
      "##irmar": 4586,
      "rumo": 4587,
      "porquanto": 4588,
      "##volução": 4589,
      "adolescentes": 4590,
      "deficiência": 4591,
      "verdad": 4592,
      "nós": 4593,
      "prec": 4594,
      "esfera": 4595,
      "entrev": 4596,
      "efetivamente": 4597,
      "homolo": 4598,
      "vagas": 4599,
      "ôn": 4600,
      "aduan": 4601,
      "##wgr": 4602,
      "atuar": 4603,
      "vedada": 4604,
      "##mbio": 4605,
      "cam": 4606,
      "comunidade": 4607,
      "cópia": 4608,
      "constrang": 4609,
      "promul": 4610,
      "##ologia": 4611,
      "rendimentos": 4612,
      "privativa": 4613,
      "família": 4614,
      "estejam": 4615,
      "sessenta": 4616,
      "cou": 4617,
      "companhia": 4618,
      "question": 4619,
      "conceder": 4620,
      "supressão": 4621,
      "universidade": 4622,
      "demandas": 4623,
      "recomend": 4624,
      "complementares": 4625,
      "cancel": 4626,
      "vem": 4627,
      "diplom": 4628,
      "logo": 4629,
      "teve": 4630,
      "inviável": 4631,
      "dj": 4632,
      "convênios": 4633,
      "administração": 4634,
      "nada": 4635,
      "normativo": 4636,
      "apresenta": 4637,
      "recuperação": 4638,
      "capítulo": 4639,
      "validade": 4640,
      "risc": 4641,
      "##ste": 4642,
      "turmas": 4643,
      "descumprimento": 4644,
      "##endidas": 4645,
      "##cente": 4646,
      "petição": 4647,
      "inss": 4648,
      "deduz": 4649,
      "preso": 4650,
      "transportes": 4651,
      "surg": 4652,
      "telecomunicações": 4653,
      "##sta": 4654,
      "incon": 4655,
      "##damento": 4656,
      "supervisão": 4657,
      "##pas": 4658,
      "constitucionalidade": 4659,
      "fabri": 4660,
      "ofere": 4661,
      "resol": 4662,
      "##arg": 4663,
      "identificação": 4664,
      "sala": 4665,
      "intro": 4666,
      "american": 4667,
      "penas": 4668,
      "##gedo": 4669,
      "julgamentos": 4670,
      "divergência": 4671,
      "examin": 4672,
      "nações": 4673,
      "ativo": 4674,
      "declaratórios": 4675,
      "classifica": 4676,
      "necessidades": 4677,
      "determinada": 4678,
      "can": 4679,
      "sistemática": 4680,
      "incorporação": 4681,
      "##imp": 4682,
      "##centes": 4683,
      "concession": 4684,
      "ministérios": 4685,
      "básica": 4686,
      "comprome": 4687,
      "adotada": 4688,
      "urban": 4689,
      "##ices": 4690,
      "compensação": 4691,
      "governos": 4692,
      "apresentou": 4693,
      "definitiva": 4694,
      "alternativas": 4695,
      "potencial": 4696,
      "riscos": 4697,
      "acompanho": 4698,
      "deri": 4699,
      "apesar": 4700,
      "relevante": 4701,
      "seção": 4702,
      "inadequ": 4703,
      "##pens": 4704,
      "última": 4705,
      "pací": 4706,
      "responsáveis": 4707,
      "daquela": 4708,
      "pis": 4709,
      "examinar": 4710,
      "ama": 4711,
      "nenhum": 4712,
      "responsabil": 4713,
      "recebidos": 4714,
      "apoiar": 4715,
      "rodovi": 4716,
      "3°": 4717,
      "efetiv": 4718,
      "bahia": 4719,
      "auditoria": 4720,
      "aére": 4721,
      "baixa": 4722,
      "esteja": 4723,
      "complementação": 4724,
      "principais": 4725,
      "torna": 4726,
      "verificar": 4727,
      "##ob": 4728,
      "três": 4729,
      "8o": 4730,
      "ingresso": 4731,
      "junta": 4732,
      "verifica": 4733,
      "tip": 4734,
      "##cí": 4735,
      "caberá": 4736,
      "aprovados": 4737,
      "candid": 4738,
      "naqu": 4739,
      "incumb": 4740,
      "carreiras": 4741,
      "##ingu": 4742,
      "levant": 4743,
      "tornar": 4744,
      "##ud": 4745,
      "evitar": 4746,
      "quin": 4747,
      "consideradas": 4748,
      "bru": 4749,
      "suspens": 4750,
      "##lia": 4751,
      "dispor": 4752,
      "permitir": 4753,
      "provenientes": 4754,
      "##́ticas": 4755,
      "analisar": 4756,
      "classific": 4757,
      "##ring": 4758,
      "agrária": 4759,
      "veic": 4760,
      "fran": 4761,
      "contados": 4762,
      "fontes": 4763,
      "telef": 4764,
      "entor": 4765,
      "esfor": 4766,
      "##tir": 4767,
      "armas": 4768,
      "cultural": 4769,
      "##22": 4770,
      "casu": 4771,
      "vale": 4772,
      "conteú": 4773,
      "relativamente": 4774,
      "##aran": 4775,
      "disti": 4776,
      "##enças": 4777,
      "constrangimento": 4778,
      "tjr": 4779,
      "índice": 4780,
      "municipais": 4781,
      "nele": 4782,
      "vantagens": 4783,
      "vênia": 4784,
      "##essa": 4785,
      "modern": 4786,
      "##cle": 4787,
      "presença": 4788,
      "cumprir": 4789,
      "corregedo": 4790,
      "segurado": 4791,
      "modalidade": 4792,
      "solicitação": 4793,
      "indispon": 4794,
      "submeter": 4795,
      "alienação": 4796,
      "consolid": 4797,
      "reti": 4798,
      "entanto": 4799,
      "confiança": 4800,
      "mal": 4801,
      "##inho": 4802,
      "eventuais": 4803,
      "zona": 4804,
      "provent": 4805,
      "##anda": 4806,
      "observar": 4807,
      "isto": 4808,
      "##aro": 4809,
      "multi": 4810,
      "deveria": 4811,
      "##ística": 4812,
      "##dura": 4813,
      "certificado": 4814,
      "post": 4815,
      "diverso": 4816,
      "tran": 4817,
      "recorrida": 4818,
      "conso": 4819,
      "santo": 4820,
      "##ond": 4821,
      "corpo": 4822,
      "definição": 4823,
      "oriun": 4824,
      "reclama": 4825,
      "silva": 4826,
      "advoca": 4827,
      "britto": 4828,
      "##ap": 4829,
      "legislador": 4830,
      "##itamento": 4831,
      "alf": 4832,
      "##neo": 4833,
      "passam": 4834,
      "níveis": 4835,
      "congestionamento": 4836,
      "mat": 4837,
      "tributos": 4838,
      "defensoria": 4839,
      "##uras": 4840,
      "##são": 4841,
      "legitimidade": 4842,
      "acab": 4843,
      "posição": 4844,
      "##rint": 4845,
      "pedidos": 4846,
      "##cionados": 4847,
      "arma": 4848,
      "definidos": 4849,
      "ausente": 4850,
      "ônus": 4851,
      "pertinentes": 4852,
      "observada": 4853,
      "##éri": 4854,
      "##dução": 4855,
      "associa": 4856,
      "##tador": 4857,
      "habitantes": 4858,
      "identidade": 4859,
      "bio": 4860,
      "comunicação": 4861,
      "mim": 4862,
      "prevenção": 4863,
      "decidir": 4864,
      "vinculante": 4865,
      "##́di": 4866,
      "impacto": 4867,
      "##iada": 4868,
      "habilitação": 4869,
      "remo": 4870,
      "##volvimento": 4871,
      "##stra": 4872,
      "356": 4873,
      "pequeno": 4874,
      "conferência": 4875,
      "concent": 4876,
      "ine": 4877,
      "cata": 4878,
      "reinci": 4879,
      "alo": 4880,
      "mista": 4881,
      "beneficiário": 4882,
      "comissão": 4883,
      "havia": 4884,
      "trabalhador": 4885,
      "desapropri": 4886,
      "##one": 4887,
      "norm": 4888,
      "edição": 4889,
      "democra": 4890,
      "cabimento": 4891,
      "entender": 4892,
      "realização": 4893,
      "advocacia": 4894,
      "maria": 4895,
      "porto": 4896,
      "120": 4897,
      "##neas": 4898,
      "ima": 4899,
      "definir": 4900,
      "pertinente": 4901,
      "ced": 4902,
      "aduz": 4903,
      "estratég": 4904,
      "legislativa": 4905,
      "nav": 4906,
      "fundamentada": 4907,
      "códi": 4908,
      "##dora": 4909,
      "fez": 4910,
      "simil": 4911,
      "cart": 4912,
      "##unciado": 4913,
      "adicionais": 4914,
      "flores": 4915,
      "lab": 4916,
      "conveni": 4917,
      "##árias": 4918,
      "cz": 4919,
      "manifestação": 4920,
      "arquiv": 4921,
      "preceitos": 4922,
      "##vios": 4923,
      "adequado": 4924,
      "opção": 4925,
      "prescri": 4926,
      "th": 4927,
      "gravidade": 4928,
      "eletrô": 4929,
      "inviabil": 4930,
      "##ício": 4931,
      "##ntas": 4932,
      "forn": 4933,
      "verificação": 4934,
      "entes": 4935,
      "autent": 4936,
      "argent": 4937,
      "##fun": 4938,
      "##tria": 4939,
      "composição": 4940,
      "##põe": 4941,
      "preserv": 4942,
      "oportunidade": 4943,
      "previa": 4944,
      "retor": 4945,
      "##dir": 4946,
      "vedado": 4947,
      "##itando": 4948,
      "equipe": 4949,
      "licença": 4950,
      "direto": 4951,
      "indicar": 4952,
      "armadas": 4953,
      "fundamentais": 4954,
      "eletrônico": 4955,
      "imput": 4956,
      "##enham": 4957,
      "interessado": 4958,
      "têm": 4959,
      "##ique": 4960,
      "detalh": 4961,
      "front": 4962,
      "regulamentação": 4963,
      "algumas": 4964,
      "##vocat": 4965,
      "repro": 4966,
      "aquela": 4967,
      "penit": 4968,
      "##namb": 4969,
      "identificar": 4970,
      "compon": 4971,
      "trabalhista": 4972,
      "verdade": 4973,
      "jurídica": 4974,
      "inadmissível": 4975,
      "últi": 4976,
      "aeronáutica": 4977,
      "entorpec": 4978,
      "comando": 4979,
      "##emin": 4980,
      "105": 4981,
      "##cias": 4982,
      "invest": 4983,
      "expressão": 4984,
      "intimação": 4985,
      "relevantes": 4986,
      "permite": 4987,
      "específicas": 4988,
      "admissibilidade": 4989,
      "1987": 4990,
      "algum": 4991,
      "##necess": 4992,
      "nomeação": 4993,
      "restitu": 4994,
      "presos": 4995,
      "aba": 4996,
      "pala": 4997,
      "substitutivo": 4998,
      "condenado": 4999,
      "cruz": 5000,
      "instituído": 5001,
      "proventos": 5002,
      "melhoria": 5003,
      "constituição": 5004,
      "ay": 5005,
      "##́pio": 5006,
      "##art": 5007,
      "iner": 5008,
      "ministério": 5009,
      "##estões": 5010,
      "dout": 5011,
      "mesmas": 5012,
      "indicado": 5013,
      "problemas": 5014,
      "nord": 5015,
      "requisito": 5016,
      "consoante": 5017,
      "parece": 5018,
      "josé": 5019,
      "fornecimento": 5020,
      "##ividade": 5021,
      "consignadas": 5022,
      "##íduos": 5023,
      "##̃e": 5024,
      "diversa": 5025,
      "##endimentos": 5026,
      "afastamento": 5027,
      "naturais": 5028,
      "futu": 5029,
      "subordin": 5030,
      "##ança": 5031,
      "advocat": 5032,
      "mesa": 5033,
      "automa": 5034,
      "quadros": 5035,
      "conclus": 5036,
      "signat": 5037,
      "palav": 5038,
      "estran": 5039,
      "ferro": 5040,
      "expressamente": 5041,
      "assinatura": 5042,
      "restabele": 5043,
      "9o": 5044,
      "ada": 5045,
      "terra": 5046,
      "desprovimento": 5047,
      "hoje": 5048,
      "governamentais": 5049,
      "##nambuco": 5050,
      "advocatícios": 5051,
      "bil": 5052,
      "180": 5053,
      "certid": 5054,
      "aconte": 5055,
      "der": 5056,
      "guarda": 5057,
      "pagar": 5058,
      "cumpre": 5059,
      "103": 5060,
      "jurídico": 5061,
      "indica": 5062,
      "indispens": 5063,
      "##pol": 5064,
      "inqu": 5065,
      "110": 5066,
      "circunstância": 5067,
      "aspecto": 5068,
      "monte": 5069,
      "entretanto": 5070,
      "ala": 5071,
      "##dri": 5072,
      "posit": 5073,
      "investigação": 5074,
      "##tuais": 5075,
      "condenatória": 5076,
      "catarina": 5077,
      "argentina": 5078,
      "conduz": 5079,
      "intel": 5080,
      "superint": 5081,
      "descab": 5082,
      "territórios": 5083,
      "aplicáveis": 5084,
      "requerida": 5085,
      "verb": 5086,
      "aerona": 5087,
      "##ços": 5088,
      "débitos": 5089,
      "conteúdo": 5090,
      "ç": 5091,
      "impostos": 5092,
      "isol": 5093,
      "##iária": 5094,
      "xiii": 5095,
      "##dem": 5096,
      "rg": 5097,
      "fosse": 5098,
      "igualdade": 5099,
      "importa": 5100,
      "pagos": 5101,
      "apresentados": 5102,
      "##dis": 5103,
      "##ciada": 5104,
      "setores": 5105,
      "realidade": 5106,
      "participação": 5107,
      "licitação": 5108,
      "##́l": 5109,
      "vinculadas": 5110,
      "##23": 5111,
      "##tras": 5112,
      "##ença": 5113,
      "monetária": 5114,
      "tecnológica": 5115,
      "resposta": 5116,
      "indevida": 5117,
      "deixar": 5118,
      "nordeste": 5119,
      "proteg": 5120,
      "protel": 5121,
      "tocante": 5122,
      "qui": 5123,
      "estou": 5124,
      "aferi": 5125,
      "ayres": 5126,
      "termin": 5127,
      "193": 5128,
      "patrimonial": 5129,
      "confrontando": 5130,
      "##utas": 5131,
      "médico": 5132,
      "imposição": 5133,
      "concor": 5134,
      "##endendo": 5135,
      "individuais": 5136,
      "det": 5137,
      "orçamentos": 5138,
      "trecho": 5139,
      "balan": 5140,
      "##24": 5141,
      "brasileiros": 5142,
      "pronunciamento": 5143,
      "1964": 5144,
      "convo": 5145,
      "àqu": 5146,
      "concedido": 5147,
      "problema": 5148,
      "estritamente": 5149,
      "divid": 5150,
      "envi": 5151,
      "será": 5152,
      "cláusula": 5153,
      "cof": 5154,
      "##poca": 5155,
      "implementar": 5156,
      "cober": 5157,
      "alguma": 5158,
      "reuniões": 5159,
      "109": 5160,
      "ultra": 5161,
      "incomp": 5162,
      "pernambuco": 5163,
      "ocorreu": 5164,
      "##mino": 5165,
      "mencionados": 5166,
      "00m": 5167,
      "rou": 5168,
      "##pj": 5169,
      "1980": 5170,
      "confirm": 5171,
      "consegu": 5172,
      "lavra": 5173,
      "consideração": 5174,
      "intermed": 5175,
      "amos": 5176,
      "hid": 5177,
      "micro": 5178,
      "##itária": 5179,
      "comet": 5180,
      "##ítulo": 5181,
      "decorre": 5182,
      "sedi": 5183,
      "explora": 5184,
      "corregedoria": 5185,
      "esc": 5186,
      "específicos": 5187,
      "vál": 5188,
      "##alidades": 5189,
      "certa": 5190,
      "##çam": 5191,
      "impugnação": 5192,
      "enquadramento": 5193,
      "morte": 5194,
      "##enciar": 5195,
      "preval": 5196,
      "eventos": 5197,
      "intelig": 5198,
      "fur": 5199,
      "##cera": 5200,
      "infirmar": 5201,
      "erro": 5202,
      "indíg": 5203,
      "comercialização": 5204,
      "motivos": 5205,
      "órg": 5206,
      "contem": 5207,
      "##atórias": 5208,
      "sanções": 5209,
      "população": 5210,
      "##́rica": 5211,
      "##cie": 5212,
      "integrado": 5213,
      "oito": 5214,
      "##ubl": 5215,
      "constat": 5216,
      "responsa": 5217,
      "exercí": 5218,
      "rurais": 5219,
      "pac": 5220,
      "corrig": 5221,
      "##15": 5222,
      "##iões": 5223,
      "exigências": 5224,
      "couber": 5225,
      "escolha": 5226,
      "armaz": 5227,
      "órgão": 5228,
      "candidatos": 5229,
      "exteriores": 5230,
      "aquelas": 5231,
      "global": 5232,
      "parâ": 5233,
      "industri": 5234,
      "soma": 5235,
      "domínio": 5236,
      "fiz": 5237,
      "séri": 5238,
      "##ps": 5239,
      "concer": 5240,
      "conceito": 5241,
      "características": 5242,
      "após": 5243,
      "##ôm": 5244,
      "gastos": 5245,
      "inexist": 5246,
      "ouvido": 5247,
      "##sidade": 5248,
      "previamente": 5249,
      "seção": 5250,
      "juí": 5251,
      "comunicações": 5252,
      "serviço": 5253,
      "perm": 5254,
      "superintend": 5255,
      "causas": 5256,
      "tudo": 5257,
      "verba": 5258,
      "contratual": 5259,
      "##ania": 5260,
      "pessoais": 5261,
      "registros": 5262,
      "sentenças": 5263,
      "atenção": 5264,
      "##ôsto": 5265,
      "públicas": 5266,
      "preceito": 5267,
      "pacífica": 5268,
      "avaliação": 5269,
      "mú": 5270,
      "##rést": 5271,
      "##itou": 5272,
      "desapropriação": 5273,
      "fogo": 5274,
      "aplicam": 5275,
      "continuidade": 5276,
      "tenho": 5277,
      "esto": 5278,
      "paradig": 5279,
      "bor": 5280,
      "aplicado": 5281,
      "1ª": 5282,
      "internos": 5283,
      "adesão": 5284,
      "formulação": 5285,
      "merece": 5286,
      "superveni": 5287,
      "abaixo": 5288,
      "abuso": 5289,
      "##arre": 5290,
      "person": 5291,
      "##estra": 5292,
      "mundo": 5293,
      "capacitação": 5294,
      "mencionado": 5295,
      "digitalmente": 5296,
      "compromisso": 5297,
      "##inheiro": 5298,
      "##nou": 5299,
      "reconhecer": 5300,
      "itens": 5301,
      "##cionamento": 5302,
      "sobera": 5303,
      "única": 5304,
      "##iário": 5305,
      "adequação": 5306,
      "reci": 5307,
      "obter": 5308,
      "ambas": 5309,
      "esclare": 5310,
      "adolescente": 5311,
      "2a": 5312,
      "âng": 5313,
      "demonstração": 5314,
      "debat": 5315,
      "##ídos": 5316,
      "##adoras": 5317,
      "meramente": 5318,
      "cumula": 5319,
      "inapl": 5320,
      "comission": 5321,
      "usando": 5322,
      "maran": 5323,
      "##ww": 5324,
      "notific": 5325,
      "influ": 5326,
      "indeferimento": 5327,
      "fornecer": 5328,
      "##edu": 5329,
      "proferido": 5330,
      "##cionar": 5331,
      "##capa": 5332,
      "afastar": 5333,
      "apresentadas": 5334,
      "espaço": 5335,
      "autorizar": 5336,
      "físicas": 5337,
      "formul": 5338,
      "cautelares": 5339,
      "estip": 5340,
      "desaf": 5341,
      "##iados": 5342,
      "fís": 5343,
      "regulamentos": 5344,
      "entrará": 5345,
      "divulgação": 5346,
      "691": 5347,
      "reunião": 5348,
      "seman": 5349,
      "definido": 5350,
      "classes": 5351,
      "consid": 5352,
      "tomada": 5353,
      "código": 5354,
      "idênt": 5355,
      "consolidação": 5356,
      "##dial": 5357,
      "série": 5358,
      "uru": 5359,
      "emprést": 5360,
      "nomin": 5361,
      "incidente": 5362,
      "gratuita": 5363,
      "mem": 5364,
      "parágrafos": 5365,
      "sujeita": 5366,
      "ig": 5367,
      "propriet": 5368,
      "moldura": 5369,
      "##ularidade": 5370,
      "institucionais": 5371,
      "aplicação": 5372,
      "qualificação": 5373,
      "graduação": 5374,
      "noti": 5375,
      "alíquota": 5376,
      "organismos": 5377,
      "definidas": 5378,
      "##oral": 5379,
      "fechado": 5380,
      "##mentada": 5381,
      "pouco": 5382,
      "país": 5383,
      "população": 5384,
      "idô": 5385,
      "exige": 5386,
      "convênio": 5387,
      "líquido": 5388,
      "contá": 5389,
      "objetiv": 5390,
      "diferença": 5391,
      "##ariamente": 5392,
      "residência": 5393,
      "pecu": 5394,
      "atua": 5395,
      "princip": 5396,
      "clara": 5397,
      "tre−": 5398,
      "maranh": 5399,
      "prejud": 5400,
      "inc": 5401,
      "supl": 5402,
      "ficar": 5403,
      "##árqu": 5404,
      "absol": 5405,
      "ordenamento": 5406,
      "deput": 5407,
      "##cin": 5408,
      "##inhas": 5409,
      "solução": 5410,
      "revogação": 5411,
      "oferta": 5412,
      "pago": 5413,
      "depende": 5414,
      "##cou": 5415,
      "água": 5416,
      "deline": 5417,
      "acervo": 5418,
      "candida": 5419,
      "semestre": 5420,
      "permanecer": 5421,
      "autom": 5422,
      "##cosul": 5423,
      "##utores": 5424,
      "ide": 5425,
      "beneficiários": 5426,
      "ângulo": 5427,
      "duração": 5428,
      "solicitar": 5429,
      "##rícol": 5430,
      "coletivo": 5431,
      "##11": 5432,
      "ocasião": 5433,
      "##vem": 5434,
      "destinada": 5435,
      "##onância": 5436,
      "subscri": 5437,
      "prefer": 5438,
      "##rum": 5439,
      "envolvidos": 5440,
      "suficientes": 5441,
      "fu": 5442,
      "tiv": 5443,
      "compra": 5444,
      "culturais": 5445,
      "cláusulas": 5446,
      "##iram": 5447,
      "##grá": 5448,
      "adquirido": 5449,
      "cujos": 5450,
      "nc": 5451,
      "interc": 5452,
      "reform": 5453,
      "proceder": 5454,
      "##ridas": 5455,
      "300": 5456,
      "##inde": 5457,
      "então": 5458,
      "sindica": 5459,
      "atualização": 5460,
      "comunidades": 5461,
      "##ília": 5462,
      "les": 5463,
      "questão": 5464,
      "original": 5465,
      "##cê": 5466,
      "esgo": 5467,
      "hospital": 5468,
      "prestado": 5469,
      "veículo": 5470,
      "reclam": 5471,
      "suced": 5472,
      "supera": 5473,
      "##rimo": 5474,
      "autonomia": 5475,
      "interessados": 5476,
      "diretores": 5477,
      "redes": 5478,
      "criação": 5479,
      "fixar": 5480,
      "cidadania": 5481,
      "indisponível": 5482,
      "peça": 5483,
      "114": 5484,
      "##ciamentos": 5485,
      "mercosul": 5486,
      "##̂nio": 5487,
      "aponta": 5488,
      "temporária": 5489,
      "har": 5490,
      "despac": 5491,
      "extremo": 5492,
      "disciplina": 5493,
      "met": 5494,
      "107": 5495,
      "suposta": 5496,
      "criminosa": 5497,
      "perspec": 5498,
      "audiência": 5499,
      "perf": 5500,
      "nºs": 5501,
      "apresentado": 5502,
      "##imetria": 5503,
      "##guas": 5504,
      "instituições": 5505,
      "##difusão": 5506,
      "privados": 5507,
      "##egação": 5508,
      "##gante": 5509,
      "transpar": 5510,
      "manifestar": 5511,
      "fatores": 5512,
      "caixa": 5513,
      "##gação": 5514,
      "lote": 5515,
      "percentuais": 5516,
      "consonância": 5517,
      "culpa": 5518,
      "aperfeiçoamento": 5519,
      "tér": 5520,
      "dome": 5521,
      "vantagem": 5522,
      "agrícol": 5523,
      "apurado": 5524,
      "carlos": 5525,
      "mínima": 5526,
      "prática": 5527,
      "imunidade": 5528,
      "restaurativa": 5529,
      "extrajudicial": 5530,
      "vai": 5531,
      "inconform": 5532,
      "categorias": 5533,
      "rá": 5534,
      "anualmente": 5535,
      "prisão": 5536,
      "##pecu": 5537,
      "coleta": 5538,
      "pagamentos": 5539,
      "##missas": 5540,
      "recons": 5541,
      "cadastra": 5542,
      "dotação": 5543,
      "referem": 5544,
      "##camento": 5545,
      "comerciais": 5546,
      "##emia": 5547,
      "##vidéu": 5548,
      "conciliação": 5549,
      "##uri": 5550,
      "média": 5551,
      "##iente": 5552,
      "maiores": 5553,
      "inspeção": 5554,
      "##éia": 5555,
      "##ificação": 5556,
      "médio": 5557,
      "subsí": 5558,
      "afirm": 5559,
      "ré": 5560,
      "paga": 5561,
      "premissas": 5562,
      "inadmissibilidade": 5563,
      "reclusão": 5564,
      "daquele": 5565,
      "##stas": 5566,
      "##goas": 5567,
      "##2o": 5568,
      "sc": 5569,
      "##nego": 5570,
      "tratando": 5571,
      "perio": 5572,
      "tera": 5573,
      "anulação": 5574,
      "ilu": 5575,
      "##entais": 5576,
      "ingress": 5577,
      "prestadas": 5578,
      "dilig": 5579,
      "ampliação": 5580,
      "principalmente": 5581,
      "perceb": 5582,
      "##pres": 5583,
      "prévio": 5584,
      "estati": 5585,
      "passag": 5586,
      "##inter": 5587,
      "formação": 5588,
      "amap": 5589,
      "116": 5590,
      "tecnologias": 5591,
      "só": 5592,
      "alta": 5593,
      "professor": 5594,
      "turismo": 5595,
      "radiodifusão": 5596,
      "inocorrência": 5597,
      "imposta": 5598,
      "pia": 5599,
      "coisas": 5600,
      "cumprido": 5601,
      "dú": 5602,
      "asse": 5603,
      "magistra": 5604,
      "son": 5605,
      "tomar": 5606,
      "alíneas": 5607,
      "padrão": 5608,
      "##mentação": 5609,
      "amor": 5610,
      "mó": 5611,
      "##grama": 5612,
      "apr": 5613,
      "questões": 5614,
      "expan": 5615,
      "##adoria": 5616,
      "filho": 5617,
      "livro": 5618,
      "##tn": 5619,
      "acrescido": 5620,
      "essencial": 5621,
      "reajuste": 5622,
      "expedição": 5623,
      "volunt": 5624,
      "cabendo": 5625,
      "parceria": 5626,
      "preo": 5627,
      "grandes": 5628,
      "subpro": 5629,
      "organiza": 5630,
      "práticas": 5631,
      "transmissão": 5632,
      "deles": 5633,
      "106": 5634,
      "ente": 5635,
      "despacho": 5636,
      "eletrônico": 5637,
      "faculdade": 5638,
      "quinze": 5639,
      "##ático": 5640,
      "concluir": 5641,
      "adap": 5642,
      "andamento": 5643,
      "numa": 5644,
      "incidentes": 5645,
      "definida": 5646,
      "integralmente": 5647,
      "moeda": 5648,
      "libera": 5649,
      "corrente": 5650,
      "aproveitamento": 5651,
      "exercício": 5652,
      "brasileiras": 5653,
      "integ": 5654,
      "##fin": 5655,
      "ordinárias": 5656,
      "##rup": 5657,
      "hipo": 5658,
      "covid": 5659,
      "##compet": 5660,
      "dr": 5661,
      "criado": 5662,
      "fomento": 5663,
      "agropecu": 5664,
      "preservação": 5665,
      "quím": 5666,
      "amazonas": 5667,
      "montevidéu": 5668,
      "paz": 5669,
      "##ecução": 5670,
      "insiste": 5671,
      "denominação": 5672,
      "2021": 5673,
      "aprovada": 5674,
      "108": 5675,
      "normativos": 5676,
      "suporte": 5677,
      "impres": 5678,
      "inse": 5679,
      "asp": 5680,
      "pleito": 5681,
      "entendo": 5682,
      "167": 5683,
      "##constitucionais": 5684,
      "candidato": 5685,
      "##sória": 5686,
      "##oraima": 5687,
      "##gados": 5688,
      "existente": 5689,
      "contém": 5690,
      "nossa": 5691,
      "##bra": 5692,
      "4°": 5693,
      "fixa": 5694,
      "cpp": 5695,
      "criar": 5696,
      "##vera": 5697,
      "pont": 5698,
      "designados": 5699,
      "aguar": 5700,
      "pará": 5701,
      "crescimento": 5702,
      "humana": 5703,
      "insign": 5704,
      "2ª": 5705,
      "104": 5706,
      "impetrado": 5707,
      "contrária": 5708,
      "denegada": 5709,
      "pecuária": 5710,
      "proviso": 5711,
      "utilizar": 5712,
      "mi": 5713,
      "feitas": 5714,
      "especí": 5715,
      "exclusão": 5716,
      "econôm": 5717,
      "##ven": 5718,
      "constituir": 5719,
      "apresentada": 5720,
      "aprimo": 5721,
      "avan": 5722,
      "força": 5723,
      "##cionado": 5724,
      "funcionários": 5725,
      "pecul": 5726,
      "##́n": 5727,
      "estatais": 5728,
      "sane": 5729,
      "roraima": 5730,
      "avi": 5731,
      "posteriormente": 5732,
      "##25": 5733,
      "nucle": 5734,
      "##idez": 5735,
      "aero": 5736,
      "oeste": 5737,
      "obstante": 5738,
      "log": 5739,
      "contratuais": 5740,
      "vinculada": 5741,
      "212": 5742,
      "exceção": 5743,
      "ben": 5744,
      "externa": 5745,
      "##hões": 5746,
      "infring": 5747,
      "participantes": 5748,
      "xiv": 5749,
      "##ôno": 5750,
      "126": 5751,
      "interior": 5752,
      "##ância": 5753,
      "##bs": 5754,
      "##âneo": 5755,
      "tenta": 5756,
      "estava": 5757,
      "tjs": 5758,
      "##mentado": 5759,
      "uruguai": 5760,
      "##dicas": 5761,
      "custeio": 5762,
      "parla": 5763,
      "dosimetria": 5764,
      "negó": 5765,
      "têm": 5766,
      "federação": 5767,
      "fr": 5768,
      "guer": 5769,
      "##tório": 5770,
      "##central": 5771,
      "alunos": 5772,
      "repara": 5773,
      "policiais": 5774,
      "tjm": 5775,
      "crianças": 5776,
      "modernização": 5777,
      "vinculados": 5778,
      "##14": 5779,
      "##atível": 5780,
      "práticas": 5781,
      "ja": 5782,
      "acarre": 5783,
      "localizado": 5784,
      "aparelh": 5785,
      "##zar": 5786,
      "criados": 5787,
      "oliv": 5788,
      "praticado": 5789,
      "##gide": 5790,
      "privil": 5791,
      "sens": 5792,
      "comanda": 5793,
      "dinheiro": 5794,
      "porém": 5795,
      "desnecess": 5796,
      "escolas": 5797,
      "##ribuição": 5798,
      "elaboração": 5799,
      "índice": 5800,
      "escritura": 5801,
      "##zer": 5802,
      "##13": 5803,
      "circul": 5804,
      "piau": 5805,
      "procedente": 5806,
      "configura": 5807,
      "##cap": 5808,
      "lv": 5809,
      "##pot": 5810,
      "estatal": 5811,
      "125": 5812,
      "mercadoria": 5813,
      "volume": 5814,
      "115": 5815,
      "reconsidera": 5816,
      "sô": 5817,
      "adotado": 5818,
      "científica": 5819,
      "entorpecentes": 5820,
      "doutrina": 5821,
      "doze": 5822,
      "sanção": 5823,
      "teoria": 5824,
      "máquinas": 5825,
      "oliveira": 5826,
      "sequ": 5827,
      "##cê": 5828,
      "previdenciário": 5829,
      "revolvimento": 5830,
      "votação": 5831,
      "normativa": 5832,
      "subseqü": 5833,
      "contempl": 5834,
      "acord": 5835,
      "união": 5836,
      "icms": 5837,
      "espera": 5838,
      "estuda": 5839,
      "armazen": 5840,
      "autoria": 5841,
      "empregador": 5842,
      "término": 5843,
      "##̂nia": 5844,
      "preservar": 5845,
      "fará": 5846,
      "amazônia": 5847,
      "vul": 5848,
      "##dência": 5849,
      "etc": 5850,
      "égide": 5851,
      "descont": 5852,
      "demonstrativo": 5853,
      "##érito": 5854,
      "prevê": 5855,
      "muitas": 5856,
      "destinação": 5857,
      "gda": 5858,
      "especificamente": 5859,
      "##êr": 5860,
      "impugnada": 5861,
      "##ciona": 5862,
      "implantação": 5863,
      "##cem": 5864,
      "tecnológico": 5865,
      "todavia": 5866,
      "embargante": 5867,
      "débito": 5868,
      "contida": 5869,
      "##toriais": 5870,
      "parana": 5871,
      "época": 5872,
      "qualific": 5873,
      "urgência": 5874,
      "coletiva": 5875,
      "tipos": 5876,
      "autarquias": 5877,
      "organização": 5878,
      "precisa": 5879,
      "testemunhas": 5880,
      "##stico": 5881,
      "possuem": 5882,
      "pou": 5883,
      "jurídicos": 5884,
      "razão": 5885,
      "documentação": 5886,
      "consig": 5887,
      "agrav": 5888,
      "quantitativo": 5889,
      "modalidades": 5890,
      "lastre": 5891,
      "variáveis": 5892,
      "externo": 5893,
      "ultrap": 5894,
      "ib": 5895,
      "fôr": 5896,
      "domiciliar": 5897,
      "ressar": 5898,
      "antecedentes": 5899,
      "##inamento": 5900,
      "preenchimento": 5901,
      "denominado": 5902,
      "doméstica": 5903,
      "##çada": 5904,
      "sustentável": 5905,
      "objetiva": 5906,
      "tjms": 5907,
      "noventa": 5908,
      "exigir": 5909,
      "remessa": 5910,
      "desfa": 5911,
      "ocorrido": 5912,
      "##tec": 5913,
      "ão": 5914,
      "diverg": 5915,
      "##alizados": 5916,
      "reiteração": 5917,
      "tare": 5918,
      "impõe": 5919,
      "aprovar": 5920,
      "hora": 5921,
      "infrações": 5922,
      "manejo": 5923,
      "##net": 5924,
      "negado": 5925,
      "concedidos": 5926,
      "cobertura": 5927,
      "ara": 5928,
      "audit": 5929,
      "atualmente": 5930,
      "função": 5931,
      "ficando": 5932,
      "##odos": 5933,
      "existe": 5934,
      "##rões": 5935,
      "##fia": 5936,
      "reaf": 5937,
      "fazendo": 5938,
      "condições": 5939,
      "incluídos": 5940,
      "adotadas": 5941,
      "indicadas": 5942,
      "##regação": 5943,
      "textos": 5944,
      "##df": 5945,
      "executado": 5946,
      "##óx": 5947,
      "sete": 5948,
      "##tudo": 5949,
      "her": 5950,
      "alto": 5951,
      "ita": 5952,
      "##dere": 5953,
      "audiências": 5954,
      "cessão": 5955,
      "absoluta": 5956,
      "jú": 5957,
      "linhas": 5958,
      "estre": 5959,
      "obtenção": 5960,
      "117": 5961,
      "chega": 5962,
      "prestados": 5963,
      "sobretudo": 5964,
      "capit": 5965,
      "letra": 5966,
      "configuração": 5967,
      "compartil": 5968,
      "##intes": 5969,
      "medica": 5970,
      "111": 5971,
      "audiência": 5972,
      "##fo": 5973,
      "sor": 5974,
      "metodologia": 5975,
      "equipara": 5976,
      "aplicadas": 5977,
      "##jud": 5978,
      "ratificação": 5979,
      "cabível": 5980,
      "400": 5981,
      "##culosidade": 5982,
      "##tadores": 5983,
      "paradigma": 5984,
      "extradição": 5985,
      "disponibilidade": 5986,
      "quase": 5987,
      "repartição": 5988,
      "##ificância": 5989,
      "inquérito": 5990,
      "pal": 5991,
      "juízes": 5992,
      "312": 5993,
      "depre": 5994,
      "213": 5995,
      "instituída": 5996,
      "##ivamente": 5997,
      "mencionadas": 5998,
      "gente": 5999,
      "prestações": 6000,
      "regência": 6001,
      "##ológica": 6002,
      "arr": 6003,
      "contramin": 6004,
      "indeniz": 6005,
      "alegações": 6006,
      "combin": 6007,
      "113": 6008,
      "jurisprud": 6009,
      "imobil": 6010,
      "##ético": 6011,
      "##rés": 6012,
      "autôno": 6013,
      "capaz": 6014,
      "##óri": 6015,
      "integrante": 6016,
      "definição": 6017,
      "sucumb": 6018,
      "publicidade": 6019,
      "utilizada": 6020,
      "vigil": 6021,
      "##rará": 6022,
      "sud": 6023,
      "tributo": 6024,
      "ilícito": 6025,
      "vín": 6026,
      "##ondo": 6027,
      "parcelamento": 6028,
      "passageiros": 6029,
      "sur": 6030,
      "publiquem": 6031,
      "citado": 6032,
      "exempl": 6033,
      "preca": 6034,
      "desembarg": 6035,
      "operacionais": 6036,
      "contraminuta": 6037,
      "##lemento": 6038,
      "portugu": 6039,
      "##per": 6040,
      "##fra": 6041,
      "componentes": 6042,
      "##ósitos": 6043,
      "descrição": 6044,
      "##ense": 6045,
      "salários": 6046,
      "remanej": 6047,
      "magistratura": 6048,
      "terr": 6049,
      "objetivando": 6050,
      "devolução": 6051,
      "ferra": 6052,
      "reais": 6053,
      "povos": 6054,
      "satisf": 6055,
      "##́x": 6056,
      "concreta": 6057,
      "##résci": 6058,
      "##erroga": 6059,
      "leitura": 6060,
      "originária": 6061,
      "padrões": 6062,
      "insignificância": 6063,
      "iniciativas": 6064,
      "parâmetros": 6065,
      "qualificado": 6066,
      "buscando": 6067,
      "incentivo": 6068,
      "##ciadas": 6069,
      "indiv": 6070,
      "junt": 6071,
      "técnica": 6072,
      "www": 6073,
      "encontrar": 6074,
      "distri": 6075,
      "contribuir": 6076,
      "dirigentes": 6077,
      "hor": 6078,
      "desco": 6079,
      "consist": 6080,
      "autores": 6081,
      "tributação": 6082,
      "saneamento": 6083,
      "útil": 6084,
      "##endem": 6085,
      "diag": 6086,
      "##enciada": 6087,
      "atacado": 6088,
      "fern": 6089,
      "##ól": 6090,
      "denegação": 6091,
      "defensor": 6092,
      "fortalecimento": 6093,
      "sôbre": 6094,
      "lt": 6095,
      "demonstrar": 6096,
      "ajustes": 6097,
      "referência": 6098,
      "##íb": 6099,
      "consent": 6100,
      "abstra": 6101,
      "ensejando": 6102,
      "indicador": 6103,
      "##todos": 6104,
      "##teis": 6105,
      "estrangeiros": 6106,
      "##guei": 6107,
      "##é": 6108,
      "públicos": 6109,
      "passivo": 6110,
      "explici": 6111,
      "priorit": 6112,
      "majora": 6113,
      "prerroga": 6114,
      "viabilidade": 6115,
      "ficará": 6116,
      "cofins": 6117,
      "própria": 6118,
      "rig": 6119,
      "relatórios": 6120,
      "##cantins": 6121,
      "essenciais": 6122,
      "##cursos": 6123,
      "##18": 6124,
      "##vir": 6125,
      "##rupção": 6126,
      "político": 6127,
      "endere": 6128,
      "institui": 6129,
      "acolhimento": 6130,
      "conex": 6131,
      "##che": 6132,
      "portos": 6133,
      "##tificações": 6134,
      "outorga": 6135,
      "##ege": 6136,
      "gratific": 6137,
      "modificar": 6138,
      "delitiva": 6139,
      "você": 6140,
      "tramitação": 6141,
      "emerg": 6142,
      "custas": 6143,
      "estas": 6144,
      "123": 6145,
      "remunerada": 6146,
      "mobiliários": 6147,
      "morais": 6148,
      "requerido": 6149,
      "##âmbio": 6150,
      "assesso": 6151,
      "integram": 6152,
      "##ecendo": 6153,
      "procura": 6154,
      "uf": 6155,
      "##pé": 6156,
      "declarar": 6157,
      "amostra": 6158,
      "atin": 6159,
      "129": 6160,
      "santos": 6161,
      "manejado": 6162,
      "intervenção": 6163,
      "comunic": 6164,
      "##elos": 6165,
      "descentral": 6166,
      "vigentes": 6167,
      "limita": 6168,
      "557": 6169,
      "compartilh": 6170,
      "pré": 6171,
      "periculosidade": 6172,
      "##ndices": 6173,
      "vítima": 6174,
      "incapa": 6175,
      "reduzir": 6176,
      "diminuição": 6177,
      "nun": 6178,
      "dependentes": 6179,
      "internet": 6180,
      "cancelamento": 6181,
      "disciplin": 6182,
      "##educa": 6183,
      "##vação": 6184,
      "##quente": 6185,
      "desej": 6186,
      "domin": 6187,
      "labora": 6188,
      "##logo": 6189,
      "revogado": 6190,
      "121": 6191,
      "conjunta": 6192,
      "##endário": 6193,
      "petr": 6194,
      "impede": 6195,
      "assentar": 6196,
      "lucros": 6197,
      "##enos": 6198,
      "estimular": 6199,
      "##dição": 6200,
      "##cha": 6201,
      "##peito": 6202,
      "maríti": 6203,
      "ret": 6204,
      "##cações": 6205,
      "subsidiar": 6206,
      "proteção": 6207,
      "afasta": 6208,
      "alagoas": 6209,
      "543": 6210,
      "sali": 6211,
      "combust": 6212,
      "##ecem": 6213,
      "chaves": 6214,
      "temos": 6215,
      "inteligência": 6216,
      "construção": 6217,
      "cc": 6218,
      "incentiv": 6219,
      "preferência": 6220,
      "abran": 6221,
      "130": 6222,
      "mínimos": 6223,
      "##pla": 6224,
      "pais": 6225,
      "##óleo": 6226,
      "compati": 6227,
      "deliberação": 6228,
      "##ministra": 6229,
      "##16": 6230,
      "##ane": 6231,
      "intera": 6232,
      "##como": 6233,
      "submetido": 6234,
      "bruta": 6235,
      "certidão": 6236,
      "inadequação": 6237,
      "atualizado": 6238,
      "bran": 6239,
      "facilitar": 6240,
      "dê": 6241,
      "efica": 6242,
      "resistência": 6243,
      "##tórios": 6244,
      "peço": 6245,
      "assistência": 6246,
      "senado": 6247,
      "##17": 6248,
      "justificar": 6249,
      "informar": 6250,
      "destes": 6251,
      "1967": 6252,
      "##elha": 6253,
      "roubo": 6254,
      "racional": 6255,
      "orça": 6256,
      "118": 6257,
      "visa": 6258,
      "passou": 6259,
      "##ruturas": 6260,
      "##pública": 6261,
      "estima": 6262,
      "esco": 6263,
      "relevância": 6264,
      "##ularidades": 6265,
      "delitos": 6266,
      "##gipe": 6267,
      "infraconstitucionais": 6268,
      "chegar": 6269,
      "decor": 6270,
      "imediato": 6271,
      "imprensa": 6272,
      "aeropor": 6273,
      "tocantins": 6274,
      "treinamento": 6275,
      "fundamentado": 6276,
      "opostos": 6277,
      "fundações": 6278,
      "comprovada": 6279,
      "##reas": 6280,
      "prestação": 6281,
      "adoção": 6282,
      "criança": 6283,
      "super": 6284,
      "composto": 6285,
      "razoável": 6286,
      "##itante": 6287,
      "cen": 6288,
      "intu": 6289,
      "foro": 6290,
      "complexidade": 6291,
      "próprias": 6292,
      "nesses": 6293,
      "síti": 6294,
      "xv": 6295,
      "cível": 6296,
      "efetuar": 6297,
      "necessariamente": 6298,
      "perspectiva": 6299,
      "nar": 6300,
      "regiões": 6301,
      "determina": 6302,
      "intercâmbio": 6303,
      "insumos": 6304,
      "vege": 6305,
      "prejudicado": 6306,
      "metro": 6307,
      "acrésci": 6308,
      "elemento": 6309,
      "tan": 6310,
      "seca": 6311,
      "flux": 6312,
      "fc": 6313,
      "constar": 6314,
      "oriundos": 6315,
      "fru": 6316,
      "vont": 6317,
      "##irem": 6318,
      "dn": 6319,
      "##ult": 6320,
      "ameaça": 6321,
      "##ulares": 6322,
      "177": 6323,
      "aplicados": 6324,
      "constituído": 6325,
      "efetividade": 6326,
      "calendário": 6327,
      "tiverem": 6328,
      "sug": 6329,
      "##erar": 6330,
      "saída": 6331,
      "indicada": 6332,
      "3a": 6333,
      "600": 6334,
      "inerentes": 6335,
      "##andemia": 6336,
      "assunto": 6337,
      "regularização": 6338,
      "retro": 6339,
      "##enciários": 6340,
      "petróleo": 6341,
      "##eiramente": 6342,
      "##administra": 6343,
      "concorr": 6344,
      "##torial": 6345,
      "transferências": 6346,
      "próprio": 6347,
      "eficiência": 6348,
      "##dire": 6349,
      "serão": 6350,
      "oit": 6351,
      "##dados": 6352,
      "sobres": 6353,
      "antig": 6354,
      "##tora": 6355,
      "ideia": 6356,
      "##integra": 6357,
      "auxiliares": 6358,
      "##fed": 6359,
      "atenção": 6360,
      "assegurado": 6361,
      "extinta": 6362,
      "cem": 6363,
      "##ulada": 6364,
      "designado": 6365,
      "viabilizar": 6366,
      "instância": 6367,
      "##ícios": 6368,
      "peças": 6369,
      "##çamento": 6370,
      "vou": 6371,
      "autora": 6372,
      "integrar": 6373,
      "amparo": 6374,
      "bon": 6375,
      "autorizados": 6376,
      "progressão": 6377,
      "juvent": 6378,
      "presum": 6379,
      "percepção": 6380,
      "exatamente": 6381,
      "deferimento": 6382,
      "metade": 6383,
      "retra": 6384,
      "140": 6385,
      "170": 6386,
      "juizado": 6387,
      "ê": 6388,
      "discus": 6389,
      "decidiu": 6390,
      "nosso": 6391,
      "sta": 6392,
      "penalidades": 6393,
      "feitos": 6394,
      "obtidos": 6395,
      "auferi": 6396,
      "cujas": 6397,
      "convoc": 6398,
      "alterar": 6399,
      "orçament": 6400,
      "##reira": 6401,
      "aduaneiro": 6402,
      "geração": 6403,
      "admissão": 6404,
      "##érica": 6405,
      "multas": 6406,
      "155": 6407,
      "permanência": 6408,
      "juventude": 6409,
      "##õem": 6410,
      "##iais": 6411,
      "preocup": 6412,
      "pagas": 6413,
      "perceber": 6414,
      "##len": 6415,
      "##26": 6416,
      "produção": 6417,
      "mundial": 6418,
      "claro": 6419,
      "acidente": 6420,
      "julgou": 6421,
      "eficiência": 6422,
      "delega": 6423,
      "devol": 6424,
      "166": 6425,
      "##stica": 6426,
      "comandante": 6427,
      "sergipe": 6428,
      "agências": 6429,
      "dign": 6430,
      "centrais": 6431,
      "acrescent": 6432,
      "direita": 6433,
      "propósito": 6434,
      "classificam": 6435,
      "navegação": 6436,
      "articular": 6437,
      "requerer": 6438,
      "servent": 6439,
      "execuções": 6440,
      "##entar": 6441,
      "assembléia": 6442,
      "responder": 6443,
      "dela": 6444,
      "454": 6445,
      "majoração": 6446,
      "publicada": 6447,
      "som": 6448,
      "sujeitas": 6449,
      "vedação": 6450,
      "cass": 6451,
      "patro": 6452,
      "##bidade": 6453,
      "##́sticas": 6454,
      "carteira": 6455,
      "##gios": 6456,
      "##tim": 6457,
      "justa": 6458,
      "ficou": 6459,
      "dispensa": 6460,
      "retorno": 6461,
      "efetuada": 6462,
      "socioeduca": 6463,
      "introduz": 6464,
      "redução": 6465,
      "fabricação": 6466,
      "instruções": 6467,
      "constituem": 6468,
      "faixa": 6469,
      "controlar": 6470,
      "médio": 6471,
      "##ná": 6472,
      "incab": 6473,
      "formular": 6474,
      "insurg": 6475,
      "satisfa": 6476,
      "enunciado": 6477,
      "ajuste": 6478,
      "inicialmente": 6479,
      "automo": 6480,
      "##°4": 6481,
      "indícios": 6482,
      "estrangeiro": 6483,
      "ltda": 6484,
      "gratificadas": 6485,
      "##icídio": 6486,
      "guerra": 6487,
      "assessoria": 6488,
      "previdenciária": 6489,
      "##mens": 6490,
      "alme": 6491,
      "dívidas": 6492,
      "aérea": 6493,
      "cro": 6494,
      "165": 6495,
      "atores": 6496,
      "parcerias": 6497,
      "obrigatória": 6498,
      "ordinária": 6499,
      "financiamentos": 6500,
      "semelh": 6501,
      "ru": 6502,
      "familiares": 6503,
      "##eias": 6504,
      "##põe": 6505,
      "distribuição": 6506,
      "##rição": 6507,
      "menores": 6508,
      "284": 6509,
      "particulares": 6510,
      "##ôrdo": 6511,
      "##́gica": 6512,
      "vontade": 6513,
      "##itam": 6514,
      "declarada": 6515,
      "econômicos": 6516,
      "espaço": 6517,
      "competências": 6518,
      "atuais": 6519,
      "daqueles": 6520,
      "##ncis": 6521,
      "135": 6522,
      "apreciar": 6523,
      "deputados": 6524,
      "períodos": 6525,
      "##ces": 6526,
      "127": 6527,
      "arrenda": 6528,
      "##çar": 6529,
      "secretarias": 6530,
      "idônea": 6531,
      "improcedente": 6532,
      "compromissos": 6533,
      "designação": 6534,
      "concluiu": 6535,
      "devidos": 6536,
      "162": 6537,
      "voltadas": 6538,
      "conhecimentos": 6539,
      "##cordo": 6540,
      "124": 6541,
      "proporcionalidade": 6542,
      "palavras": 6543,
      "urbana": 6544,
      "##creto": 6545,
      "##issões": 6546,
      "tempes": 6547,
      "aprendi": 6548,
      "tinha": 6549,
      "julgador": 6550,
      "bomb": 6551,
      "tercei": 6552,
      "substâncias": 6553,
      "paraná": 6554,
      "ing": 6555,
      "sigilo": 6556,
      "depender": 6557,
      "aplicando": 6558,
      "transformação": 6559,
      "desfavor": 6560,
      "vítima": 6561,
      "incluir": 6562,
      "livros": 6563,
      "comuns": 6564,
      "encerramento": 6565,
      "sing": 6566,
      "desas": 6567,
      "lançamento": 6568,
      "##cet": 6569,
      "transforma": 6570,
      "determinou": 6571,
      "navio": 6572,
      "modificação": 6573,
      "##pr": 6574,
      "##king": 6575,
      "demora": 6576,
      "recomendação": 6577,
      "econom": 6578,
      "eficiente": 6579,
      "ultrapass": 6580,
      "municípios": 6581,
      "bom": 6582,
      "consequência": 6583,
      "conferida": 6584,
      "setoriais": 6585,
      "comportamento": 6586,
      "pandemia": 6587,
      "##igo": 6588,
      "independente": 6589,
      "extrema": 6590,
      "sou": 6591,
      "avalia": 6592,
      "mantido": 6593,
      "##uro": 6594,
      "furto": 6595,
      "##gues": 6596,
      "plata": 6597,
      "reconsideração": 6598,
      "dere": 6599,
      "##potenciários": 6600,
      "##carga": 6601,
      "pergu": 6602,
      "pesca": 6603,
      "implementação": 6604,
      "5°": 6605,
      "mín": 6606,
      "1969": 6607,
      "##ética": 6608,
      "admitida": 6609,
      "evidente": 6610,
      "droga": 6611,
      "##iro": 6612,
      "##iana": 6613,
      "anuais": 6614,
      "efetuado": 6615,
      "ocupação": 6616,
      "tentativa": 6617,
      "blo": 6618,
      "##ie": 6619,
      "cerca": 6620,
      "gás": 6621,
      "partici": 6622,
      "recep": 6623,
      "submetidos": 6624,
      "##rás": 6625,
      "empreendimentos": 6626,
      "harmon": 6627,
      "rádio": 6628,
      "##cadas": 6629,
      "comarcas": 6630,
      "tradicionais": 6631,
      "pedir": 6632,
      "vuln": 6633,
      "pase": 6634,
      "águas": 6635,
      "##veu": 6636,
      "##bserv": 6637,
      "vício": 6638,
      "ambientais": 6639,
      "paraná": 6640,
      "169": 6641,
      "ep": 6642,
      "deferida": 6643,
      "##enharia": 6644,
      "expostas": 6645,
      "enquadra": 6646,
      "deslo": 6647,
      "##estou": 6648,
      "##imal": 6649,
      "cidades": 6650,
      "devidas": 6651,
      "tomadas": 6652,
      "entrevist": 6653,
      "integridade": 6654,
      "800": 6655,
      "ded": 6656,
      "impedir": 6657,
      "pasep": 6658,
      "aca": 6659,
      "formulado": 6660,
      "mudança": 6661,
      "vínculo": 6662,
      "##iás": 6663,
      "alterado": 6664,
      "remanesc": 6665,
      "enfrentamento": 6666,
      "eis": 6667,
      "evento": 6668,
      "faço": 6669,
      "criada": 6670,
      "fazem": 6671,
      "capacitação": 6672,
      "prorrogação": 6673,
      "pje": 6674,
      "paraguai": 6675,
      "histórica": 6676,
      "mede": 6677,
      "incentivos": 6678,
      "delineada": 6679,
      "##tará": 6680,
      "princípios": 6681,
      "##empres": 6682,
      "condicionada": 6683,
      "reconhecido": 6684,
      "frente": 6685,
      "nove": 6686,
      "procedência": 6687,
      "capazes": 6688,
      "jurisprudencial": 6689,
      "algo": 6690,
      "preciso": 6691,
      "conselheiros": 6692,
      "pleni": 6693,
      "encontram": 6694,
      "exercida": 6695,
      "indiretamente": 6696,
      "materi": 6697,
      "##toriamente": 6698,
      "##ânea": 6699,
      "icp": 6700,
      "##ncisco": 6701,
      "igara": 6702,
      "ganh": 6703,
      "transferidos": 6704,
      "sentença": 6705,
      "##chos": 6706,
      "rol": 6707,
      "aptas": 6708,
      "perfil": 6709,
      "técn": 6710,
      "engenharia": 6711,
      "##él": 6712,
      "##írito": 6713,
      "observando": 6714,
      "indispensável": 6715,
      "contradição": 6716,
      "acho": 6717,
      "autorizadas": 6718,
      "alimentação": 6719,
      "distin": 6720,
      "repass": 6721,
      "verdadeira": 6722,
      "contrariedade": 6723,
      "122": 6724,
      "##cupa": 6725,
      "dea": 6726,
      "365": 6727,
      "ferrovi": 6728,
      "produtores": 6729,
      "regularmente": 6730,
      "##ião": 6731,
      "pertencentes": 6732,
      "obede": 6733,
      "##03": 6734,
      "##ulação": 6735,
      "valo": 6736,
      "##estabele": 6737,
      "mediação": 6738,
      "decretos": 6739,
      "matéria": 6740,
      "levando": 6741,
      "democrática": 6742,
      "circulação": 6743,
      "##12": 6744,
      "escolh": 6745,
      "resíduos": 6746,
      "vias": 6747,
      "rist": 6748,
      "##ern": 6749,
      "movimentação": 6750,
      "##04": 6751,
      "troca": 6752,
      "obrigato": 6753,
      "depoimento": 6754,
      "laudo": 6755,
      "celebrado": 6756,
      "intuito": 6757,
      "cezar": 6758,
      "acumul": 6759,
      "princípio": 6760,
      "residente": 6761,
      "pleite": 6762,
      "composta": 6763,
      "dignidade": 6764,
      "##rizo": 6765,
      "alíquotas": 6766,
      "##tur": 6767,
      "territorial": 6768,
      "plenipotenciários": 6769,
      "prejudic": 6770,
      "636": 6771,
      "mad": 6772,
      "isonomia": 6773,
      "encaminhamento": 6774,
      "aviação": 6775,
      "abor": 6776,
      "correla": 6777,
      "júri": 6778,
      "contabilidade": 6779,
      "168": 6780,
      "restritiva": 6781,
      "proprietário": 6782,
      "falência": 6783,
      "##iço": 6784,
      "fixadas": 6785,
      "##rão": 6786,
      "tamp": 6787,
      "delas": 6788,
      "unidos": 6789,
      "eleita": 6790,
      "mantendo": 6791,
      "encontro": 6792,
      "189": 6793,
      "1976": 6794,
      "bastante": 6795,
      "estrangeira": 6796,
      "terceira": 6797,
      "eventualmente": 6798,
      "##econ": 6799,
      "##ugu": 6800,
      "ré": 6801,
      "250": 6802,
      "compreendido": 6803,
      "levar": 6804,
      "119": 6805,
      "133": 6806,
      "celebração": 6807,
      "quarenta": 6808,
      "milhões": 6809,
      "incra": 6810,
      "serve": 6811,
      "reda": 6812,
      "##inação": 6813,
      "vítimas": 6814,
      "dpj": 6815,
      "credit": 6816,
      "obedecer": 6817,
      "cic": 6818,
      "##°3": 6819,
      "##ável": 6820,
      "associados": 6821,
      "ran": 6822,
      "##ck": 6823,
      "minuta": 6824,
      "ellen": 6825,
      "domé": 6826,
      "mensais": 6827,
      "déci": 6828,
      "esquer": 6829,
      "utilização": 6830,
      "##posição": 6831,
      "perímetro": 6832,
      "utilidade": 6833,
      "manifestou": 6834,
      "##pes": 6835,
      "fundi": 6836,
      "desempenh": 6837,
      "assevera": 6838,
      "##cro": 6839,
      "##°5": 6840,
      "esporte": 6841,
      "matrí": 6842,
      "providos": 6843,
      "conseqü": 6844,
      "bancos": 6845,
      "##contra": 6846,
      "colaboração": 6847,
      "mutu": 6848,
      "comissões": 6849,
      "educação": 6850,
      "##velmente": 6851,
      "instrumental": 6852,
      "peluso": 6853,
      "assegurada": 6854,
      "urbano": 6855,
      "delegação": 6856,
      "adver": 6857,
      "regulamenta": 6858,
      "sindic": 6859,
      "protelatórios": 6860,
      "presidência": 6861,
      "pecun": 6862,
      "automaticamente": 6863,
      "##́dia": 6864,
      "inval": 6865,
      "registrado": 6866,
      "fator": 6867,
      "aperfe": 6868,
      "sítio": 6869,
      "not": 6870,
      "seguida": 6871,
      "##ede": 6872,
      "muitos": 6873,
      "certificação": 6874,
      "inativos": 6875,
      "centros": 6876,
      "concretos": 6877,
      "missão": 6878,
      "##timento": 6879,
      "aperfeiço": 6880,
      "sucedâneo": 6881,
      "equipamento": 6882,
      "##empre": 6883,
      "fiscalizar": 6884,
      "##har": 6885,
      "138": 6886,
      "econômicas": 6887,
      "ressalvado": 6888,
      "plant": 6889,
      "##cind": 6890,
      "máxima": 6891,
      "constituída": 6892,
      "manifestamente": 6893,
      "gracie": 6894,
      "inobserv": 6895,
      "estamos": 6896,
      "##vadas": 6897,
      "francisco": 6898,
      "derivados": 6899,
      "posi": 6900,
      "recebido": 6901,
      "denun": 6902,
      "existência": 6903,
      "##íba": 6904,
      "134": 6905,
      "etapa": 6906,
      "finalidades": 6907,
      "antecipação": 6908,
      "jornal": 6909,
      "aprendiz": 6910,
      "prima": 6911,
      "##árquica": 6912,
      "rigor": 6913,
      "183": 6914,
      "resultantes": 6915,
      "compreensão": 6916,
      "incumbe": 6917,
      "137": 6918,
      "cat": 6919,
      "equivalentes": 6920,
      "opinou": 6921,
      "repe": 6922,
      "##ouco": 6923,
      "credor": 6924,
      "femin": 6925,
      "popular": 6926,
      "hábil": 6927,
      "regularidade": 6928,
      "##tio": 6929,
      "campos": 6930,
      "homicídio": 6931,
      "prossegu": 6932,
      "##cumento": 6933,
      "revo": 6934,
      "relig": 6935,
      "determinadas": 6936,
      "hí": 6937,
      "##grafia": 6938,
      "incide": 6939,
      "médica": 6940,
      "espírito": 6941,
      "consumidores": 6942,
      "4a": 6943,
      "dare": 6944,
      "##º00": 6945,
      "exon": 6946,
      "escolar": 6947,
      "##lha": 6948,
      "embarcações": 6949,
      "equil": 6950,
      "long": 6951,
      "128": 6952,
      "presunção": 6953,
      "178": 6954,
      "aparelhos": 6955,
      "correta": 6956,
      "var": 6957,
      "estiverem": 6958,
      "depósitos": 6959,
      "correg": 6960,
      "131": 6961,
      "flu": 6962,
      "##edores": 6963,
      "desl": 6964,
      "necessário": 6965,
      "revista": 6966,
      "semia": 6967,
      "distinta": 6968,
      "ipi": 6969,
      "descabe": 6970,
      "##rol": 6971,
      "medicamentos": 6972,
      "##tações": 6973,
      "conter": 6974,
      "##enciados": 6975,
      "ressarcimento": 6976,
      "superintendência": 6977,
      "##of": 6978,
      "segregação": 6979,
      "tabelas": 6980,
      "172": 6981,
      "plena": 6982,
      "desenvolvidas": 6983,
      "##visão": 6984,
      "conhecida": 6985,
      "##02": 6986,
      "refle": 6987,
      "igarapé": 6988,
      "definitivo": 6989,
      "admitir": 6990,
      "tributa": 6991,
      "calculada": 6992,
      "possuir": 6993,
      "159": 6994,
      "##rique": 6995,
      "##erão": 6996,
      "admite": 6997,
      "neguei": 6998,
      "##iii": 6999,
      "modelos": 7000,
      "monetário": 7001,
      "penitencia": 7002,
      "postos": 7003,
      "determinados": 7004,
      "cabíveis": 7005,
      "restou": 7006,
      "283": 7007,
      "tampouco": 7008,
      "##tificado": 7009,
      "extinto": 7010,
      "variação": 7011,
      "##resso": 7012,
      "##ídas": 7013,
      "##su": 7014,
      "666": 7015,
      "eram": 7016,
      "envolvendo": 7017,
      "nela": 7018,
      "relações": 7019,
      "buscar": 7020,
      "157": 7021,
      "filhos": 7022,
      "classificados": 7023,
      "agravado": 7024,
      "ceará": 7025,
      "áreas": 7026,
      "atende": 7027,
      "gratificações": 7028,
      "##05": 7029,
      "permiss": 7030,
      "##ído": 7031,
      "##eja": 7032,
      "investiga": 7033,
      "científico": 7034,
      "nível": 7035,
      "174": 7036,
      "emendas": 7037,
      "ef": 7038,
      "##use": 7039,
      "prêm": 7040,
      "descon": 7041,
      "manual": 7042,
      "elim": 7043,
      "calculado": 7044,
      "pata": 7045,
      "incre": 7046,
      "seguros": 7047,
      "xxxvi": 7048,
      "ga": 7049,
      "início": 7050,
      "recorrer": 7051,
      "mt": 7052,
      "146": 7053,
      "crianças": 7054,
      "braz": 7055,
      "gl": 7056,
      "tst": 7057,
      "inver": 7058,
      "navios": 7059,
      "bre": 7060,
      "magistério": 7061,
      "mencionada": 7062,
      "usuários": 7063,
      "repet": 7064,
      "##ulados": 7065,
      "negócios": 7066,
      "motivação": 7067,
      "realmente": 7068,
      "compul": 7069,
      "fgts": 7070,
      "negocia": 7071,
      "##ell": 7072,
      "invent": 7073,
      "submetida": 7074,
      "peculia": 7075,
      "##ôs": 7076,
      "alimentos": 7077,
      "##pou": 7078,
      "letras": 7079,
      "restituição": 7080,
      "aduaneira": 7081,
      "patamar": 7082,
      "band": 7083,
      "##tt": 7084,
      "presidida": 7085,
      "##gna": 7086,
      "##áticos": 7087,
      "1985": 7088,
      "##́tico": 7089,
      "##ícia": 7090,
      "179": 7091,
      "153": 7092,
      "ristf": 7093,
      "contendo": 7094,
      "impedimento": 7095,
      "improbidade": 7096,
      "professores": 7097,
      "org": 7098,
      "costa": 7099,
      "de19": 7100,
      "movimento": 7101,
      "aberta": 7102,
      "custódia": 7103,
      "144": 7104,
      "diplomática": 7105,
      "lesão": 7106,
      "deb": 7107,
      "doença": 7108,
      "firmou": 7109,
      "145": 7110,
      "permitida": 7111,
      "##ibir": 7112,
      "acon": 7113,
      "bolsa": 7114,
      "deliberativo": 7115,
      "mútu": 7116,
      "estruturas": 7117,
      "responsável": 7118,
      "maranhão": 7119,
      "##ile": 7120,
      "bases": 7121,
      "demonstrado": 7122,
      "renovação": 7123,
      "vigilância": 7124,
      "##cionadas": 7125,
      "partido": 7126,
      "deixou": 7127,
      "##considera": 7128,
      "##29": 7129,
      "milh": 7130,
      "amplo": 7131,
      "mudan": 7132,
      "autarquia": 7133,
      "semiaberto": 7134,
      "benefícios": 7135,
      "pensões": 7136,
      "levantamento": 7137,
      "nest": 7138,
      "embal": 7139,
      "185": 7140,
      "expansão": 7141,
      "186": 7142,
      "firmada": 7143,
      "embargado": 7144,
      "registrados": 7145,
      "##tern": 7146,
      "incabível": 7147,
      "homem": 7148,
      "aprovou": 7149,
      "formalizado": 7150,
      "188": 7151,
      "renego": 7152,
      "mante": 7153,
      "destaque": 7154,
      "##eres": 7155,
      "injust": 7156,
      "tratados": 7157,
      "vide": 7158,
      "disse": 7159,
      "produzir": 7160,
      "inteiramente": 7161,
      "objetos": 7162,
      "memo": 7163,
      "abus": 7164,
      "##ésimo": 7165,
      "caracteri": 7166,
      "aeronaves": 7167,
      "destaca": 7168,
      "seleção": 7169,
      "voltada": 7170,
      "férias": 7171,
      "rcl": 7172,
      "187": 7173,
      "##vez": 7174,
      "nominal": 7175,
      "##icabilidade": 7176,
      "171": 7177,
      "demandaria": 7178,
      "venha": 7179,
      "##arti": 7180,
      "##nia": 7181,
      "##imes": 7182,
      "defende": 7183,
      "175": 7184,
      "prioridade": 7185,
      "demonstrada": 7186,
      "consignando": 7187,
      "fomentar": 7188,
      "rendimento": 7189,
      "##çado": 7190,
      "alcanç": 7191,
      "##brás": 7192,
      "##tições": 7193,
      "impôsto": 7194,
      "##tariamente": 7195,
      "contribuintes": 7196,
      "polícia": 7197,
      "132": 7198,
      "regiões": 7199,
      "padron": 7200,
      "tradicional": 7201,
      "viabiliza": 7202,
      "aéreo": 7203,
      "crono": 7204,
      "##iárias": 7205,
      "sequer": 7206,
      "##blio": 7207,
      "apreensão": 7208,
      "informática": 7209,
      "consultas": 7210,
      "acôrdo": 7211,
      "##ída": 7212,
      "##ví": 7213,
      "providência": 7214,
      "consci": 7215,
      "suscitada": 7216,
      "preferencial": 7217,
      "integrada": 7218,
      "##icardocumento": 7219,
      "seriam": 7220,
      "autenticardocumento": 7221,
      "paral": 7222,
      "##rizados": 7223,
      "funções": 7224,
      "operador": 7225,
      "exercícios": 7226,
      "xxxv": 7227,
      "certificados": 7228,
      "dificuldades": 7229,
      "##27": 7230,
      "##erção": 7231,
      "quantia": 7232,
      "pressupõe": 7233,
      "restrições": 7234,
      "cidadão": 7235,
      "dependente": 7236,
      "contrar": 7237,
      "##elec": 7238,
      "pension": 7239,
      "##dicamente": 7240,
      "condutas": 7241,
      "quotas": 7242,
      "##ógica": 7243,
      "espécies": 7244,
      "emergência": 7245,
      "ibge": 7246,
      "esquerda": 7247,
      "celeridade": 7248,
      "##razões": 7249,
      "reservas": 7250,
      "##ficou": 7251,
      "##ológico": 7252,
      "gerenciamento": 7253,
      "contagem": 7254,
      "limitação": 7255,
      "estreita": 7256,
      "massa": 7257,
      "ampliar": 7258,
      "prover": 7259,
      "estabilidade": 7260,
      "mercados": 7261,
      "dirigir": 7262,
      "dúvida": 7263,
      "##estado": 7264,
      "173": 7265,
      "estando": 7266,
      "subprocu": 7267,
      "##competência": 7268,
      "mc": 7269,
      "obrigado": 7270,
      "oitenta": 7271,
      "cura": 7272,
      "exceder": 7273,
      "##alei": 7274,
      "uniform": 7275,
      "amapá": 7276,
      "mero": 7277,
      "##iria": 7278,
      "idos": 7279,
      "1966": 7280,
      "industriais": 7281,
      "general": 7282,
      "##espe": 7283,
      "jurisdição": 7284,
      "ausentes": 7285,
      "empregos": 7286,
      "culp": 7287,
      "plenária": 7288,
      "tarifas": 7289,
      "passagem": 7290,
      "concern": 7291,
      "deslinde": 7292,
      "##alização": 7293,
      "incluídas": 7294,
      "subseqüente": 7295,
      "136": 7296,
      "##namente": 7297,
      "contratado": 7298,
      "goiás": 7299,
      "lar": 7300,
      "semelhantes": 7301,
      "rej": 7302,
      "alinh": 7303,
      "##poder": 7304,
      "lingu": 7305,
      "dob": 7306,
      "##itivos": 7307,
      "orçamento": 7308,
      "representar": 7309,
      "##ema": 7310,
      "família": 7311,
      "personalidade": 7312,
      "biblio": 7313,
      "balanço": 7314,
      "detri": 7315,
      "brazil": 7316,
      "pond": 7317,
      "rib": 7318,
      "##cção": 7319,
      "primário": 7320,
      "oferecer": 7321,
      "importância": 7322,
      "##iam": 7323,
      "suplentes": 7324,
      "arbitra": 7325,
      "##pc": 7326,
      "petro": 7327,
      "conselheiro": 7328,
      "máquina": 7329,
      "part": 7330,
      "##var": 7331,
      "176": 7332,
      "orçamentários": 7333,
      "diferente": 7334,
      "criança": 7335,
      "##izando": 7336,
      "animal": 7337,
      "limitada": 7338,
      "inobservância": 7339,
      "##cionada": 7340,
      "158": 7341,
      "confun": 7342,
      "pan": 7343,
      "razoabilidade": 7344,
      "convocação": 7345,
      "terato": 7346,
      "humano": 7347,
      "##ônju": 7348,
      "##atário": 7349,
      "##01": 7350,
      "##íss": 7351,
      "sé": 7352,
      "importantes": 7353,
      "##lexão": 7354,
      "governador": 7355,
      "##ior": 7356,
      "##ondônia": 7357,
      "distribuídos": 7358,
      "têr": 7359,
      "viv": 7360,
      "proferidas": 7361,
      "lastrearam": 7362,
      "contrarrazões": 7363,
      "ram": 7364,
      "dec": 7365,
      "disponíveis": 7366,
      "encarreg": 7367,
      "ã": 7368,
      "republ": 7369,
      "intelec": 7370,
      "156": 7371,
      "destru": 7372,
      "emitir": 7373,
      "acautel": 7374,
      "##ian": 7375,
      "piauí": 7376,
      "rn": 7377,
      "##riado": 7378,
      "subposição": 7379,
      "temporário": 7380,
      "jornada": 7381,
      "##doras": 7382,
      "##́dio": 7383,
      "1983": 7384,
      "outorgada": 7385,
      "positis": 7386,
      "##vin": 7387,
      "infância": 7388,
      "indíg": 7389,
      "inconformismo": 7390,
      "reconheceu": 7391,
      "##eições": 7392,
      "destacar": 7393,
      "compreender": 7394,
      "excepcionais": 7395,
      "divisão": 7396,
      "ncz": 7397,
      "vinculado": 7398,
      "mostram": 7399,
      "verificada": 7400,
      "carcera": 7401,
      "declarado": 7402,
      "orienta": 7403,
      "contidas": 7404,
      "nomeados": 7405,
      "desesta": 7406,
      "corregedor": 7407,
      "egress": 7408,
      "##alizado": 7409,
      "assistir": 7410,
      "estará": 7411,
      "obser": 7412,
      "acerto": 7413,
      "escala": 7414,
      "ofens": 7415,
      "especialistas": 7416,
      "pib": 7417,
      "probatória": 7418,
      "##º3": 7419,
      "147": 7420,
      "importações": 7421,
      "resultante": 7422,
      "frequ": 7423,
      "##crever": 7424,
      "forte": 7425,
      "alud": 7426,
      "##rização": 7427,
      "latitude": 7428,
      "entendeu": 7429,
      "##º4": 7430,
      "eman": 7431,
      "crist": 7432,
      "##ubst": 7433,
      "escopo": 7434,
      "edi": 7435,
      "divisa": 7436,
      "rodoviário": 7437,
      "##organ": 7438,
      "##una": 7439,
      "estação": 7440,
      "entrar": 7441,
      "rondônia": 7442,
      "##º5": 7443,
      "##icina": 7444,
      "184": 7445,
      "##gadas": 7446,
      "saldos": 7447,
      "firme": 7448,
      "euro": 7449,
      "firmados": 7450,
      "sequência": 7451,
      "##idar": 7452,
      "fid": 7453,
      "comunicar": 7454,
      "oriental": 7455,
      "adquiridos": 7456,
      "corrigido": 7457,
      "##tários": 7458,
      "consiste": 7459,
      "deflexão": 7460,
      "primeiros": 7461,
      "psic": 7462,
      "cônju": 7463,
      "etapas": 7464,
      "verbas": 7465,
      "ranking": 7466,
      "positivo": 7467,
      "##térios": 7468,
      "deveres": 7469,
      "totalidade": 7470,
      "impostas": 7471,
      "assessorar": 7472,
      "longitude": 7473,
      "ec": 7474,
      "contín": 7475,
      "coletivas": 7476,
      "estratégicos": 7477,
      "idio": 7478,
      "pluri": 7479,
      "obscu": 7480,
      "encaminhar": 7481,
      "##itor": 7482,
      "viagem": 7483,
      "futuro": 7484,
      "optar": 7485,
      "monitorar": 7486,
      "obrigatoriedade": 7487,
      "utilizadas": 7488,
      "políticos": 7489,
      "simult": 7490,
      "##́stico": 7491,
      "gestores": 7492,
      "finais": 7493,
      "##dando": 7494,
      "determinando": 7495,
      "##ardo": 7496,
      "paraíba": 7497,
      "permitido": 7498,
      "ajuda": 7499,
      "om": 7500,
      "##itários": 7501,
      "adju": 7502,
      "penalidade": 7503,
      "educacional": 7504,
      "##iano": 7505,
      "320": 7506,
      "##beis": 7507,
      "substan": 7508,
      "repor": 7509,
      "##erial": 7510,
      "##́tes": 7511,
      "abrange": 7512,
      "notada": 7513,
      "transmit": 7514,
      "domic": 7515,
      "séri": 7516,
      "aprimoramento": 7517,
      "critérios": 7518,
      "sedimentada": 7519,
      "reestrutura": 7520,
      "doação": 7521,
      "administradores": 7522,
      "alegado": 7523,
      "demar": 7524,
      "agravos": 7525,
      "especializada": 7526,
      "eleitorais": 7527,
      "temporal": 7528,
      "assembleia": 7529,
      "##qüenta": 7530,
      "arquivamento": 7531,
      "contato": 7532,
      "nessas": 7533,
      "estrangeiras": 7534,
      "citação": 7535,
      "##quir": 7536,
      "partidos": 7537,
      "permanentes": 7538,
      "anu": 7539,
      "compreende": 7540,
      "jurídicas": 7541,
      "rua": 7542,
      "hig": 7543,
      "oral": 7544,
      "rescisória": 7545,
      "pontu": 7546,
      "detrimento": 7547,
      "restrição": 7548,
      "##dricos": 7549,
      "repasse": 7550,
      "319": 7551,
      "colig": 7552,
      "pauta": 7553,
      "decad": 7554,
      "aplicações": 7555,
      "antecipada": 7556,
      "190": 7557,
      "aceitação": 7558,
      "alcançar": 7559,
      "obrigatoriamente": 7560,
      "504": 7561,
      "responsabilidades": 7562,
      "signatários": 7563,
      "estabelecerá": 7564,
      "admitido": 7565,
      "soberanamente": 7566,
      "hipótes": 7567,
      "404": 7568,
      "cooperativas": 7569,
      "##crático": 7570,
      "5a": 7571,
      "##equ": 7572,
      "1962": 7573,
      "título": 7574,
      "pereira": 7575,
      "##osas": 7576,
      "estaria": 7577,
      "##000": 7578,
      "bordo": 7579,
      "expediente": 7580,
      "##́cia": 7581,
      "imprescind": 7582,
      "##ore": 7583,
      "##cep": 7584,
      "inaplicabilidade": 7585,
      "denegar": 7586,
      "fernando": 7587,
      "propa": 7588,
      "##tadora": 7589,
      "substituto": 7590,
      "industrializados": 7591,
      "##gráfica": 7592,
      "destina": 7593,
      "subjetivo": 7594,
      "efetuadas": 7595,
      "agravantes": 7596,
      "acad": 7597,
      "perió": 7598,
      "almeida": 7599,
      "ati": 7600,
      "júri": 7601,
      "terem": 7602,
      "invoc": 7603,
      "141": 7604,
      "salva": 7605,
      "acusação": 7606,
      "154": 7607,
      "coordenadoria": 7608,
      "forneced": 7609,
      "regimes": 7610,
      "multipl": 7611,
      "##órico": 7612,
      "##cetível": 7613,
      "##stru": 7614,
      "##stin": 7615,
      "lucra": 7616,
      "estrada": 7617,
      "##ízos": 7618,
      "mês": 7619,
      "##ílias": 7620,
      "142": 7621,
      "estoque": 7622,
      "graus": 7623,
      "expresso": 7624,
      "tjsp": 7625,
      "transit": 7626,
      "convid": 7627,
      "extens": 7628,
      "processar": 7629,
      "comite": 7630,
      "quarto": 7631,
      "participou": 7632,
      "mit": 7633,
      "have": 7634,
      "1970": 7635,
      "idêntica": 7636,
      "concedidas": 7637,
      "indígenas": 7638,
      "139": 7639,
      "latino": 7640,
      "##ânime": 7641,
      "mp": 7642,
      "it": 7643,
      "##28": 7644,
      "exigidos": 7645,
      "zero": 7646,
      "##alo": 7647,
      "prejudi": 7648,
      "americana": 7649,
      "índices": 7650,
      "fronteira": 7651,
      "atle": 7652,
      "permissão": 7653,
      "celebrados": 7654,
      "arrendamento": 7655,
      "##imais": 7656,
      "##inisterial": 7657,
      "decretação": 7658,
      "##órcio": 7659,
      "modifica": 7660,
      "elaborado": 7661,
      "sofr": 7662,
      "providências": 7663,
      "semana": 7664,
      "atent": 7665,
      "##alizada": 7666,
      "situações": 7667,
      "indeferiu": 7668,
      "##ndole": 7669,
      "ilust": 7670,
      "nuclear": 7671,
      "##tização": 7672,
      "##missa": 7673,
      "veto": 7674,
      "disponível": 7675,
      "indígena": 7676,
      "venham": 7677,
      "congên": 7678,
      "materialidade": 7679,
      "improcedência": 7680,
      "eleição": 7681,
      "##grafo": 7682,
      "317": 7683,
      "famílias": 7684,
      "dificuldade": 7685,
      "trabalhistas": 7686,
      "física": 7687,
      "presta": 7688,
      "marca": 7689,
      "habita": 7690,
      "produtor": 7691,
      "##irma": 7692,
      "##quência": 7693,
      "##teza": 7694,
      "intern": 7695,
      "instituição": 7696,
      "aprovadas": 7697,
      "atingir": 7698,
      "resultar": 7699,
      "insuficientes": 7700,
      "esforços": 7701,
      "regulação": 7702,
      "cinqüenta": 7703,
      "amortização": 7704,
      "mormente": 7705,
      "tramitação": 7706,
      "##lumb": 7707,
      "ia": 7708,
      "internas": 7709,
      "161": 7710,
      "ferreira": 7711,
      "homens": 7712,
      "prola": 7713,
      "administrador": 7714,
      "149": 7715,
      "similares": 7716,
      "indicando": 7717,
      "210": 7718,
      "destino": 7719,
      "cooperação": 7720,
      "modificações": 7721,
      "163": 7722,
      "graves": 7723,
      "apresentação": 7724,
      "probatórios": 7725,
      "##ubstan": 7726,
      "##sem": 7727,
      "procedendo": 7728,
      "transitada": 7729,
      "conteú": 7730,
      "domicílio": 7731,
      "intens": 7732,
      "acompanhando": 7733,
      "infringentes": 7734,
      "pd": 7735,
      "associações": 7736,
      "souza": 7737,
      "delim": 7738,
      "designada": 7739,
      "143": 7740,
      "inclui": 7741,
      "##nio": 7742,
      "litigância": 7743,
      "conveniência": 7744,
      "existem": 7745,
      "roman": 7746,
      "comprovar": 7747,
      "##ixas": 7748,
      "prejuízos": 7749,
      "simplesmente": 7750,
      "animais": 7751,
      "subvenção": 7752,
      "afirmar": 7753,
      "##ises": 7754,
      "##iadas": 7755,
      "unânime": 7756,
      "requisitados": 7757,
      "desres": 7758,
      "segmentos": 7759,
      "suspender": 7760,
      "##̂nicos": 7761,
      "distint": 7762,
      "##ganda": 7763,
      "##tizar": 7764,
      "exportações": 7765,
      "contábil": 7766,
      "cd": 7767,
      "reincidência": 7768,
      "rh": 7769,
      "protocolada": 7770,
      "irregularidades": 7771,
      "##cool": 7772,
      "##turas": 7773,
      "160": 7774,
      "vagos": 7775,
      "corresponder": 7776,
      "##mentas": 7777,
      "talvez": 7778,
      "matrícula": 7779,
      "reemb": 7780,
      "sobrev": 7781,
      "revisão": 7782,
      "peculiaridades": 7783,
      "concorrência": 7784,
      "excess": 7785,
      "terreno": 7786,
      "##artigo": 7787,
      "reverter": 7788,
      "plurian": 7789,
      "habitação": 7790,
      "fáticos": 7791,
      "comissionadas": 7792,
      "prol": 7793,
      "agrícola": 7794,
      "contor": 7795,
      "192": 7796,
      "gên": 7797,
      "explorar": 7798,
      "apto": 7799,
      "nascimento": 7800,
      "recebida": 7801,
      "opina": 7802,
      "##ndi": 7803,
      "empréstimos": 7804,
      "capítulo": 7805,
      "credores": 7806,
      "vín": 7807,
      "##́rum": 7808,
      "##gate": 7809,
      "ciclo": 7810,
      "bndes": 7811,
      "dimens": 7812,
      "instauração": 7813,
      "cm": 7814,
      "din": 7815,
      "##impl": 7816,
      "torno": 7817,
      "544": 7818,
      "interministerial": 7819,
      "consubstan": 7820,
      "subsídio": 7821,
      "índole": 7822,
      "##agra": 7823,
      "inferi": 7824,
      "exigida": 7825,
      "joão": 7826,
      "##ly": 7827,
      "pb": 7828,
      "##ind": 7829,
      "mantidos": 7830,
      "estratégia": 7831,
      "atendidas": 7832,
      "anist": 7833,
      "interpõe": 7834,
      "horizo": 7835,
      "digitais": 7836,
      "exigido": 7837,
      "naquele": 7838,
      "cotas": 7839,
      "##ila": 7840,
      "##federal": 7841,
      "coordenador": 7842,
      "resulta": 7843,
      "coletivos": 7844,
      "182": 7845,
      "funcionário": 7846,
      "folhas": 7847,
      "absor": 7848,
      "fluxo": 7849,
      "##decreto": 7850,
      "autu": 7851,
      "vislumb": 7852,
      "produzidos": 7853,
      "revoga": 7854,
      "rodri": 7855,
      "##dagem": 7856,
      "empr": 7857,
      "proporção": 7858,
      "##ístico": 7859,
      "superveniente": 7860,
      "consentimento": 7861,
      "aperfeiçoamento": 7862,
      "organizar": 7863,
      "adequadas": 7864,
      "evolu": 7865,
      "151": 7866,
      "salv": 7867,
      "##pm": 7868,
      "combat": 7869,
      "##erados": 7870,
      "ane": 7871,
      "mantidas": 7872,
      "demonstram": 7873,
      "redist": 7874,
      "favoráveis": 7875,
      "legitim": 7876,
      "próx": 7877,
      "aver": 7878,
      "datas": 7879,
      "aprofun": 7880,
      "desporto": 7881,
      "desafios": 7882,
      "dupla": 7883,
      "desestatização": 7884,
      "notadamente": 7885,
      "descrito": 7886,
      "mecanismo": 7887,
      "aproximadas": 7888,
      "promoções": 7889,
      "tarifa": 7890,
      "avis": 7891,
      "desigu": 7892,
      "relacionada": 7893,
      "sanitária": 7894,
      "juntamente": 7895,
      "perigos": 7896,
      "honorária": 7897,
      "##ônica": 7898,
      "##estral": 7899,
      "##erou": 7900,
      "##ificar": 7901,
      "bandeira": 7902,
      "pn": 7903,
      "apurados": 7904,
      "subscrita": 7905,
      "tja": 7906,
      "revelada": 7907,
      "##adi": 7908,
      "corresponde": 7909,
      "##ton": 7910,
      "fórum": 7911,
      "condicional": 7912,
      "resoluções": 7913,
      "aumentar": 7914,
      "experiência": 7915,
      "resguar": 7916,
      "hídricos": 7917,
      "##vit": 7918,
      "##imas": 7919,
      "adquir": 7920,
      "estratégico": 7921,
      "##auto": 7922,
      "##íp": 7923,
      "##pção": 7924,
      "##itará": 7925,
      "intelectual": 7926,
      "##cto": 7927,
      "embarcação": 7928,
      "##ity": 7929,
      "peritos": 7930,
      "##fes": 7931,
      "inadmit": 7932,
      "aproximadamente": 7933,
      "proteger": 7934,
      "##elar": 7935,
      "##tória": 7936,
      "consultivo": 7937,
      "##xo": 7938,
      "##rita": 7939,
      "propaganda": 7940,
      "##atíveis": 7941,
      "##prev": 7942,
      "extrajudiciais": 7943,
      "cargas": 7944,
      "eleições": 7945,
      "liberação": 7946,
      "assistente": 7947,
      "acaba": 7948,
      "diversidade": 7949,
      "pronúncia": 7950,
      "empréstimo": 7951,
      "##íbrio": 7952,
      "dando": 7953,
      "mercant": 7954,
      "registrar": 7955,
      "troux": 7956,
      "corré": 7957,
      "envolvidas": 7958,
      "móveis": 7959,
      "##°00": 7960,
      "propositura": 7961,
      "consignou": 7962,
      "adotados": 7963,
      "obtido": 7964,
      "225": 7965,
      "ressaltar": 7966,
      "único": 7967,
      "passando": 7968,
      "justificativa": 7969,
      "legalmente": 7970,
      "renúncia": 7971,
      "passado": 7972,
      "##grá": 7973,
      "goi": 7974,
      "argumenta": 7975,
      "edif": 7976,
      "cumprindo": 7977,
      "conceitos": 7978,
      "utilizando": 7979,
      "darepública": 7980,
      "visual": 7981,
      "pôr": 7982,
      "veio": 7983,
      "povo": 7984,
      "impress": 7985,
      "autárquica": 7986,
      "atenda": 7987,
      "literal": 7988,
      "úteis": 7989,
      "cerce": 7990,
      "##sticos": 7991,
      "ocupa": 7992,
      "consideram": 7993,
      "declarações": 7994,
      "obscuridade": 7995,
      "inscritos": 7996,
      "acionistas": 7997,
      "sobrecarga": 7998,
      "desconto": 7999,
      "corpora": 8000,
      "televisão": 8001,
      "fls": 8002,
      "arquivo": 8003,
      "gre": 8004,
      "mist": 8005,
      "##ientes": 8006,
      "núc": 8007,
      "instituir": 8008,
      "sócios": 8009,
      "detent": 8010,
      "cronograma": 8011,
      "reunir": 8012,
      "intemp": 8013,
      "##ción": 8014,
      "148": 8015,
      "##inariamente": 8016,
      "recomendações": 8017,
      "organizacional": 8018,
      "resgate": 8019,
      "infrator": 8020,
      "jurídicos": 8021,
      "estranhos": 8022,
      "teratologia": 8023,
      "normal": 8024,
      "##user": 8025,
      "documental": 8026,
      "havido": 8027,
      "profun": 8028,
      "punibilidade": 8029,
      "homologação": 8030,
      "##tência": 8031,
      "##ges": 8032,
      "gov": 8033,
      "sinalização": 8034,
      "consultoria": 8035,
      "aposent": 8036,
      "lanc": 8037,
      "xvii": 8038,
      "cedidos": 8039,
      "jurisprudência": 8040,
      "##fique": 8041,
      "separação": 8042,
      "mão": 8043,
      "procedida": 8044,
      "costu": 8045,
      "gênero": 8046,
      "mensalmente": 8047,
      "##item": 8048,
      "reconhecendo": 8049,
      "implic": 8050,
      "portal": 8051,
      "psico": 8052,
      "coer": 8053,
      "##inistério": 8054,
      "##ícito": 8055,
      "metodolo": 8056,
      "##osos": 8057,
      "considerações": 8058,
      "acresce": 8059,
      "##vens": 8060,
      "efetuados": 8061,
      "peso": 8062,
      "perigo": 8063,
      "licenciamento": 8064,
      "indiví": 8065,
      "negociação": 8066,
      "penitenci": 8067,
      "sucumbência": 8068,
      "##cn": 8069,
      "interp": 8070,
      "indivídu": 8071,
      "mercê": 8072,
      "ressalta": 8073,
      "haverá": 8074,
      "educacionais": 8075,
      "rejeição": 8076,
      "setorial": 8077,
      "interv": 8078,
      "afins": 8079,
      "guia": 8080,
      "##vão": 8081,
      "sep": 8082,
      "energ": 8083,
      "##itivas": 8084,
      "##tista": 8085,
      "cartório": 8086,
      "inova": 8087,
      "contemp": 8088,
      "desconstitu": 8089,
      "##icul": 8090,
      "##cretaria": 8091,
      "compatível": 8092,
      "nomeado": 8093,
      "cará": 8094,
      "obrigatório": 8095,
      "experiência": 8096,
      "discriminação": 8097,
      "rond": 8098,
      "##icável": 8099,
      "funcionais": 8100,
      "formalização": 8101,
      "existir": 8102,
      "sec": 8103,
      "249": 8104,
      "irres": 8105,
      "consequente": 8106,
      "xviii": 8107,
      "by": 8108,
      "##riou": 8109,
      "##posições": 8110,
      "##ônicos": 8111,
      "gene": 8112,
      "profissão": 8113,
      "matri": 8114,
      "assessor": 8115,
      "precon": 8116,
      "segmento": 8117,
      "pede": 8118,
      "sócio": 8119,
      "decorrerão": 8120,
      "pacientes": 8121,
      "praticar": 8122,
      "resumo": 8123,
      "##ateral": 8124,
      "democracia": 8125,
      "estudantes": 8126,
      "fór": 8127,
      "apresentam": 8128,
      "legislação": 8129,
      "caráter": 8130,
      "fas": 8131,
      "distintos": 8132,
      "pedro": 8133,
      "intermediário": 8134,
      "##éis": 8135,
      "conting": 8136,
      "português": 8137,
      "nomes": 8138,
      "porta": 8139,
      "1979": 8140,
      "confirmação": 8141,
      "##tá": 8142,
      "estágio": 8143,
      "intempes": 8144,
      "estagia": 8145,
      "envolve": 8146,
      "insuficiência": 8147,
      "paí": 8148,
      "adotou": 8149,
      "proibição": 8150,
      "lemb": 8151,
      "rr": 8152,
      "##ear": 8153,
      "vinculação": 8154,
      "completa": 8155,
      "irregularidade": 8156,
      "##tres": 8157,
      "##olis": 8158,
      "manob": 8159,
      "apurar": 8160,
      "subsequente": 8161,
      "países": 8162,
      "##out": 8163,
      "decla": 8164,
      "recebidas": 8165,
      "equipes": 8166,
      "provo": 8167,
      "leil": 8168,
      "insus": 8169,
      "##trou": 8170,
      "configurada": 8171,
      "acrescida": 8172,
      "precis": 8173,
      "qualita": 8174,
      "métodos": 8175,
      "expedido": 8176,
      "vei": 8177,
      "tarif": 8178,
      "##tativa": 8179,
      "incentivar": 8180,
      "##06": 8181,
      "criadas": 8182,
      "152": 8183,
      "##ração": 8184,
      "##itação": 8185,
      "##ator": 8186,
      "##ensão": 8187,
      "aí": 8188,
      "supra": 8189,
      "empresarial": 8190,
      "extintos": 8191,
      "##fego": 8192,
      "1984": 8193,
      "cidadãos": 8194,
      "desembargador": 8195,
      "diagno": 8196,
      "alv": 8197,
      "jovens": 8198,
      "religios": 8199,
      "ques": 8200,
      "##paro": 8201,
      "identificação": 8202,
      "##uladas": 8203,
      "publicação": 8204,
      "##igna": 8205,
      "privileg": 8206,
      "##ural": 8207,
      "##issão": 8208,
      "700": 8209,
      "##endos": 8210,
      "incluído": 8211,
      "aluno": 8212,
      "ampara": 8213,
      "restos": 8214,
      "perícia": 8215,
      "ressalva": 8216,
      "##ham": 8217,
      "reintegra": 8218,
      "exclusivo": 8219,
      "reclamado": 8220,
      "medicina": 8221,
      "lucrativos": 8222,
      "arte": 8223,
      "tarefas": 8224,
      "##class": 8225,
      "fatura": 8226,
      "possibilidades": 8227,
      "município": 8228,
      "ajuiz": 8229,
      "josé": 8230,
      "sorte": 8231,
      "prerrogativa": 8232,
      "001": 8233,
      "tutel": 8234,
      "teto": 8235,
      "correntes": 8236,
      "governamental": 8237,
      "parlamentar": 8238,
      "vulnera": 8239,
      "##35": 8240,
      "dolo": 8241,
      "##ráveis": 8242,
      "regulamentar": 8243,
      "ressalvada": 8244,
      "quota": 8245,
      "rot": 8246,
      "##mite": 8247,
      "incompetência": 8248,
      "interpostos": 8249,
      "iguais": 8250,
      "federação": 8251,
      "pensionistas": 8252,
      "foco": 8253,
      "cog": 8254,
      "bolsas": 8255,
      "pob": 8256,
      "313": 8257,
      "sindicato": 8258,
      "desfe": 8259,
      "apenso": 8260,
      "##ás": 8261,
      "goz": 8262,
      "##taram": 8263,
      "ciências": 8264,
      "dêste": 8265,
      "pós": 8266,
      "rp": 8267,
      "##́d": 8268,
      "procra": 8269,
      "estrito": 8270,
      "contrapar": 8271,
      "disporá": 8272,
      "linguagem": 8273,
      "jud": 8274,
      "incid": 8275,
      "deverá": 8276,
      "aplicabilidade": 8277,
      "gerador": 8278,
      "farma": 8279,
      "cun": 8280,
      "law": 8281,
      "soluções": 8282,
      "sexo": 8283,
      "espor": 8284,
      "últimos": 8285,
      "êste": 8286,
      "181": 8287,
      "estavam": 8288,
      "excetu": 8289,
      "procuradores": 8290,
      "acredit": 8291,
      "vários": 8292,
      "##ao": 8293,
      "prete": 8294,
      "1965": 8295,
      "alimentar": 8296,
      "similar": 8297,
      "##elab": 8298,
      "auditor": 8299,
      "contam": 8300,
      "pactu": 8301,
      "propon": 8302,
      "importados": 8303,
      "acréscimo": 8304,
      "sis": 8305,
      "merecimento": 8306,
      "empreendimento": 8307,
      "indivíduos": 8308,
      "preferencialmente": 8309,
      "locomo": 8310,
      "cumulativamente": 8311,
      "##tórias": 8312,
      "contratados": 8313,
      "vaga": 8314,
      "espí": 8315,
      "eletrônicos": 8316,
      "sum": 8317,
      "reto": 8318,
      "afastada": 8319,
      "permissivo": 8320,
      "juízo": 8321,
      "diligências": 8322,
      "glossa": 8323,
      "gên": 8324,
      "1981": 8325,
      "marítimo": 8326,
      "164": 8327,
      "agropecuária": 8328,
      "expec": 8329,
      "##tizado": 8330,
      "revogados": 8331,
      "##ativa": 8332,
      "revogadas": 8333,
      "cometidas": 8334,
      "eg": 8335,
      "zonas": 8336,
      "sel": 8337,
      "respostas": 8338,
      "características": 8339,
      "##ógico": 8340,
      "atraso": 8341,
      "evidencia": 8342,
      "decidida": 8343,
      "publicar": 8344,
      "enseja": 8345,
      "6°": 8346,
      "invo": 8347,
      "societ": 8348,
      "wh": 8349,
      "facultado": 8350,
      "salarial": 8351,
      "desigual": 8352,
      "trim": 8353,
      "##viii": 8354,
      "médicos": 8355,
      "submetidas": 8356,
      "ál": 8357,
      "impactos": 8358,
      "esferas": 8359,
      "suge": 8360,
      "leva": 8361,
      "magna": 8362,
      "incidi": 8363,
      "resolver": 8364,
      "substituir": 8365,
      "fundacional": 8366,
      "reembol": 8367,
      "exposição": 8368,
      "celebrar": 8369,
      "estratégias": 8370,
      "remoção": 8371,
      "perdas": 8372,
      "##sl": 8373,
      "##itores": 8374,
      "##ande": 8375,
      "traduz": 8376,
      "transa": 8377,
      "##diver": 8378,
      "dispõe": 8379,
      "pertence": 8380,
      "série": 8381,
      "##sões": 8382,
      "##tizo": 8383,
      "solida": 8384,
      "organizações": 8385,
      "distrital": 8386,
      "avaliações": 8387,
      "oportunidades": 8388,
      "tempora": 8389,
      "nunca": 8390,
      "comprovado": 8391,
      "ganhos": 8392,
      "##itárias": 8393,
      "##quia": 8394,
      "prioridades": 8395,
      "##onia": 8396,
      "##feita": 8397,
      "##ificada": 8398,
      "gerar": 8399,
      "##rimentos": 8400,
      "##icer": 8401,
      "##ficação": 8402,
      "##cípro": 8403,
      "terceirizados": 8404,
      "fór": 8405,
      "poderá": 8406,
      "porém": 8407,
      "expedir": 8408,
      "inadimpl": 8409,
      "glossário": 8410,
      "habitu": 8411,
      "chile": 8412,
      "refin": 8413,
      "substância": 8414,
      "movimentação": 8415,
      "irrele": 8416,
      "dito": 8417,
      "ost": 8418,
      "vendas": 8419,
      "estranho": 8420,
      "##cal": 8421,
      "penho": 8422,
      "that": 8423,
      "procrastin": 8424,
      "extravas": 8425,
      "depositário": 8426,
      "regulamentares": 8427,
      "culpabilidade": 8428,
      "##45": 8429,
      "##onio": 8430,
      "##dias": 8431,
      "microempres": 8432,
      "##anciamento": 8433,
      "destas": 8434,
      "execuções": 8435,
      "alegre": 8436,
      "conciliação": 8437,
      "##ênio": 8438,
      "##idado": 8439,
      "chama": 8440,
      "tiveram": 8441,
      "rhc": 8442,
      "##ph": 8443,
      "##dom": 8444,
      "justamente": 8445,
      "transparência": 8446,
      "##bras": 8447,
      "exercido": 8448,
      "230": 8449,
      "suspensivo": 8450,
      "agrícolas": 8451,
      "camb": 8452,
      "apontado": 8453,
      "inviabiliza": 8454,
      "negociações": 8455,
      "207": 8456,
      "##creve": 8457,
      "diferenças": 8458,
      "dra": 8459,
      "ausência": 8460,
      "452": 8461,
      "designar": 8462,
      "excepcionalmente": 8463,
      "tange": 8464,
      "atip": 8465,
      "intimada": 8466,
      "impon": 8467,
      "promoção": 8468,
      "salvaguar": 8469,
      "espírito": 8470,
      "intenção": 8471,
      "presença": 8472,
      "restring": 8473,
      "importador": 8474,
      "fro": 8475,
      "cometido": 8476,
      "mí": 8477,
      "##gramas": 8478,
      "chegou": 8479,
      "continuada": 8480,
      "recípro": 8481,
      "positiva": 8482,
      "240": 8483,
      "cabo": 8484,
      "histórico": 8485,
      "aneel": 8486,
      "registrada": 8487,
      "assumir": 8488,
      "reparação": 8489,
      "desenvolvidos": 8490,
      "inexiste": 8491,
      "impedimentos": 8492,
      "pud": 8493,
      "287": 8494,
      "atacada": 8495,
      "sindical": 8496,
      "assenta": 8497,
      "circuns": 8498,
      "quantitativos": 8499,
      "verdadeiro": 8500,
      "nú": 8501,
      "exib": 8502,
      "locação": 8503,
      "digit": 8504,
      "último": 8505,
      "combinado": 8506,
      "setenta": 8507,
      "sudene": 8508,
      "nut": 8509,
      "têrmos": 8510,
      "tende": 8511,
      "atento": 8512,
      "terres": 8513,
      "contratadas": 8514,
      "##endedor": 8515,
      "arquivos": 8516,
      "##arte": 8517,
      "viola": 8518,
      "ocupando": 8519,
      "testemunha": 8520,
      "averb": 8521,
      "##au": 8522,
      "alicer": 8523,
      "##domin": 8524,
      "reduzida": 8525,
      "##tizou": 8526,
      "atipicidade": 8527,
      "##ers": 8528,
      "cade": 8529,
      "crí": 8530,
      "pet": 8531,
      "line": 8532,
      "xix": 8533,
      "prever": 8534,
      "crise": 8535,
      "manutenção": 8536,
      "substancial": 8537,
      "confer": 8538,
      "ocorrerá": 8539,
      "colon": 8540,
      "residentes": 8541,
      "sustentação": 8542,
      "alternativa": 8543,
      "##lat": 8544,
      "organizado": 8545,
      "preclusão": 8546,
      "compare": 8547,
      "agenda": 8548,
      "firmar": 8549,
      "concessões": 8550,
      "sexual": 8551,
      "subsídios": 8552,
      "##apl": 8553,
      "discutir": 8554,
      "moradia": 8555,
      "mitig": 8556,
      "agir": 8557,
      "poderiam": 8558,
      "aduaneiras": 8559,
      "verbis": 8560,
      "goiás": 8561,
      "##idad": 8562,
      "escrita": 8563,
      "acolher": 8564,
      "assentado": 8565,
      "aband": 8566,
      "certame": 8567,
      "tornando": 8568,
      "renegociação": 8569,
      "cônjuge": 8570,
      "partem": 8571,
      "##tibilidade": 8572,
      "##vii": 8573,
      "presidentes": 8574,
      "registradas": 8575,
      "fortalecer": 8576,
      "alfim": 8577,
      "imprescindível": 8578,
      "pequenas": 8579,
      "desfecho": 8580,
      "##33": 8581,
      "cef": 8582,
      "rito": 8583,
      "depro": 8584,
      "atribuída": 8585,
      "permitam": 8586,
      "lima": 8587,
      "foto": 8588,
      "adequados": 8589,
      "202": 8590,
      "limitado": 8591,
      "##baix": 8592,
      "posteriores": 8593,
      "assinal": 8594,
      "vit": 8595,
      "216": 8596,
      "novamente": 8597,
      "##órum": 8598,
      "##ristas": 8599,
      "esclar": 8600,
      "##op": 8601,
      "estarão": 8602,
      "paul": 8603,
      "técnico": 8604,
      "reclamante": 8605,
      "responsáveis": 8606,
      "localização": 8607,
      "##essem": 8608,
      "##crim": 8609,
      "fundiária": 8610,
      "câmbio": 8611,
      "punitiva": 8612,
      "convenções": 8613,
      "naquela": 8614,
      "comitê": 8615,
      "pericial": 8616,
      "voltados": 8617,
      "sabe": 8618,
      "especificados": 8619,
      "inferiores": 8620,
      "próx": 8621,
      "##qual": 8622,
      "288": 8623,
      "chefia": 8624,
      "ouvidoria": 8625,
      "orçamentária": 8626,
      "##ecido": 8627,
      "dá": 8628,
      "##enças": 8629,
      "##damente": 8630,
      "228": 8631,
      "soltura": 8632,
      "acauteladora": 8633,
      "trouxe": 8634,
      "##icultura": 8635,
      "veí": 8636,
      "premissa": 8637,
      "servir": 8638,
      "superveniência": 8639,
      "bra": 8640,
      "htt": 8641,
      "##ervi": 8642,
      "##mentes": 8643,
      "##ática": 8644,
      "retribuição": 8645,
      "inaplicável": 8646,
      "enun": 8647,
      "clt": 8648,
      "melhores": 8649,
      "discussão": 8650,
      "tribuna": 8651,
      "desacordo": 8652,
      "recupera": 8653,
      "aeronave": 8654,
      "hen": 8655,
      "1971": 8656,
      "nestes": 8657,
      "##ânica": 8658,
      "enfer": 8659,
      "agrário": 8660,
      "tráfego": 8661,
      "redis": 8662,
      "contratada": 8663,
      "retirada": 8664,
      "permanece": 8665,
      "327": 8666,
      "divulgar": 8667,
      "técnicas": 8668,
      "cra": 8669,
      "##iadores": 8670,
      "consecu": 8671,
      "especializados": 8672,
      "outrora": 8673,
      "ceará": 8674,
      "emitidos": 8675,
      "##ír": 8676,
      "institutos": 8677,
      "exames": 8678,
      "ramo": 8679,
      "entrou": 8680,
      "produtivo": 8681,
      "agress": 8682,
      "comporta": 8683,
      "##ímp": 8684,
      "postal": 8685,
      "consignado": 8686,
      "##́sticos": 8687,
      "canais": 8688,
      "206": 8689,
      "decretada": 8690,
      "acór": 8691,
      "##rela": 8692,
      "pendente": 8693,
      "##ricana": 8694,
      "derro": 8695,
      "flex": 8696,
      "he": 8697,
      "adquirir": 8698,
      "extravasamento": 8699,
      "##tividades": 8700,
      "magn": 8701,
      "prevalecer": 8702,
      "cerceamento": 8703,
      "tar": 8704,
      "##07": 8705,
      "##queira": 8706,
      "solid": 8707,
      "estatut": 8708,
      "##08": 8709,
      "##anos": 8710,
      "bruto": 8711,
      "restabelecendo": 8712,
      "cour": 8713,
      "conteúdo": 8714,
      "elevado": 8715,
      "possibilitar": 8716,
      "ferramentas": 8717,
      "oportuno": 8718,
      "insuscetível": 8719,
      "transcri": 8720,
      "representam": 8721,
      "concessionária": 8722,
      "##ães": 8723,
      "dimen": 8724,
      "esqu": 8725,
      "reprim": 8726,
      "##ction": 8727,
      "consagra": 8728,
      "##essões": 8729,
      "responde": 8730,
      "turí": 8731,
      "##venções": 8732,
      "estagiários": 8733,
      "xl": 8734,
      "degra": 8735,
      "prefe": 8736,
      "acidentes": 8737,
      "beb": 8738,
      "lotação": 8739,
      "lava": 8740,
      "##aus": 8741,
      "agreg": 8742,
      "tend": 8743,
      "trâ": 8744,
      "quinta": 8745,
      "reclamada": 8746,
      "evolução": 8747,
      "##09": 8748,
      "##emato": 8749,
      "indeferido": 8750,
      "litigios": 8751,
      "pai": 8752,
      "##rizar": 8753,
      "##ológicos": 8754,
      "trip": 8755,
      "apropriado": 8756,
      "incapacidade": 8757,
      "usuários": 8758,
      "iba": 8759,
      "preven": 8760,
      "235": 8761,
      "##aneamente": 8762,
      "barra": 8763,
      "mach": 8764,
      "##elaboração": 8765,
      "localidade": 8766,
      "dissemin": 8767,
      "manobras": 8768,
      "obl": 8769,
      "condenados": 8770,
      "décimo": 8771,
      "denominada": 8772,
      "acontecendo": 8773,
      "ficarão": 8774,
      "inibir": 8775,
      "##prezo": 8776,
      "edição": 8777,
      "##idente": 8778,
      "##tins": 8779,
      "##econôm": 8780,
      "##mer": 8781,
      "consecução": 8782,
      "rescisão": 8783,
      "sonora": 8784,
      "cível": 8785,
      "##ciou": 8786,
      "acusados": 8787,
      "##jos": 8788,
      "descrição": 8789,
      "prioritária": 8790,
      "##administração": 8791,
      "##isso": 8792,
      "aprova": 8793,
      "favorável": 8794,
      "##ítimas": 8795,
      "palavra": 8796,
      "ri": 8797,
      "##fisc": 8798,
      "américa": 8799,
      "##util": 8800,
      "liminarmente": 8801,
      "784": 8802,
      "1977": 8803,
      "estrita": 8804,
      "##ical": 8805,
      "observará": 8806,
      "jogo": 8807,
      "##ional": 8808,
      "fraude": 8809,
      "complexo": 8810,
      "detalhamento": 8811,
      "originais": 8812,
      "efetivação": 8813,
      "mental": 8814,
      "associado": 8815,
      "contábeis": 8816,
      "##resente": 8817,
      "ana": 8818,
      "aéreas": 8819,
      "aprendizagem": 8820,
      "reestruturação": 8821,
      "benfeito": 8822,
      "##curs": 8823,
      "##̂mica": 8824,
      "propici": 8825,
      "especificadas": 8826,
      "wit": 8827,
      "##cao": 8828,
      "233": 8829,
      "concedente": 8830,
      "##bar": 8831,
      "caracterização": 8832,
      "##ork": 8833,
      "caracteriza": 8834,
      "dupl": 8835,
      "congêneres": 8836,
      "físico": 8837,
      "826": 8838,
      "posições": 8839,
      "companhias": 8840,
      "eletrônica": 8841,
      "cg": 8842,
      "##tórias": 8843,
      "quitação": 8844,
      "##ang": 8845,
      "1974": 8846,
      "distintas": 8847,
      "gos": 8848,
      "especializadas": 8849,
      "distinção": 8850,
      "dede": 8851,
      "fala": 8852,
      "deliberações": 8853,
      "##ai": 8854,
      "##mentares": 8855,
      "preparo": 8856,
      "##rad": 8857,
      "repu": 8858,
      "primas": 8859,
      "nacionalidade": 8860,
      "impetrantes": 8861,
      "ramos": 8862,
      "##locu": 8863,
      "auxí": 8864,
      "colegiada": 8865,
      "plurianual": 8866,
      "adquirente": 8867,
      "atuam": 8868,
      "inatividade": 8869,
      "vínculo": 8870,
      "##dada": 8871,
      "##́rico": 8872,
      "doações": 8873,
      "contratar": 8874,
      "dará": 8875,
      "relacionamento": 8876,
      "recusa": 8877,
      "##dou": 8878,
      "audio": 8879,
      "enfa": 8880,
      "estruturação": 8881,
      "retenção": 8882,
      "##institu": 8883,
      "ressalvadas": 8884,
      "aç": 8885,
      "supor": 8886,
      "248": 8887,
      "##cend": 8888,
      "dedução": 8889,
      "corrupção": 8890,
      "operadores": 8891,
      "eficaz": 8892,
      "locomoção": 8893,
      "vícios": 8894,
      "##gover": 8895,
      "##eta": 8896,
      "renov": 8897,
      "##íduo": 8898,
      "coordenação": 8899,
      "ouro": 8900,
      "urbanos": 8901,
      "migra": 8902,
      "indígenas": 8903,
      "integração": 8904,
      "completo": 8905,
      "##th": 8906,
[...]
