{"version":"1.0","truncation":null,"padding":null,"added_tokens":[{"id":0,"special":true,"content":"[PAD]","single_word":false,"lstrip":false,"rstrip":false,"normalized":false},{"id":1,"special":true,"content":"[UNK]","single_word":false,"lstrip":false,"rstrip":false,"normalized":false},{"id":2,"special":true,"content":"[CLS]","single_word":false,"lstrip":false,"rstrip":false,"normalized":false},{"id":3,"special":true,"content":"[SEP]","single_word":false,"lstrip":false,"rstrip":false,"normalized":false},{"id":4,"special":true,"content":"[MASK]","single_word":false,"lstrip":false,"rstrip":false,"normalized":false}],"normalizer":{"type":"BertNormalizer","clean_text":true,"handle_chinese_chars":true,"strip_accents":null,"lowercase":false},"pre_tokenizer":{"type":"BertPreTokenizer"},"post_processor":{"type":"TemplateProcessing","single":[{"SpecialToken":{"id":"[CLS]","type_id":0}},{"Sequence":{"id":"A","type_id":0}},{"SpecialToken":{"id":"[SEP]","type_id":0}}],"pair":[{"SpecialToken":{"id":"[CLS]","type_id":0}},{"Sequence":{"id":"A","type_id":0}},{"SpecialToken":{"id":"[SEP]","type_id":0}},{"Sequence":{"id":"B","type_id":1}},{"SpecialToken":{"id":"[SEP]","type_id":1}}],"special_tokens":{"[CLS]":{"id":"[CLS]","ids":[2],"tokens":["[CLS]"]},"[SEP]":{"id":"[SEP]","ids":[3],"tokens":["[SEP]"]}}},"decoder":{"type":"WordPiece","prefix":"##","cleanup":true},"model":{"type":"WordPiece","unk_token":"[UNK]","continuing_subword_prefix":"##","max_input_chars_per_word":100,"vocab":{"[PAD]":0,"[UNK]":1,"[CLS]":2,"[SEP]":3,"[MASK]":4,"$":5,"%":6,",":7,"-":8,".":9,"/":10,":":11,"<":12,">":13,"a":14,"b":15,"c":16,"d":17,"e":18,"f":19,"g":20,"h":21,"i":22,"j":23,"k":24,"l":25,"m":26,"n":27,"o":28,"p":29,"q":30,"r":31,"s":32,"t":33,"u":34,"v":35,"w":36,"x":37,"y":38,"z":39,"±":40,"³":41,"¼":42,"½":43,"¾":44,"×":45,"à":46,"á":47,"â":48,"ã":49,"ç":50,"é":51,"ê":52,"í":53,"ó":54,"ô":55,"õ":56,"÷":57,"ú":58,"˚":59,"̀":60,"́":61,"̂":62,"̃":63,"̇":64,"̈":65,"̊":66,"̋":67,"̏":68,"̐":69,"̕":70,"̣":71,"̧":72,"̶":73,"ͣ":74,"ͦ":75,";":76,"##o":77,"##t":78,"##a":79,"##r":80,"##ã":81,"##s":82,"##i":83,"##l":84,"##e":85,"##n":86,"##h":87,"##m":88,"##b":89,"##v":90,"##c":91,"##d":92,"##f":93,"##g":94,"##z":95,"##ç":96,"##à":97,"##u":98,"##q":99,"##é":100,"##p":101,"##ó":102,"##á":103,"##í":104,"##ê":105,"##k":106,"##x":107,"##ú":108,"##y":109,"##j":110,"##â":111,"##̧":112,"##õ":113,"##w":114,"##̃":115,"##̂":116,"##ô":117,"##́":118,"##³":119,"##̀":120,"##±":121,"##̣":122,"##̐":123,"##÷":124,"##½":125,"##̈":126,"##̇":127,"##×":128,"##˚":129,"##¾":130,"##¼":131,"##er":132,"##nt":133,"de":134,"##os":135,"##ra":136,"##es":137,"##ta":138,"co":139,"##ão":140,"##ent":141,"##or":142,"##ad":143,"##ci":144,"##as":145,"##ção":146,"##is":147,"##um":148,"##al":149,"##ero":150,"pr":151,"num":152,"numero":153,"do":154,"##ic":155,"##id":156,"##ar":157,"##en":158,"da":159,"##ment":160,"##ti":161,"##ri":162,"re":163,"##do":164,"cont":165,"com":166,"qu":167,"##to":168,"ser":169,"##el":170,"em":171,"##ação":172,"se":173,"##ara":174,"##te":175,"contra":176,"##in":177,"con":178,"no":179,"##re":180,"##an":181,"es":182,"##ei":183,"in":184,"##mento":185,"para":186,"##di":187,"##ro":188,"##on":189,"pre":190,"ou":191,"pro":192,"##qu":193,"##idad":194,"##ec":195,"##ici":196,"##ões":197,"as":198,"que":199,"##nte":200,"##tu":201,"##ções":202,"des":203,"##ma":204,"contrata":205,"##da":206,"ex":207,"##ado":208,"##nci":209,"##em":210,"##res":211,"##iz":212,"##vi":213,"os":214,"dev":215,"##ica":216,"por":217,"##us":218,"##ul":219,"##tiv":220,"ob":221,"##idade":222,"##ia":223,"##ess":224,"##pres":225,"pel":226,"dos":227,"##ada":228,"##eci":229,"##icita":230,"su":231,"##il":232,"##ados":233,"##ênci":234,"##ços":235,"na":236,"##ist":237,"##ente":238,"for":239,"##tal":240,"at":241,"servi":242,"##mo":243,"##od":244,"licita":245,"di":246,"##un":247,"##erá":248,"##ais":249,"##mente":250,"##ári":251,"##ol":252,"##ência":253,"##pos":254,"##me":255,"nú":256,"##ter":257,"##for":258,"núm":259,"número":260,"comp":261,"##ab":262,"##ga":263,"res":264,"##tos":265,"##fer":266,"##je":267,"par":268,"ac":269,"cons":270,"##le":271,"##ed":272,"##gu":273,"ap":274,"##fic":275,"ter":276,"an":277,"##ant":278,"##tr":279,"##aliz":280,"serviços":281,"##mp":282,"##min":283,"pres":284,"das":285,"en":286,"não":287,"obje":288,"contrato":289,"esta":290,"pra":291,"ao":292,"reg":293,"##ço":294,"##de":295,"##ras":296,"##ico":297,"##ig":298,"##ução":299,"##zo":300,"##ando":301,"per":302,"##go":303,"contratada":304,"rec":305,"ent":306,"esp":307,"objeto":308,"##cl":309,"##dos":310,"##ens":311,"##adas":312,"##present":313,"pela":314,"ins":315,"##endo":316,"ad":317,"deverá":318,"##pa":319,"##pon":320,"so":321,"##tas":322,"tra":323,"confor":324,"prazo":325,"##tura":326,"exec":327,"ma":328,"##ir":329,"será":330,"pelo":331,"val":332,"al":333,"entre":334,"qual":335,"ass":336,"edi":337,"##ita":338,"##ex":339,"especi":340,"forn":341,"ar":342,"##ida":343,"##idades":344,"empres":345,"propos":346,"##tor":347,"##ument":348,"##istra":349,"##oc":350,"##ha":351,"refer":352,"##qui":353,"edital":354,"##isc":355,"pa":356,"##mentos":357,"apresent":358,"##ntes":359,"conforme":360,"##ição":361,"##im":362,"pod":363,"##entes":364,"mun":365,"##cion":366,"como":367,"##du":368,"##ecess":369,"necess":370,"cor":371,"##io":372,"##ido":373,"ca":374,"cas":375,"##end":376,"##cor":377,"##tem":378,"lei":379,"##erão":380,"##gra":381,"##ora":382,"termo":383,"##vel":384,"##nter":385,"valor":386,"anex":387,"##ific":388,"##bi":389,"prev":390,"execução":391,"té":392,"##quer":393,"equi":394,"dis":395,"preços":396,"##rio":397,"##iv":398,"##esso":399,"##tiva":400,"nos":401,"##fica":402,"fa":403,"##amento":404,"##abil":405,"empresa":406,"##ho":407,"to":408,"fisc":409,"##ário":410,"admin":411,"mater":412,"administra":413,"##cn":414,"dias":415,"segu":416,"tod":417,"técn":418,"##quis":419,"ele":420,"deste":421,"proposta":422,"proc":423,"licitação":424,"licitante":425,"##bl":426,"contratante":427,"pos":428,"##tivo":429,"condi":430,"un":431,"##edi":432,"##la":433,"##idos":434,"##ur":435,"quant":436,"##enci":437,"sol":438,"##per":439,"##ça":440,"##ior":441,"caso":442,"##das":443,"mes":444,"doc":445,"inter":446,"au":447,"##so":448,"realiz":449,"##corr":450,"##tar":451,"document":452,"##eiro":453,"##fei":454,"##ôn":455,"forneci":456,"##bal":457,"##tação":458,"respon":459,"##gão":460,"##ante":461,"data":462,"presente":463,"arti":464,"até":465,"contratação":466,"##anc":467,"##am":468,"##cre":469,"referência":470,"sua":471,"serviço":472,"##ve":473,"##tó":474,"##idas":475,"##cri":476,"equipa":477,"sub":478,"sob":479,"respons":480,"##it":481,"regist":482,"##iss":483,"artigo":484,"condições":485,"##ura":486,"rece":487,"##ós":488,"sis":489,"##mos":490,"registro":491,"sem":492,"##bel":493,"man":494,"or":495,"##ficações":496,"nes":497,"##titu":498,"parti":499,"deverão":500,"qualquer":501,"serão":502,"ab":503,"às":504,"##rov":505,"mo":506,"##uí":507,"estabel":508,"##ará":509,"le":510,"##cul":511,"dire":512,"##pri":513,"##icas":514,"##ários":515,"item":516,"##tes":517,"##ca":518,"##po":519,"imp":520,"##bil":521,"##icip":522,"municip":523,"##icação":524,"anexo":525,"especificações":526,"##tra":527,"cl":528,"forma":529,"##tado":530,"##úbl":531,"##ín":532,"##ix":533,"estabeleci":534,"##imo":535,"##gamento":536,"loc":537,"após":538,"##por":539,"##fe":540,"neste":541,"##tema":542,"públ":543,"obri":544,"eletr":545,"sistema":546,"##eral":547,"##ações":548,"previs":549,"emp":550,"##ass":551,"##til":552,"fin":553,"eletrôn":554,"##ns":555,"exig":556,"##ut":557,"municipal":558,"aquis":559,"consta":560,"##ria":561,"infor":562,"solicita":563,"##veis":564,"##erv":565,"ho":566,"##enção":567,"##co":568,"##ências":569,"apl":570,"fornecimento":571,"poss":572,"administração":573,"trabal":574,"##ização":575,"##ja":576,"##ito":577,"seus":578,"produ":579,"##ver":580,"aos":581,"acor":582,"##íci":583,"poderá":584,"ind":585,"def":586,"##ial":587,"##ária":588,"##enc":589,"##iais":590,"preço":591,"##tados":592,"##ores":593,"gara":594,"entrega":595,"aquisição":596,"um":597,"assin":598,"##clus":599,"##lo":600,"pl":601,"pregão":602,"garant":603,"trans":604,"##ran":605,"cer":606,"equipamentos":607,"##tivos":608,"acordo":609,"##vid":610,"quando":611,"todos":612,"subs":613,"##eira":614,"tem":615,"pagamento":616,"materiais":617,"recebi":618,"leg":619,"rela":620,"##tin":621,"vig":622,"recebimento":623,"##ros":624,"efe":625,"##tório":626,"##pes":627,"instr":628,"##tro":629,"##ificação":630,"eletrônico":631,"##íp":632,"comprov":633,"##vent":634,"nas":635,"medi":636,"bem":637,"##tens":638,"fiscal":639,"fu":640,"##icos":641,"total":642,"##ual":643,"atend":644,"##ular":645,"util":646,"ver":647,"má":648,"##ável":649,"##ion":650,"perm":651,"##alização":652,"##gem":653,"si":654,"ve":655,"##és":656,"prestação":657,"##et":658,"vis":659,"##cial":660,"##graf":661,"car":662,"##abilita":663,"mei":664,"##cip":665,"obriga":666,"pe":667,"manut":668,"fornec":669,"##mais":670,"material":671,"seu":672,"nota":673,"acei":674,"resp":675,"pará":676,"fed":677,"pi":678,"responsabil":679,"decl":680,"event":681,"##rib":682,"##ade":683,"apresentar":684,"instal":685,"##rav":686,"dispos":687,"munic":688,"##reg":689,"##ele":690,"municíp":691,"##amente":692,"nor":693,"##ibil":694,"mín":695,"desta":696,"ata":697,"segui":698,"declara":699,"uma":700,"cum":701,"el":702,"sa":703,"este":704,"todas":705,"venc":706,"##cional":707,"processo":708,"##sos":709,"obs":710,"##nto":711,"manutenção":712,"parágraf":713,"secre":714,"##ém":715,"##taria":716,"##issão":717,"ju":718,"pesso":719,"ór":720,"decorr":721,"hora":722,"mediante":723,"meio":724,"dia":725,"autor":726,"conv":727,"lo":728,"##clusiv":729,"##ível":730,"federal":731,"min":732,"município":733,"sobre":734,"##ís":735,"máx":736,"parágrafo":737,"despes":738,"##mas":739,"execu":740,"demais":741,"##tific":742,"pen":743,"##ula":744,"dura":745,"super":746,"documentos":747,"aten":748,"habilita":749,"men":750,"sendo":751,"##vis":752,"defin":753,"mod":754,"ger":755,"##fici":756,"prego":757,"##ider":758,"cada":759,"corr":760,"ocorr":761,"aco":762,"horas":763,"san":764,"observ":765,"##cid":766,"técnica":767,"atender":768,"itens":769,"ti":770,"instrument":771,"ord":772,"##teis":773,"recur":774,"garantia":775,"##no":776,"quais":777,"##ncion":778,"consider":779,"substitu":780,"descri":781,"devida":782,"atrav":783,"através":784,"comple":785,"##ndo":786,"##mpan":787,"##der":788,"úteis":789,"##odo":790,"efetu":791,"perí":792,"funcion":793,"##ício":794,"esti":795,"seja":796,"contratu":797,"conta":798,"##lação":799,"durante":800,"termos":801,"##tivas":802,"são":803,"ag":804,"máximo":805,"inte":806,"##íveis":807,"acompan":808,"##na":809,"cus":810,"jus":811,"##atura":812,"##ícul":813,"partir":814,"##ulta":815,"##ju":816,"ofer":817,"##alidade":818,"comun":819,"plan":820,"ori":821,"cumpri":822,"##enha":823,"##edor":824,"respec":825,"anexos":826,"im":827,"pregoeiro":828,"fun":829,"utiliz":830,"instrumento":831,"##pi":832,"suas":833,"##rá":834,"particip":835,"##tros":836,"##ador":837,"ativ":838,"##erc":839,"##almente":840,"##dimento":841,"cri":842,"parte":843,"##edo":844,"apresentação":845,"dispon":846,"período":847,"direito":848,"constantes":849,"prefei":850,"##ase":851,"habilitação":852,"##val":853,"##pe":854,"devidamente":855,"##té":856,"secretaria":857,"integra":858,"##porte":859,"represent":860,"pública":861,"local":862,"veícul":863,"estado":864,"##enho":865,"dem":866,"indic":867,"##tão":868,"informa":869,"cab":870,"produtos":871,"ordem":872,"trabalho":873,"alter":874,"ates":875,"##car":876,"form":877,"meses":878,"##rios":879,"##ças":880,"fiscalização":881,"##sa":882,"assinatura":883,"mar":884,"previstas":885,"seguintes":886,"##ições":887,"responsabilidade":888,"##bra":889,"##creto":890,"id":891,"atendimento":892,"##ribu":893,"##gos":894,"prefeitura":895,"atu":896,"##edora":897,"cent":898,"aplic":899,"corre":900,"hor":901,"inform":902,"##édi":903,"mais":904,"##árias":905,"am":906,"contados":907,"##tica":908,"regular":909,"deve":910,"ba":911,"exp":912,"##indo":913,"##áus":914,"po":915,"oper":916,"despesas":917,"li":918,"##pend":919,"##gar":920,"##midade":921,"decreto":922,"prof":923,"fab":924,"##va":925,"##ru":926,"trabalh":927,"empreg":928,"estabelecidas":929,"órgão":930,"mínimo":931,"responsável":932,"class":933,"##são":934,"##ânci":935,"propostas":936,"##óp":937,"ema":938,"##ela":939,"fabr":940,"##enh":941,"##dere":942,"lanc":943,"endere":944,"convoc":945,"informações":946,"interess":947,"##abora":948,"inci":949,"##ixo":950,"mant":951,"##tri":952,"##oria":953,"##za":954,"email":955,"##inda":956,"##ign":957,"##juí":958,"##elo":959,"prejuí":960,"##eita":961,"vencedora":962,"qualidade":963,"ident":964,"especific":965,"recursos":966,"##ál":967,"vigência":968,"registra":969,"la":970,"obrigações":971,"##rança":972,"quantidades":973,"fo":974,"##úde":975,"ainda":976,"saúde":977,"fal":978,"##jus":979,"quaisquer":980,"tipo":981,"proje":982,"##dica":983,"exigências":984,"##cont":985,"##essão":986,"ges":987,"##ião":988,"ra":989,"##gação":990,"empresas":991,"servid":992,"conformidade":993,"sal":994,"##ission":995,"técnico":996,"##zos":997,"desde":998,"entregu":999,"prim":1000,"faz":1001,"licitantes":1002,"mesmo":1003,"ha":1004,"##col":1005,"contratual":1006,"capa":1007,"conf":1008,"serem":1009,"##vo":1010,"uso":1011,"pia":1012,"requis":1013,"##alizada":1014,"##gura":1015,"enca":1016,"dent":1017,"contratado":1018,"##ância":1019,"cláus":1020,"##tamente":1021,"##tras":1022,"público":1023,"cumprimento":1024,"aber":1025,"realização":1026,"fic":1027,"##mentar":1028,"profission":1029,"##rea":1030,"##elh":1031,"##ticas":1032,"##eno":1033,"declaração":1034,"pelos":1035,"disponibil":1036,"##om":1037,"documentação":1038,"encamin":1039,"endereço":1040,"possu":1041,"via":1042,"##eiros":1043,"##tá":1044,"crité":1045,"dados":1046,"##vol":1047,"poderão":1048,"superior":1049,"necessários":1050,"menor":1051,"cara":1052,"##ias":1053,"##ber":1054,"##hamento":1055,"jur":1056,"##ip":1057,"##cter":1058,"valores":1059,"banc":1060,"##tada":1061,"##antes":1062,"piauí":1063,"##con":1064,"equipamento":1065,"##itos":1066,"outros":1067,"aplicação":1068,"envi":1069,"devendo":1070,"##erra":1071,"##uais":1072,"acompanh":1073,"caracter":1074,"##gin":1075,"decorrentes":1076,"ne":1077,"tam":1078,"##aria":1079,"##has":1080,"atividades":1081,"rep":1082,"contro":1083,"aba":1084,"##que":1085,"##mado":1086,"cu":1087,"instalação":1088,"necessidade":1089,"##emp":1090,"terc":1091,"necessidades":1092,"us":1093,"certa":1094,"tele":1095,"justi":1096,"##ce":1097,"##istência":1098,"##cidade":1099,"##dia":1100,"segurança":1101,"normas":1102,"##jam":1103,"certame":1104,"##tent":1105,"mens":1106,"validade":1107,"##iti":1108,"empenho":1109,"##cima":1110,"custos":1111,"técnicas":1112,"procedi":1113,"abaixo":1114,"##respon":1115,"perman":1116,"horário":1117,"correspon":1118,"situ":1119,"telef":1120,"##alidades":1121,"ci":1122,"incl":1123,"subi":1124,"quanto":1125,"deter":1126,"produto":1127,"seg":1128,"pu":1129,"jul":1130,"##izar":1131,"##se":1132,"lim":1133,"compro":1134,"##at":1135,"cha":1136,"deman":1137,"##if":1138,"##ês":1139,"documento":1140,"##feito":1141,"base":1142,"mic":1143,"ato":1144,"bras":1145,"exclusiv":1146,"compet":1147,"disposto":1148,"solicitação":1149,"cadas":1150,"indi":1151,"financ":1152,"sanções":1153,"inclusiv":1154,"estar":1155,"ofici":1156,"quantita":1157,"##ás":1158,"##agem":1159,"ade":1160,"inclusive":1161,"legis":1162,"empregados":1163,"##gia":1164,"podendo":1165,"jurí":1166,"determin":1167,"eventual":1168,"cn":1169,"on":1170,"transporte":1171,"sede":1172,"sus":1173,"##one":1174,"##orro":1175,"emit":1176,"veículos":1177,"nome":1178,"design":1179,"modelo":1180,"dentro":1181,"encaminh":1182,"assim":1183,"##ecer":1184,"trata":1185,"abertura":1186,"sessão":1187,"geral":1188,"complementar":1189,"prejuízo":1190,"adequ":1191,"fatura":1192,"##ios":1193,"peças":1194,"anter":1195,"anterior":1196,"inici":1197,"adi":1198,"unidade":1199,"##ótes":1200,"fabrica":1201,"tamb":1202,"med":1203,"ce":1204,"inde":1205,"##tid":1206,"aprov":1207,"ur":1208,"igu":1209,"todo":1210,"##ima":1211,"##he":1212,"pessoa":1213,"prorro":1214,"multa":1215,"destin":1216,"nacional":1217,"##tru":1218,"hip":1219,"publ":1220,"ambi":1221,"comissão":1222,"verific":1223,"também":1224,"fix":1225,"comprovação":1226,"micro":1227,"##pens":1228,"quantidade":1229,"contar":1230,"encar":1231,"correspond":1232,"##heci":1233,"bens":1234,"hipótes":1235,"prazos":1236,"relação":1237,"necessário":1238,"inciso":1239,"dist":1240,"acima":1241,"obra":1242,"camp":1243,"inf":1244,"segun":1245,"escri":1246,"##nos":1247,"##tivamente":1248,"ru":1249,"social":1250,"##ina":1251,"##rem":1252,"##áveis":1253,"##esa":1254,"ime":1255,"acesso":1256,"int":1257,"##dic":1258,"atras":1259,"origin":1260,"constitu":1261,"legislação":1262,"institu":1263,"imedia":1264,"##pital":1265,"funcionamento":1266,"##ite":1267,"projeto":1268,"relacion":1269,"##ag":1270,"pré":1271,"além":1272,"planil":1273,"setor":1274,"hos":1275,"merc":1276,"conc":1277,"estabelecido":1278,"##terior":1279,"junto":1280,"unit":1281,"##contra":1282,"##ista":1283,"cre":1284,"##itir":1285,"ano":1286,"fornecedor":1287,"caracterís":1288,"critério":1289,"realizar":1290,"fabricante":1291,"##eito":1292,"defini":1293,"outras":1294,"##lti":1295,"ún":1296,"auto":1297,"cláusula":1298,"previsto":1299,"ir":1300,"substituição":1301,"##toria":1302,"##ba":1303,"impl":1304,"assum":1305,"gerenci":1306,"tempo":1307,"lances":1308,"controle":1309,"elabora":1310,"capacidade":1311,"representante":1312,"subitem":1313,"administrativo":1314,"detal":1315,"##ven":1316,"sof":1317,"solução":1318,"manter":1319,"tenha":1320,"outro":1321,"cnp":1322,"##ares":1323,"exerc":1324,"posterior":1325,"adju":1326,"##cionais":1327,"ôn":1328,"cr":1329,"pertin":1330,"melh":1331,"consum":1332,"glo":1333,"ro":1334,"##cisão":1335,"##edido":1336,"pequ":1337,"independ":1338,"##mpl":1339,"ta":1340,"somente":1341,"##denci":1342,"comer":1343,"ali":1344,"cnpj":1345,"##adores":1346,"##bro":1347,"características":1348,"comunicação":1349,"certid":1350,"##enda":1351,"##mentação":1352,"fornecer":1353,"alterações":1354,"impres":1355,"jurídica":1356,"##anto":1357,"encargos":1358,"tec":1359,"desen":1360,"centro":1361,"devem":1362,"pró":1363,"emissão":1364,"pass":1365,"competente":1366,"##ord":1367,"soci":1368,"porte":1369,"global":1370,"penalidades":1371,"##ãos":1372,"me":1373,"provid":1374,"desenvol":1375,"##iação":1376,"##rias":1377,"##édio":1378,"pol":1379,"is":1380,"servidor":1381,"ônus":1382,"primeiro":1383,"##are":1384,"parc":1385,"##uta":1386,"progra":1387,"##fa":1388,"casos":1389,"autorização":1390,"requisitos":1391,"fins":1392,"atraso":1393,"expres":1394,"constante":1395,"independente":1396,"ant":1397,"lu":1398,"está":1399,"brasil":1400,"necessárias":1401,"##íl":1402,"##ise":1403,"mercado":1404,"terá":1405,"maior":1406,"##mpre":1407,"fir":1408,"especializada":1409,"entregues":1410,"##ên":1411,"sempre":1412,"inclu":1413,"lote":1414,"aval":1415,"##istas":1416,"legal":1417,"escol":1418,"pad":1419,"utilização":1420,"##net":1421,"col":1422,"##tórios":1423,"unidades":1424,"##ene":1425,"##bilidade":1426,"##feitos":1427,"##mada":1428,"có":1429,"usu":1430,"orça":1431,"possuir":1432,"eventuais":1433,"licitatório":1434,"hospital":1435,"tre":1436,"anál":1437,"fim":1438,"descrição":1439,"##equ":1440,"prévi":1441,"asse":1442,"##trutura":1443,"disc":1444,"tecn":1445,"inex":1446,"realizada":1447,"participação":1448,"igual":1449,"fora":1450,"##cas":1451,"pequeno":1452,"caus":1453,"##ral":1454,"terceiros":1455,"diver":1456,"hipótese":1457,"anos":1458,"impos":1459,"##gado":1460,"tab":1461,"rede":1462,"##olo":1463,"##gi":1464,"dep":1465,"inscri":1466,"##gãos":1467,"##iver":1468,"pes":1469,"suj":1470,"ado":1471,"##istos":1472,"vencedor":1473,"##tic":1474,"receb":1475,"pena":1476,"órgãos":1477,"espec":1478,"final":1479,"minist":1480,"profissional":1481,"permanente":1482,"sejam":1483,"norma":1484,"planilha":1485,"início":1486,"##rig":1487,"estadu":1488,"quad":1489,"verificação":1490,"oficial":1491,"contratar":1492,"união":1493,"##ícios":1494,"reti":1495,"##tificado":1496,"defesa":1497,"##anta":1498,"compat":1499,"tes":1500,"##tico":1501,"##posição":1502,"aqu":1503,"partes":1504,"gru":1505,"resul":1506,"legais":1507,"especí":1508,"##gua":1509,"##iva":1510,"onde":1511,"toda":1512,"eng":1513,"##turas":1514,"cp":1515,"lin":1516,"econ":1517,"amos":1518,"apo":1519,"tais":1520,"técnicos":1521,"previstos":1522,"##empres":1523,"gestão":1524,"nov":1525,"raz":1526,"mês":1527,"regularidade":1528,"##hecimento":1529,"equipe":1530,"##ópia":1531,"enc":1532,"##óg":1533,"##étr":1534,"credenci":1535,"##ferência":1536,"##çamento":1537,"fís":1538,"cal":1539,"estabelecidos":1540,"##tando":1541,"microempres":1542,"##ério":1543,"mul":1544,"cep":1545,"##ons":1546,"##dução":1547,"fica":1548,"##dor":1549,"edu":1550,"cópia":1551,"hav":1552,"aceitação":1553,"área":1554,"classificação":1555,"compras":1556,"##tadas":1557,"go":1558,"##izado":1559,"##imento":1560,"retira":1561,"seguinte":1562,"mesma":1563,"justifica":1564,"estimado":1565,"provis":1566,"permitir":1567,"##cent":1568,"acess":1569,"##âm":1570,"promo":1571,"executados":1572,"ministério":1573,"gra":1574,"assegura":1575,"análise":1576,"rua":1577,"orçament":1578,"comunic":1579,"pelas":1580,"bo":1581,"classific":1582,"detalh":1583,"fi":1584,"##cação":1585,"trib":1586,"danos":1587,"##pul":1588,"demanda":1589,"veículo":1590,"contendo":1591,"atestado":1592,"eta":1593,"prote":1594,"contratados":1595,"própri":1596,"já":1597,"cir":1598,"cole":1599,"despesa":1600,"vista":1601,"prevista":1602,"contratos":1603,"opera":1604,"suporte":1605,"assistência":1606,"alg":1607,"sr":1608,"cuj":1609,"prin":1610,"##vimento":1611,"licitações":1612,"##tores":1613,"infra":1614,"engenh":1615,"visando":1616,"banco":1617,"prevent":1618,"exercício":1619,"obt":1620,"soft":1621,"antes":1622,"enqu":1623,"rem":1624,"ajus":1625,"foi":1626,"acompanhamento":1627,"judi":1628,"consumo":1629,"##alizado":1630,"estadual":1631,"estão":1632,"##encial":1633,"##reza":1634,"mm":1635,"melhor":1636,"modalidade":1637,"softw":1638,"escl":1639,"process":1640,"##nta":1641,"telefone":1642,"##elho":1643,"disposições":1644,"##ulas":1645,"vi":1646,"corrente":1647,"possibil":1648,"certidão":1649,"esclar":1650,"instalações":1651,"gu":1652,"cele":1653,"natu":1654,"apresentada":1655,"escrito":1656,"parcial":1657,"celebra":1658,"definitivo":1659,"efetuado":1660,"padr":1661,"tr":1662,"fiscais":1663,"últi":1664,"prestados":1665,"##elas":1666,"quantitativos":1667,"region":1668,"notific":1669,"corridos":1670,"ofertado":1671,"##uma":1672,"##gn":1673,"op":1674,"##ân":1675,"natureza":1676,"##itar":1677,"dé":1678,"adm":1679,"desemp":1680,"encerra":1681,"orçamento":1682,"##ulo":1683,"procedimento":1684,"contidas":1685,"só":1686,"entregue":1687,"correspondente":1688,"##ej":1689,"empre":1690,"##óprio":1691,"efetuar":1692,"fre":1693,"mão":1694,"ocorrência":1695,"##tamento":1696,"##des":1697,"du":1698,"limite":1699,"trabalhistas":1700,"depend":1701,"url":1702,"sim":1703,"porta":1704,"##duz":1705,"arqui":1706,"próprio":1707,"fase":1708,"identific":1709,"interesse":1710,"bene":1711,"tax":1712,"autoridade":1713,"profissionais":1714,"considerando":1715,"resol":1716,"servidores":1717,"situação":1718,"confi":1719,"conhecimento":1720,"##tará":1721,"##ologia":1722,"mensal":1723,"exce":1724,"apresentados":1725,"elétr":1726,"suspens":1727,"registrado":1728,"custo":1729,"hou":1730,"venha":1731,"##orden":1732,"cur":1733,"vin":1734,"seção":1735,"vez":1736,"prévia":1737,"cadastra":1738,"obras":1739,"coorden":1740,"unitário":1741,"reserv":1742,"##icaf":1743,"bás":1744,"sicaf":1745,"##clusão":1746,"equival":1747,"ress":1748,"amp":1749,"compon":1750,"##erem":1751,"indire":1752,"##ática":1753,"ficará":1754,"##regular":1755,"realizado":1756,"seguir":1757,"irregular":1758,"##ves":1759,"identificação":1760,"julgamento":1761,"educação":1762,"locais":1763,"##eza":1764,"##ch":1765,"proced":1766,"fl":1767,"tendo":1768,"pessoas":1769,"##ór":1770,"##iar":1771,"modo":1772,"extra":1773,"designado":1774,"corretiva":1775,"marca":1776,"funda":1777,"mesmos":1778,"mínima":1779,"##osa":1780,"##br":1781,"limp":1782,"##adamente":1783,"único":1784,"tal":1785,"pessoal":1786,"##velo":1787,"tribu":1788,"##eiras":1789,"contin":1790,"infer":1791,"sistem":1792,"procedimentos":1793,"rea":1794,"efeito":1795,"regional":1796,"propon":1797,"envelo":1798,"recus":1799,"tabela":1800,"##agens":1801,"inferior":1802,"cap":1803,"eletro":1804,"##cum":1805,"esclareci":1806,"fornecidos":1807,"##gas":1808,"gestor":1809,"encontra":1810,"##ôm":1811,"lance":1812,"patri":1813,"##cu":1814,"vist":1815,"##visão":1816,"patrim":1817,"houver":1818,"referente":1819,"pesquis":1820,"incluindo":1821,"estipul":1822,"cm":1823,"##olh":1824,"av":1825,"atividade":1826,"vincul":1827,"desenvolvimento":1828,"impedi":1829,"##sas":1830,"respectivo":1831,"##idenci":1832,"respectiva":1833,"obed":1834,"paga":1835,"lic":1836,"fato":1837,"recurso":1838,"preventiva":1839,"participar":1840,"mon":1841,"##vil":1842,"especificação":1843,"água":1844,"priv":1845,"homo":1846,"embal":1847,"entregar":1848,"##class":1849,"##enas":1850,"garantir":1851,"ferra":1852,"##edade":1853,"fra":1854,"gran":1855,"mó":1856,"perfei":1857,"contratuais":1858,"desclass":1859,"independentemente":1860,"##cionado":1861,"difer":1862,"feita":1863,"desempenho":1864,"defeitos":1865,"##edores":1866,"relatório":1867,"ocorrer":1868,"##ntamente":1869,"solicitado":1870,"##ime":1871,"quadro":1872,"campo":1873,"tributos":1874,"discri":1875,"sistemas":1876,"rescisão":1877,"momento":1878,"##maz":1879,"exclusivamente":1880,"interm":1881,"fornecido":1882,"instrução":1883,"##ença":1884,"demons":1885,"tor":1886,"##bo":1887,"mil":1888,"homolo":1889,"prestar":1890,"autoriz":1891,"impor":1892,"grupo":1893,"cro":1894,"autent":1895,"realizados":1896,"continu":1897,"referentes":1898,"##primento":1899,"comercial":1900,"##gada":1901,"licitar":1902,"etapa":1903,"##tória":1904,"publicação":1905,"qualificação":1906,"engenharia":1907,"cadastro":1908,"envio":1909,"percent":1910,"##nas":1911,"discrimin":1912,"justiça":1913,"##edida":1914,"##dio":1915,"conju":1916,"##ana":1917,"previ":1918,"interessados":1919,"##ms":1920,"condição":1921,"havendo":1922,"utilizados":1923,"informação":1924,"ambiente":1925,"prepos":1926,"códi":1927,"integral":1928,"##dores":1929,"específic":1930,"elaboração":1931,"uf":1932,"forem":1933,"individ":1934,"poder":1935,"cidade":1936,"apar":1937,"original":1938,"componentes":1939,"operação":1940,"central":1941,"executar":1942,"##vida":1943,"equivalente":1944,"expedi":1945,"intermédio":1946,"apoio":1947,"jan":1948,"providenci":1949,"configura":1950,"tribun":1951,"portaria":1952,"previamente":1953,"necessária":1954,"proteção":1955,"##cimento":1956,"civil":1957,"##ixa":1958,"diretamente":1959,"pagamentos":1960,"tu":1961,"descum":1962,"##vidas":1963,"integrante":1964,"sin":1965,"segundo":1966,"financeira":1967,"segunda":1968,"participantes":1969,"útil":1970,"haja":1971,"avaliação":1972,"mem":1973,"disp":1974,"bom":1975,"##ológ":1976,"rio":1977,"ferrament":1978,"##ts":1979,"econôm":1980,"labora":1981,"dar":1982,"##ecução":1983,"indicado":1984,"tribunal":1985,"respectivos":1986,"demonstra":1987,"nenh":1988,"tecnologia":1989,"##arif":1990,"nova":1991,"software":1992,"limpeza":1993,"##bus":1994,"objetivo":1995,"##veni":1996,"mont":1997,"proto":1998,"exa":1999,"quantitativo":2000,"recolh":2001,"##órios":2002,"cul":2003,"pertinentes":2004,"exigidos":2005,"orçamentária":2006,"mé":2007,"desa":2008,"estiv":2009,"##ntos":2010,"ín":2011,"protocol":2012,"org":2013,"nega":2014,"nesta":2015,"pratic":2016,"proponente":2017,"tér":2018,"##mados":2019,"cláusulas":2020,"##cio":2021,"perante":2022,"pla":2023,"##reas":2024,"div":2025,"##goci":2026,"remo":2027,"emitida":2028,"assinar":2029,"ficando":2030,"orient":2031,"##ge":2032,"decorrente":2033,"estrutura":2034,"prov":2035,"multas":2036,"possível":2037,"razão":2038,"vigente":2039,"vir":2040,"administrativa":2041,"lev":2042,"regime":2043,"fil":2044,"om":2045,"código":2046,"imediatamente":2047,"ped":2048,"cumprir":2049,"vistoria":2050,"plano":2051,"exigidas":2052,"resulta":2053,"aceita":2054,"ampla":2055,"eletrônica":2056,"##equente":2057,"previdenci":2058,"##ivers":2059,"câm":2060,"esclarecimentos":2061,"normativa":2062,"##ítu":2063,"primeira":2064,"exist":2065,"índic":2066,"pedido":2067,"##dade":2068,"##ea":2069,"crédi":2070,"##mar":2071,"##ino":2072,"dependências":2073,"anal":2074,"constr":2075,"grande":2076,"verificar":2077,"##ônio":2078,"substituí":2079,"exter":2080,"registrados":2081,"negoci":2082,"##toriamente":2083,"obrigação":2084,"##idação":2085,"implant":2086,"##met":2087,"descumprimento":2088,"estima":2089,"assinado":2090,"compatível":2091,"contribu":2092,"planej":2093,"facul":2094,"fornecedores":2095,"devido":2096,"bair":2097,"##antaj":2098,"sociais":2099,"##ifes":2100,"inexecução":2101,"univers":2102,"prorrogado":2103,"atos":2104,"##ira":2105,"comprovar":2106,"vantaj":2107,"financeiro":2108,"##loc":2109,"fazer":2110,"##grama":2111,"lhe":2112,"digi":2113,"conter":2114,"formação":2115,"digital":2116,"privado":2117,"##culo":2118,"##quir":2119,"solicitados":2120,"ques":2121,"outra":2122,"relacionados":2123,"adquir":2124,"organ":2125,"apresentado":2126,"jo":2127,"janeiro":2128,"##ne":2129,"notificação":2130,"sex":2131,"prejuízos":2132,"##embro":2133,"minu":2134,"licitado":2135,"regula":2136,"enquad":2137,"ambient":2138,"##icada":2139,"pesquisa":2140,"bar":2141,"cob":2142,"bairro":2143,"dez":2144,"rej":2145,"pertinente":2146,"esse":2147,"##metro":2148,"reajus":2149,"manifes":2150,"risc":2151,"divul":2152,"##adi":2153,"compre":2154,"ved":2155,"##icações":2156,"##abilidade":2157,"regularização":2158,"##itada":2159,"##dar":2160,"apenas":2161,"própria":2162,"substituir":2163,"bal":2164,"sido":2165,"fabricação":2166,"foram":2167,"propor":2168,"solicitar":2169,"var":2170,"resultado":2171,"gerenciamento":2172,"fonte":2173,"detent":2174,"reserva":2175,"crono":2176,"usuários":2177,"procura":2178,"aprovação":2179,"er":2180,"trein":2181,"amostra":2182,"exclusiva":2183,"sí":2184,"estra":2185,"conselho":2186,"##para":2187,"##pl":2188,"ações":2189,"cpf":2190,"constar":2191,"medidas":2192,"##fício":2193,"distribu":2194,"##mino":2195,"percentual":2196,"menos":2197,"simpl":2198,"critérios":2199,"encaminhar":2200,"responsabilizar":2201,"ocorrências":2202,"consulta":2203,"fro":2204,"##ena":2205,"alimentação":2206,"##ciais":2207,"programa":2208,"internet":2209,"##alizar":2210,"notas":2211,"##sões":2212,"impu":2213,"##gência":2214,"função":2215,"##pel":2216,"juntamente":2217,"##form":2218,"##alizados":2219,"direta":2220,"envol":2221,"inid":2222,"##eles":2223,"##aste":2224,"correrão":2225,"tro":2226,"##hão":2227,"há":2228,"armaz":2229,"anual":2230,"##cess":2231,"nível":2232,"salvo":2233,"estejam":2234,"especial":2235,"projetos":2236,"inden":2237,"contado":2238,"te":2239,"##rito":2240,"administrativas":2241,"falhas":2242,"consul":2243,"vol":2244,"funcionários":2245,"transcri":2246,"agência":2247,"construção":2248,"ocas":2249,"certificado":2250,"bancária":2251,"##rim":2252,"novo":2253,"##cin":2254,"reci":2255,"##cidentes":2256,"##tões":2257,"compa":2258,"prova":2259,"acessórios":2260,"parcel":2261,"##cordo":2262,"##ório":2263,"cronograma":2264,"seguro":2265,"armazen":2266,"presencial":2267,"cujo":2268,"princip":2269,"exigida":2270,"microempresas":2271,"planejamento":2272,"##madas":2273,"trabalhos":2274,"adjudica":2275,"devol":2276,"conven":2277,"convocação":2278,"diário":2279,"constitui":2280,"emitido":2281,"##atório":2282,"indicados":2283,"justificativa":2284,"tanto":2285,"combus":2286,"##bito":2287,"comunicar":2288,"tratamento":2289,"secreta":2290,"disponibilizar":2291,"mesmas":2292,"insum":2293,"##inas":2294,"ep":2295,"resolução":2296,"aplicada":2297,"uni":2298,"expediente":2299,"##ítulo":2300,"rejei":2301,"especificado":2302,"jun":2303,"obrigatoriamente":2304,"##cil":2305,"possam":2306,"##mação":2307,"alteração":2308,"desacordo":2309,"mec":2310,"depar":2311,"adjudicat":2312,"descont":2313,"liqu":2314,"minuta":2315,"almo":2316,"impugn":2317,"##gens":2318,"ness":2319,"assumidas":2320,"cabíveis":2321,"individual":2322,"##cia":2323,"##ibilidade":2324,"##ib":2325,"##vidos":2326,"##izados":2327,"##aro":2328,"operacional":2329,"##uções":2330,"única":2331,"crea":2332,"vigil":2333,"deci":2334,"ch":2335,"boa":2336,"interna":2337,"acompanhar":2338,"locação":2339,"motivo":2340,"subcontra":2341,"futura":2342,"formul":2343,"campus":2344,"acompanhada":2345,"suspensão":2346,"combust":2347,"utilizado":2348,"fol":2349,"af":2350,"novos":2351,"término":2352,"ip":2353,"##eros":2354,"sujeita":2355,"ale":2356,"excl":2357,"dom":2358,"relativos":2359,"fec":2360,"gover":2361,"causados":2362,"sup":2363,"##ília":2364,"inadi":2365,"estu":2366,"##tindo":2367,"##ariamente":2368,"finalidade":2369,"##õe":2370,"entidade":2371,"motor":2372,"##ramento":2373,"judicial":2374,"elementos":2375,"aux":2376,"preenc":2377,"##ou":2378,"secretarias":2379,"antec":2380,"caberá":2381,"descar":2382,"envelopes":2383,"liv":2384,"certific":2385,"venci":2386,"conjunto":2387,"treinamento":2388,"venham":2389,"confec":2390,"##uns":2391,"abaste":2392,"observando":2393,"##ticos":2394,"observado":2395,"eventos":2396,"simil":2397,"requer":2398,"realizadas":2399,"último":2400,"negativa":2401,"comprasnet":2402,"br":2403,"insumos":2404,"retirada":2405,"##ervação":2406,"admit":2407,"anteced":2408,"apura":2409,"site":2410,"convocatório":2411,"inicial":2412,"referido":2413,"##ctu":2414,"##empl":2415,"duas":2416,"papel":2417,"incluí":2418,"acr":2419,"câmara":2420,"sanit":2421,"força":2422,"microempresa":2423,"##estrutura":2424,"tomada":2425,"mu":2426,"posteriores":2427,"cargo":2428,"alguma":2429,"implantação":2430,"convi":2431,"providências":2432,"impostos":2433,"##ér":2434,"imediata":2435,"##eti":2436,"fer":2437,"can":2438,"padrão":2439,"preench":2440,"cabendo":2441,"máqu":2442,"##pec":2443,"et":2444,"empregado":2445,"mínim":2446,"##ende":2447,"departamento":2448,"aceito":2449,"transpor":2450,"ener":2451,"##ades":2452,"##eração":2453,"demandas":2454,"indicação":2455,"##tante":2456,"##vor":2457,"descritas":2458,"fiz":2459,"##anh":2460,"feira":2461,"##iência":2462,"control":2463,"sexta":2464,"log":2465,"junho":2466,"taxas":2467,"áreas":2468,"disposi":2469,"testes":2470,"recon":2471,"gerais":2472,"##eitos":2473,"descritos":2474,"ess":2475,"nem":2476,"##bas":2477,"##arão":2478,"cump":2479,"aven":2480,"##rup":2481,"ret":2482,"amostras":2483,"autos":2484,"##tibilidade":2485,"exceto":2486,"almox":2487,"monito":2488,"infraestrutura":2489,"df":2490,"definidos":2491,"relatórios":2492,"básico":2493,"if":2494,"expressa":2495,"##forma":2496,"##rada":2497,"apro":2498,"provisório":2499,"justific":2500,"recom":2501,"##tis":2502,"fundament":2503,"##corre":2504,"##mens":2505,"##ecendo":2506,"supri":2507,"ense":2508,"patrimônio":2509,"usuário":2510,"decisão":2511,"cober":2512,"gerenciador":2513,"simples":2514,"comprom":2515,"desco":2516,"embra":2517,"especificados":2518,"mora":2519,"apresentadas":2520,"unitários":2521,"alín":2522,"##tiz":2523,"almoxarif":2524,"observadas":2525,"compatíveis":2526,"fax":2527,"il":2528,"objetos":2529,"carga":2530,"utilizar":2531,"homologação":2532,"evi":2533,"visita":2534,"dois":2535,"essa":2536,"comprome":2537,"comprove":2538,"cuja":2539,"ferramentas":2540,"##oper":2541,"aplicadas":2542,"teres":2543,"diversos":2544,"compra":2545,"##dam":2546,"reun":2547,"injus":2548,"benefici":2549,"perfeito":2550,"convite":2551,"executado":2552,"ofertados":2553,"acompanhado":2554,"favor":2555,"possui":2556,"cate":2557,"##ismo":2558,"pm":2559,"brasília":2560,"##ança":2561,"embrapa":2562,"minutos":2563,"instituição":2564,"almoxarifado":2565,"descrito":2566,"coloc":2567,"vias":2568,"reposição":2569,"consign":2570,"correção":2571,"ressal":2572,"##cessiv":2573,"##ráfic":2574,"pá":2575,"##elhos":2576,"ref":2577,"perfeita":2578,"considerado":2579,"##ésci":2580,"virtu":2581,"##dicação":2582,"##leo":2583,"tenham":2584,"##emas":2585,"padrões":2586,"reduz":2587,"dezembro":2588,"medica":2589,"classificada":2590,"##ac":2591,"originais":2592,"considerados":2593,"relacionadas":2594,"penalidade":2595,"falta":2596,"##pm":2597,"calcul":2598,"teresina":2599,"dú":2600,"vantajosa":2601,"compatibilidade":2602,"receber":2603,"##ficiente":2604,"##int":2605,"##dação":2606,"providenciar":2607,"produção":2608,"acrésci":2609,"processos":2610,"recu":2611,"##ano":2612,"transcrição":2613,"##ilo":2614,"##tec":2615,"prestado":2616,"regul":2617,"prorrogação":2618,"##enças":2619,"desconto":2620,"automa":2621,"encerramento":2622,"adicional":2623,"##damento":2624,"satis":2625,"##ona":2626,"##cionar":2627,"##ídu":2628,"prec":2629,"##izada":2630,"sala":2631,"probl":2632,"permit":2633,"guar":2634,"estes":2635,"subsid":2636,"restri":2637,"indis":2638,"sp":2639,"##icamente":2640,"dimens":2641,"##cionados":2642,"efetuada":2643,"impressão":2644,"referida":2645,"conservação":2646,"problemas":2647,"esteja":2648,"estipulado":2649,"definido":2650,"propri":2651,"compos":2652,"acar":2653,"recuper":2654,"ensej":2655,"che":2656,"abastecimento":2657,"liber":2658,"instituto":2659,"refere":2660,"fazenda":2661,"deix":2662,"especialmente":2663,"atualização":2664,"##pias":2665,"categ":2666,"relativas":2667,"##abilitação":2668,"resultantes":2669,"contato":2670,"possa":2671,"motivos":2672,"princ":2673,"descon":2674,"compreend":2675,"atestados":2676,"corrig":2677,"distrito":2678,"lugar":2679,"pode":2680,"##dir":2681,"cooper":2682,"los":2683,"crédito":2684,"acarre":2685,"respectivas":2686,"evento":2687,"energia":2688,"##metros":2689,"princíp":2690,"subsequente":2691,"física":2692,"postos":2693,"decorrência":2694,"embalagem":2695,"méd":2696,"capaci":2697,"ul":2698,"exclu":2699,"##up":2700,"##ece":2701,"curso":2702,"vigilância":2703,"##adora":2704,"bran":2705,"destinados":2706,"canc":2707,"##idente":2708,"devidos":2709,"trabalhista":2710,"##ril":2711,"deno":2712,"extens":2713,"taxa":2714,"composição":2715,"expedida":2716,"##idor":2717,"##triz":2718,"sig":2719,"condu":2720,"desclassificação":2721,"abran":2722,"nenhum":2723,"preposto":2724,"##oso":2725,"contempl":2726,"exper":2727,"resídu":2728,"atribu":2729,"escolha":2730,"##tora":2731,"inspe":2732,"cópias":2733,"denomin":2734,"##ecido":2735,"##cal":2736,"##pora":2737,"feito":2738,"telefon":2739,"jos":2740,"avis":2741,"depo":2742,"ocasião":2743,"mg":2744,"municipais":2745,"configuração":2746,"analis":2747,"sucessiv":2748,"informar":2749,"aé":2750,"ação":2751,"##tável":2752,"srp":2753,"autom":2754,"irregularidades":2755,"depois":2756,"razões":2757,"##eb":2758,"repara":2759,"completa":2760,"confer":2761,"##tância":2762,"detalhada":2763,"ví":2764,"##vido":2765,"##êm":2766,"##ensas":2767,"far":2768,"econômico":2769,"facil":2770,"síti":2771,"regras":2772,"cál":2773,"##tre":2774,"coordenação":2775,"implic":2776,"cita":2777,"oriun":2778,"ban":2779,"ciência":2780,"##ída":2781,"estabelecida":2782,"praticados":2783,"adjudic":2784,"médi":2785,"antecedência":2786,"reman":2787,"##ites":2788,"obrigada":2789,"conclusão":2790,"leis":2791,"promover":2792,"##ine":2793,"expensas":2794,"##ide":2795,"##orte":2796,"grav":2797,"sustent":2798,"contratações":2799,"circ":2800,"impedimento":2801,"alínea":2802,"aceite":2803,"##itindo":2804,"preferência":2805,"cobrança":2806,"elemento":2807,"respeita":2808,"recuperação":2809,"depós":2810,"##cionada":2811,"ressar":2812,"subitens":2813,"físico":2814,"enviar":2815,"vigor":2816,"juríd":2817,"cancel":2818,"##cho":2819,"comum":2820,"aparelhos":2821,"celebram":2822,"dentre":2823,"ambiental":2824,"urb":2825,"posto":2826,"resíduos":2827,"aceitos":2828,"carta":2829,"adicionais":2830,"##áticas":2831,"##esc":2832,"estará":2833,"artigos":2834,"universidade":2835,"três":2836,"motiv":2837,"requisita":2838,"recebidos":2839,"fará":2840,"existentes":2841,"imple":2842,"telefôn":2843,"comprovada":2844,"va":2845,"disposição":2846,"assinada":2847,"considerada":2848,"ora":2849,"presta":2850,"conex":2851,"observados":2852,"pregoeira":2853,"compor":2854,"pert":2855,"##ticamente":2856,"eleito":2857,"alta":2858,"apresentarem":2859,"inscrição":2860,"horários":2861,"possibilidade":2862,"##íqu":2863,"##isso":2864,"pleno":2865,"hid":2866,"inscrita":2867,"##irá":2868,"comerciais":2869,"manual":2870,"vál":2871,"seguros":2872,"##mple":2873,"adequação":2874,"adequada":2875,"fiscalizar":2876,"observar":2877,"dirig":2878,"##íg":2879,"logís":2880,"índice":2881,"eletron":2882,"##endência":2883,"ens":2884,"disponível":2885,"circuns":2886,"medicamentos":2887,"##pro":2888,"fixado":2889,"##ins":2890,"disponibilidade":2891,"medição":2892,"elétrica":2893,"desclassific":2894,"recolhimento":2895,"dúvidas":2896,"públicos":2897,"troca":2898,"##rer":2899,"formal":2900,"fran":2901,"##veniente":2902,"##vos":2903,"âm":2904,"aquisições":2905,"ic":2906,"##izando":2907,"foro":2908,"gas":2909,"irregularidade":2910,"dirim":2911,"lau":2912,"credenciamento":2913,"lon":2914,"autenticada":2915,"defeito":2916,"eventualmente":2917,"aplicar":2918,"##ila":2919,"compar":2920,"convocado":2921,"##icul":2922,"km":2923,"efetiv":2924,"##cionamento":2925,"inteira":2926,"econom":2927,"slti":2928,"santa":2929,"inclus":2930,"aceitar":2931,"hig":2932,"##li":2933,"parcela":2934,"auxil":2935,"superint":2936,"sul":2937,"##presente":2938,"##eça":2939,"pertenc":2940,"##inha":2941,"âmbito":2942,"exc":2943,"redução":2944,"responsáveis":2945,"pontos":2946,"express":2947,"aliment":2948,"##imin":2949,"mp":2950,"dispens":2951,"cou":2952,"##tur":2953,"efetivamente":2954,"imposs":2955,"##corra":2956,"faturas":2957,"##ílio":2958,"efeitos":2959,"mód":2960,"transfer":2961,"hipóteses":2962,"completo":2963,"imper":2964,"desloc":2965,"ensino":2966,"##cipa":2967,"distribuição":2968,"indicar":2969,"##pog":2970,"confir":2971,"aloc":2972,"frota":2973,"##rado":2974,"parâ":2975,"emb":2976,"gên":2977,"laboratório":2978,"josé":2979,"condicionado":2980,"armazenamento":2981,"##ensa":2982,"logo":2983,"inc":2984,"##par":2985,"negociação":2986,"retirar":2987,"cobra":2988,"supor":2989,"determinado":2990,"elev":2991,"dotação":2992,"aplica":2993,"pal":2994,"aqueles":2995,"competi":2996,"aço":2997,"frau":2998,"estiver":2999,"recusa":3000,"##bos":3001,"inadimpl":3002,"automaticamente":3003,"receita":3004,"##encialmente":3005,"específica":3006,"resultados":3007,"podem":3008,"assegurado":3009,"máquinas":3010,"##fícios":3011,"ela":3012,"cam":3013,"enquanto":3014,"previdenciários":3015,"sil":3016,"pret":3017,"dessa":3018,"mensalmente":3019,"adjudicação":3020,"detec":3021,"participa":3022,"subsidi":3023,"higi":3024,"sanção":3025,"identidade":3026,"come":3027,"rig":3028,"##be":3029,"batal":3030,"uniform":3031,"marc":3032,"compromisso":3033,"recor":3034,"##eo":3035,"ima":3036,"conte":3037,"quar":3038,"encaminhamento":3039,"militar":3040,"dil":3041,"pois":3042,"proceder":3043,"paci":3044,"apresente":3045,"plen":3046,"instalados":3047,"##ps":3048,"solicitações":3049,"parecer":3050,"##erentes":3051,"págin":3052,"coordenador":3053,"patrimon":3054,"anteriores":3055,"##enções":3056,"##pas":3057,"fiel":3058,"prepostos":3059,"montagem":3060,"vedada":3061,"##los":3062,"bol":3063,"##ativa":3064,"firmado":3065,"conteú":3066,"dispõe":3067,"##ondi":3068,"certidões":3069,"##xim":3070,"julho":3071,"rj":3072,"contribuições":3073,"qualific":3074,"nesse":3075,"etc":3076,"ultra":3077,"judici":3078,"##feições":3079,"oferta":3080,"dr":3081,"título":3082,"##hes":3083,"acondi":3084,"assegurar":3085,"##eda":3086,"interno":3087,"portu":3088,"informática":3089,"observância":3090,"norm":3091,"##icidade":3092,"balan":3093,"rs":3094,"##izações":3095,"liquidação":3096,"carte":3097,"ades":3098,"expressamente":3099,"avenida":3100,"mpog":3101,"fundo":3102,"##ck":3103,"divulgação":3104,"rigor":3105,"adjudicatária":3106,"feder":3107,"perf":3108,"estimativa":3109,"##ficiência":3110,"##osamente":3111,"adquiridos":3112,"protocolo":3113,"pis":3114,"cpl":3115,"meios":3116,"arquivo":3117,"coleta":3118,"##iados":3119,"oferecer":3120,"espa":3121,"tur":3122,"##ventura":3123,"direitos":3124,"preju":3125,"desse":3126,"##vimentação":3127,"##tações":3128,"##ard":3129,"responder":3130,"descre":3131,"licenças":3132,"porventura":3133,"caixa":3134,"cad":3135,"terceiro":3136,"aument":3137,"entidades":3138,"gêneros":3139,"lav":3140,"firma":3141,"##eitas":3142,"##oriamente":3143,"média":3144,"existência":3145,"fur":3146,"joão":3147,"subcl":3148,"depósito":3149,"linha":3150,"senha":3151,"##bitos":3152,"inidôn":3153,"fatos":3154,"##áusula":3155,"nbr":3156,"provisoriamente":3157,"emitir":3158,"conferência":3159,"##itação":3160,"deixar":3161,"##ól":3162,"origem":3163,"ajuste":3164,"##icado":3165,"comprovante":3166,"cará":3167,"ocorrerá":3168,"divisão":3169,"paulo":3170,"complementares":3171,"##eio":3172,"diversas":3173,"chamado":3174,"risco":3175,"satisfa":3176,"atualizado":3177,"##rir":3178,"caráter":3179,"vícios":3180,"reajuste":3181,"cobertura":3182,"ino":3183,"esto":3184,"sel":3185,"##ron":3186,"##ditório":3187,"##pass":3188,"monitoramento":3189,"cin":3190,"experiência":3191,"batalhão":3192,"rele":3193,"lar":3194,"##tência":3195,"categoria":3196,"dec":3197,"##tais":3198,"##ecerão":3199,"ampl":3200,"##vas":3201,"hospitalar":3202,"entrada":3203,"vencimento":3204,"##õem":3205,"representantes":3206,"cadastramento":3207,"concorr":3208,"governo":3209,"##mil":3210,"ocorra":3211,"planilhas":3212,"torna":3213,"agr":3214,"solicitada":3215,"responsabilidades":3216,"##ession":3217,"fech":3218,"vigentes":3219,"enquadra":3220,"qui":3221,"detentora":3222,"municípios":3223,"continuidade":3224,"mecân":3225,"##cipl":3226,"##ames":3227,"##ória":3228,"cálculo":3229,"culpa":3230,"emer":3231,"computa":3232,"##ínu":3233,"##umin":3234,"tratar":3235,"sant":3236,"contínu":3237,"tempor":3238,"situações":3239,"sc":3240,"maio":3241,"##alizadas":3242,"##tividade":3243,"utilizando":3244,"sociedade":3245,"volum":3246,"participante":3247,"acres":3248,"daqu":3249,"fundação":3250,"##encia":3251,"##visa":3252,"polí":3253,"ultrapass":3254,"##ridade":3255,"cos":3256,"disponibilizado":3257,"dará":3258,"disponíveis":3259,"dirimir":3260,"concl":3261,"portugu":3262,"escolar":3263,"consol":3264,"bi":3265,"##cind":3266,"modi":3267,"práticas":3268,"indenização":3269,"algum":3270,"##enciais":3271,"envelope":3272,"subcláusula":3273,"assess":3274,"débitos":3275,"rotin":3276,"mas":3277,"epp":3278,"omiss":3279,"exames":3280,"##pate":3281,"operacionais":3282,"visa":3283,"bu":3284,"prorrog":3285,"acidentes":3286,"##arem":3287,"níveis":3288,"transm":3289,"alun":3290,"##minal":3291,"##ifica":3292,"solicitadas":3293,"aviso":3294,"oficiais":3295,"tiver":3296,"incorre":3297,"concor":3298,"ponto":3299,"incisos":3300,"superiores":3301,"##gará":3302,"chamados":3303,"dever":3304,"sé":3305,"diretoria":3306,"impr":3307,"haver":3308,"superintendência":3309,"##bs":3310,"dispositivos":3311,"fg":3312,"efetivo":3313,"prefer":3314,"pedidos":3315,"vín":3316,"região":3317,"informando":3318,"##anças":3319,"mobil":3320,"dilig":3321,"previsão":3322,"moeda":3323,"novas":3324,"sítio":3325,"inerentes":3326,"iguais":3327,"gerência":3328,"rubr":3329,"fizerem":3330,"##mplemento":3331,"comprovado":3332,"##inh":3333,"implicará":3334,"##ng":3335,"complex":3336,"hum":3337,"comin":3338,"revo":3339,"rod":3340,"##bras":3341,"adequado":3342,"anvisa":3343,"patrimonial":3344,"afer":3345,"objetiv":3346,"##gações":3347,"riscos":3348,"##ícia":3349,"transferência":3350,"remanesc":3351,"efetuados":3352,"##doria":3353,"nenhuma":3354,"inspeção":3355,"##ivo":3356,"aplicáveis":3357,"conec":3358,"pint":3359,"aus":3360,"procuradoria":3361,"multi":3362,"conteúdo":3363,"real":3364,"abnt":3365,"exer":3366,"inser":3367,"comprovando":3368,"atestada":3369,"alimentícios":3370,"##dap":3371,"presidente":3372,"questões":3373,"contas":3374,"atendendo":3375,"ras":3376,"flu":3377,"##ím":3378,"##ance":3379,"couber":3380,"discipl":3381,"icms":3382,"correspondentes":3383,"confecção":3384,"bor":3385,"##df":3386,"carteira":3387,"formato":3388,"portanto":3389,"companh":3390,"tribut":3391,"ocu":3392,"formalmente":3393,"federais":3394,"exigido":3395,"objetivando":3396,"possíveis":3397,"utilizada":3398,"sele":3399,"##anç":3400,"##adoras":3401,"autorizada":3402,"diferentes":3403,"prévio":3404,"##elos":3405,"asso":3406,"##rg":3407,"##endi":3408,"pun":3409,"##osto":3410,"décima":3411,"impugnação":3412,"administrativos":3413,"remun":3414,"isso":3415,"##urso":3416,"##iza":3417,"ensa":3418,"relativa":3419,"##ácia":3420,"próprios":3421,"fór":3422,"integralmente":3423,"preval":3424,"dele":3425,"indicando":3426,"fazem":3427,"evitar":3428,"##ecu":3429,"destes":3430,"##zer":3431,"##ficação":3432,"lista":3433,"médio":3434,"##ná":3435,"paral":3436,"jurídicas":3437,"índices":3438,"pactu":3439,"limites":3440,"contraditório":3441,"benefícios":3442,"sent":3443,"##gando":3444,"expedido":3445,"##ração":3446,"##tul":3447,"líqu":3448,"embalagens":3449,"estando":3450,"vínculo":3451,"fpm":3452,"classificado":3453,"incid":3454,"corpo":3455,"##adequ":3456,"opção":3457,"secret":3458,"comando":3459,"praça":3460,"##venientes":3461,"compõem":3462,"rodo":3463,"##ático":3464,"constituição":3465,"##ecion":3466,"interrup":3467,"##cido":3468,"similar":3469,"tri":3470,"tudo":3471,"bater":3472,"##idência":3473,"registros":3474,"parâmetros":3475,"##portu":3476,"suficiente":3477,"aquelas":3478,"devidas":3479,"poderes":3480,"web":3481,"submet":3482,"##ixas":3483,"##ecerá":3484,"torn":3485,"catá":3486,"examin":3487,"fgts":3488,"aspec":3489,"norte":3490,"gráfic":3491,"dig":3492,"portal":3493,"indispens":3494,"organização":3495,"##oca":3496,"combustível":3497,"repro":3498,"públicas":3499,"fé":3500,"catálo":3501,"jor":3502,"inscrito":3503,"lado":3504,"subcontratação":3505,"manutenções":3506,"und":3507,"licença":3508,"##teral":3509,"rura":3510,"atesto":3511,"prob":3512,"estiverem":3513,"assumir":3514,"fá":3515,"##ques":3516,"recusar":3517,"fr":3518,"existente":3519,"pers":3520,"softwares":3521,"relev":3522,"cominações":3523,"possibilitar":3524,"cujos":3525,"empreitada":3526,"associ":3527,"portas":3528,"medida":3529,"tecnológ":3530,"rodovi":3531,"##todo":3532,"ramo":3533,"posteriormente":3534,"arre":3535,"bus":3536,"portador":3537,"lotes":3538,"repar":3539,"efetiva":3540,"produz":3541,"virtude":3542,"exigir":3543,"indiretamente":3544,"semana":3545,"resta":3546,"bas":3547,"##pre":3548,"representada":3549,"situada":3550,"transportes":3551,"dn":3552,"passagens":3553,"##mes":3554,"recla":3555,"respeito":3556,"eficiência":3557,"detalhamento":3558,"parcelada":3559,"indireta":3560,"cabe":3561,"emprega":3562,"prepara":3563,"repass":3564,"isol":3565,"grupos":3566,"##emb":3567,"expl":3568,"convocar":3569,"aprovado":3570,"localizada":3571,"revisão":3572,"interfa":3573,"##anos":3574,"supra":3575,"escrita":3576,"##tanci":3577,"acréscimos":3578,"imediato":3579,"fe":3580,"localizado":3581,"respond":3582,"médico":3583,"futuras":3584,"##adeira":3585,"perfeitas":3586,"atribuições":3587,"##itas":3588,"impresso":3589,"declarado":3590,"designada":3591,"grau":3592,"autorizado":3593,"preferencialmente":3594,"##tembro":3595,"setembro":3596,"##enta":3597,"frequ":3598,"inidone":3599,"combustíveis":3600,"clín":3601,"incidentes":3602,"aero":3603,"aqui":3604,"acab":3605,"##vesti":3606,"terão":3607,"fixo":3608,"ren":3609,"reconheci":3610,"pago":3611,"capital":3612,"##isti":3613,"obtidos":3614,"brasileiro":3615,"sanitária":3616,"cultura":3617,"abrang":3618,"oportu":3619,"rigorosamente":3620,"gab":3621,"lhes":3622,"definidas":3623,"inidoneidade":3624,"extrato":3625,"alunos":3626,"intenção":3627,"cel":3628,"contá":3629,"foto":3630,"##ento":3631,"vo":3632,"##endas":3633,"##uído":3634,"destinado":3635,"acer":3636,"neg":3637,"princípios":3638,"específico":3639,"salários":3640,"levant":3641,"específicos":3642,"propriedade":3643,"atual":3644,"altura":3645,"informado":3646,"fixada":3647,"exigência":3648,"verificada":3649,"indicada":3650,"##edades":3651,"regulament":3652,"##ique":3653,"balanço":3654,"##odos":3655,"##rar":3656,"##ravante":3657,"der":3658,"doravante":3659,"##iente":3660,"comoda":3661,"ms":3662,"quím":3663,"conexão":3664,"##ice":3665,"##anho":3666,"reforma":3667,"mínimas":3668,"franci":3669,"##iões":3670,"encontram":3671,"comuns":3672,"temper":3673,"convocada":3674,"injustificado":3675,"adap":3676,"logística":3677,"aplicando":3678,"audi":3679,"encerrada":3680,"atenda":3681,"subsidiariamente":3682,"gás":3683,"##ap":3684,"integrantes":3685,"endereços":3686,"arcar":3687,"recebido":3688,"supres":3689,"##lema":3690,"arquivos":3691,"declarada":3692,"##ênio":3693,"última":3694,"plás":3695,"recep":3696,"odo":3697,"suprir":3698,"imó":3699,"emprego":3700,"requisitante":3701,"mf":3702,"ativa":3703,"abril":3704,"##uídos":3705,"períodos":3706,"mínimos":3707,"retenção":3708,"propostos":3709,"equ":3710,"##ráfica":3711,"vida":3712,"##cionadas":3713,"del":3714,"##ensão":3715,"##cro":3716,"##gados":3717,"teste":3718,"##iste":3719,"considerar":3720,"dific":3721,"proposto":3722,"rá":3723,"##bri":3724,"atualizada":3725,"superveniente":3726,"obtenção":3727,"esses":3728,"modelos":3729,"corrigir":3730,"jorn":3731,"consequente":3732,"##logia":3733,"##eder":3734,"bloc":3735,"atuação":3736,"porto":3737,"disponibilização":3738,"adjudicado":3739,"operações":3740,"específicas":3741,"justificado":3742,"limita":3743,"legisla":3744,"sujei":3745,"##âncias":3746,"pain":3747,"incluídos":3748,"##izará":3749,"cancelamento":3750,"problema":3751,"econômica":3752,"agend":3753,"inclusão":3754,"saída":3755,"cartório":3756,"temporária":3757,"obedecendo":3758,"garantida":3759,"prédio":3760,"vistas":3761,"senh":3762,"##cios":3763,"##ecimento":3764,"uniformes":3765,"##ze":3766,"agosto":3767,"dí":3768,"designados":3769,"presença":3770,"instalado":3771,"aplicável":3772,"funções":3773,"máxima":3774,"apr":3775,"haverá":3776,"plata":3777,"detentor":3778,"outu":3779,"cra":3780,"outubro":3781,"zona":3782,"##dado":3783,"francis":3784,"respei":3785,"adver":3786,"peri":3787,"maneira":3788,"##idez":3789,"##ses":3790,"cumpr":3791,"encaminhada":3792,"arquite":3793,"permita":3794,"capacitação":3795,"financeiros":3796,"requisição":3797,"tan":3798,"##gre":3799,"impac":3800,"apuração":3801,"aceitas":3802,"orientações":3803,"parcelas":3804,"variação":3805,"laudo":3806,"imprensa":3807,"odont":3808,"pend":3809,"##posta":3810,"orden":3811,"similares":3812,"competência":3813,"interessado":3814,"cumula":3815,"rural":3816,"##itário":3817,"erros":3818,"ja":3819,"pne":3820,"ocorrendo":3821,"soma":3822,"prop":3823,"##ordin":3824,"principal":3825,"soluções":3826,"móveis":3827,"##ware":3828,"ausência":3829,"permitindo":3830,"créditos":3831,"falsa":3832,"perda":3833,"quem":3834,"link":3835,"silva":3836,"##emplo":3837,"inabilitação":3838,"line":3839,"tarif":3840,"reparos":3841,"##ulação":3842,"integram":3843,"cabos":3844,"andamento":3845,"##pol":3846,"##ern":3847,"bel":3848,"##uras":3849,"exemplo":3850,"etapas":3851,"licitados":3852,"edifício":3853,"guarda":3854,"ara":3855,"definição":3856,"dificul":3857,"convenção":3858,"importância":3859,"titul":3860,"colabora":3861,"desses":3862,"kg":3863,"rg":3864,"clara":3865,"pacientes":3866,"deslocamento":3867,"país":3868,"versão":3869,"programas":3870,"têm":3871,"definitivamente":3872,"mud":3873,"aproxim":3874,"elenc":3875,"##ing":3876,"diretor":3877,"enviados":3878,"mi":3879,"realizará":3880,"atin":3881,"##vendo":3882,"admitida":3883,"##riz":3884,"processamento":3885,"largura":3886,"memb":3887,"duração":3888,"sustentabilidade":3889,"##tou":3890,"##âns":3891,"##icadas":3892,"francisco":3893,"trâns":3894,"volume":3895,"mal":3896,"concedido":3897,"vinculada":3898,"dan":3899,"recibo":3900,"restrição":3901,"instruções":3902,"cinco":3903,"obter":3904,"apropri":3905,"trânsito":3906,"plena":3907,"alterna":3908,"fornecida":3909,"falha":3910,"##her":3911,"repa":3912,"provoc":3913,"víde":3914,"exerci":3915,"estraté":3916,"livre":3917,"atendidas":3918,"##gio":3919,"iniciar":3920,"##mpa":3921,"pintura":3922,"inss":3923,"face":3924,"remanescentes":3925,"vid":3926,"incên":3927,"baixa":3928,"dívida":3929,"repactu":3930,"caput":3931,"líquido":3932,"##ônia":3933,"constatada":3934,"pretend":3935,"eletrônicos":3936,"##enciamento":3937,"observada":3938,"rein":3939,"página":3940,"contagem":3941,"##gias":3942,"##lig":3943,"##ativas":3944,"reno":3945,"maté":3946,"integração":3947,"agente":3948,"escal":3949,"##izadas":3950,"cabo":3951,"aprendi":3952,"brasileira":3953,"mara":3954,"##táveis":3955,"compri":3956,"comproba":3957,"entend":3958,"vale":3959,"##rando":3960,"referidos":3961,"nossa":3962,"lig":3963,"separa":3964,"mol":3965,"lis":3966,"##éci":3967,"representado":3968,"aceitabilidade":3969,"##ui":3970,"registrar":3971,"situado":3972,"inexistência":3973,"descredenci":3974,"implica":3975,"acerca":3976,"futu":3977,"tel":3978,"membros":3979,"ala":3980,"exercer":3981,"facultado":3982,"recomenda":3983,"setores":3984,"correla":3985,"judiciária":3986,"poli":3987,"prel":3988,"ita":3989,"estas":3990,"interval":3991,"consór":3992,"defens":3993,"##âmb":3994,"relativo":3995,"certificação":3996,"obedecer":3997,"espéci":3998,"front":3999,"folha":4000,"fretes":4001,"reparar":4002,"##rais":4003,"aspectos":4004,"identificados":4005,"adotado":4006,"espaço":4007,"integ":4008,"mensais":4009,"fundamento":4010,"tim":4011,"##dura":4012,"##ivas":4013,"##eas":4014,"faturamento":4015,"ol":4016,"renov":4017,"prelimin":4018,"bil":4019,"erro":4020,"qua":4021,"natura":4022,"intim":4023,"coordenadoria":4024,"funcionário":4025,"totalidade":4026,"fixação":4027,"santo":4028,"fórm":4029,"##amentos":4030,"aquele":4031,"utilizadas":4032,"comprimento":4033,"tamanho":4034,"ressalv":4035,"inco":4036,"consumidor":4037,"distância":4038,"correções":4039,"cotado":4040,"disponibilizados":4041,"assegurada":4042,"tipos":4043,"dimension":4044,"inclusos":4045,"instrumentos":4046,"##iedade":4047,"##quia":4048,"anu":4049,"exclusivo":4050,"identificar":4051,"sigilo":4052,"necessita":4053,"branco":4054,"tex":4055,"diss":4056,"então":4057,"normal":4058,"penas":4059,"##dagem":4060,"sentido":4061,"decorrer":4062,"##ínio":4063,"##tição":4064,"encaminhados":4065,"diante":4066,"agenda":4067,"##essa":4068,"##queada":4069,"incluir":4070,"peça":4071,"##vem":4072,"fus":4073,"preâmb":4074,"vant":4075,"esgo":4076,"preâmbulo":4077,"externa":4078,"rn":4079,"##ticular":4080,"sedi":4081,"indicadas":4082,"enviada":4083,"envolvidos":4084,"##tm":4085,"reunião":4086,"agentes":4087,"matr":4088,"funcionalidade":4089,"fornecedora":4090,"substituídos":4091,"esco":4092,"consideradas":4093,"pedro":4094,"##endimento":4095,"hábil":4096,"##und":4097,"módulo":4098,"capítulo":4099,"revis":4100,"adjudicatário":4101,"ajustes":4102,"orientação":4103,"compens":4104,"ofereci":4105,"##gadas":4106,"mobili":4107,"localidade":4108,"capaz":4109,"faltas":4110,"bn":4111,"injustific":4112,"pertencentes":4113,"diferenci":4114,"##ger":4115,"acabamento":4116,"consecu":4117,"obtido":4118,"##amos":4119,"núc":4120,"##lex":4121,"##ública":4122,"alc":4123,"las":4124,"manuais":4125,"ressarci":4126,"estri":4127,"trabalhadores":4128,"casas":4129,"automática":4130,"##ges":4131,"##íb":4132,"dano":4133,"ofício":4134,"interrupção":4135,"dolo":4136,"##com":4137,"fortal":4138,"gen":4139,"omissão":4140,"denominada":4141,"sociedades":4142,"declarar":4143,"compreendendo":4144,"registrada":4145,"##itirá":4146,"estatu":4147,"chat":4148,"móvel":4149,"seleção":4150,"particular":4151,"integridade":4152,"remuneração":4153,"exame":4154,"##beis":4155,"##íba":4156,"inicialmente":4157,"infant":4158,"##itais":4159,"fms":4160,"remet":4161,"presentes":4162,"##imos":4163,"pec":4164,"telefones":4165,"unila":4166,"suportar":4167,"kit":4168,"excep":4169,"diárias":4170,"república":4171,"ferramenta":4172,"questão":4173,"pessoais":4174,"abs":4175,"lubri":4176,"lac":4177,"ensejar":4178,"ordens":4179,"motorista":4180,"hs":4181,"##cos":4182,"aditivo":4183,"##arca":4184,"oportun":4185,"toc":4186,"##tidão":4187,"assu":4188,"eleitoral":4189,"##cao":4190,"tratando":4191,"prefeito":4192,"engenheiro":4193,"trá":4194,"credenciados":4195,"##quem":4196,"espess":4197,"apresentando":4198,"domic":4199,"##ilíb":4200,"##essionária":4201,"reparo":4202,"proporcionar":4203,"##era":4204,"retar":4205,"circunstanci":4206,"agro":4207,"comodato":4208,"sens":4209,"##brado":4210,"aptidão":4211,"estabelecimento":4212,"chefe":4213,"tare":4214,"selecion":4215,"reais":4216,"provenientes":4217,"consequ":4218,"supervisão":4219,"plataforma":4220,"atendam":4221,"##ilíbrio":4222,"andar":4223,"disputa":4224,"economia":4225,"##ntas":4226,"elaborado":4227,"frete":4228,"##fego":4229,"circu":4230,"cartão":4231,"odontológ":4232,"tercei":4233,"devolução":4234,"titular":4235,"temperatura":4236,"tub":4237,"impossibilidade":4238,"obrigando":4239,"dispor":4240,"tela":4241,"estudo":4242,"junta":4243,"visu":4244,"extenso":4245,"##ori":4246,"liberação":4247,"hist":4248,"permitida":4249,"met":4250,"blo":4251,"estarão":4252,"posi":4253,"transmissão":4254,"arts":4255,"revogar":4256,"perdas":4257,"circul":4258,"bilhe":4259,"adoção":4260,"beneficiário":4261,"incidam":4262,"conduta":4263,"##ruz":4264,"manifestação":4265,"##tização":4266,"estabelece":4267,"afe":4268,"sec":4269,"domicílio":4270,"assessoria":4271,"preenchimento":4272,"falência":4273,"funcionalidades":4274,"diária":4275,"higiene":4276,"coletiva":4277,"cumulativamente":4278,"##ificado":4279,"garantindo":4280,"cometer":4281,"caixas":4282,"fac":4283,"memória":4284,"preci":4285,"supervis":4286,"##ficácia":4287,"permanecerão":4288,"terceiriz":4289,"segue":4290,"prática":4291,"cotados":4292,"atende":4293,"conso":4294,"##uída":4295,"interface":4296,"reabilitação":4297,"alegre":4298,"fizer":4299,"mantendo":4300,"##âmp":4301,"algar":4302,"comprovem":4303,"##ílios":4304,"consideração":4305,"camin":4306,"vent":4307,"padron":4308,"exclui":4309,"atrasos":4310,"inadequ":4311,"pagará":4312,"espessura":4313,"eficácia":4314,"##aram":4315,"levantamento":4316,"previdenciárias":4317,"possibilita":4318,"##jo":4319,"eles":4320,"##rául":4321,"causa":4322,"aéreas":4323,"##ws":4324,"consórcio":4325,"optar":4326,"recomend":4327,"consignados":4328,"santos":4329,"facultada":4330,"incêndio":4331,"sane":4332,"emitidas":4333,"totalmente":4334,"hidrául":4335,"escola":4336,"piso":4337,"##dr":4338,"tráfego":4339,"##xo":4340,"vídeo":4341,"acompanhados":4342,"externo":4343,"empate":4344,"metodo":4345,"elétricos":4346,"executivo":4347,"procedência":4348,"entregas":4349,"alimentos":4350,"amaz":4351,"##cina":4352,"publicada":4353,"notur":4354,"remoção":4355,"cessão":4356,"regulamento":4357,"indus":4358,"julgar":4359,"ambientais":4360,"resultante":4361,"belém":4362,"##ismos":4363,"mecan":4364,"estimativas":4365,"##and":4366,"cartões":4367,"dimensões":4368,"lt":4369,"recicl":4370,"predi":4371,"plenamente":4372,"##mentais":4373,"exclusão":4374,"cursos":4375,"cooperativas":4376,"##ft":4377,"defensoria":4378,"feitas":4379,"ampliação":4380,"consoante":4381,"celebrar":4382,"certificados":4383,"fraude":4384,"pagos":4385,"definitiva":4386,"##fas":4387,"incon":4388,"credenciada":4389,"##alizações":4390,"utens":4391,"estudos":4392,"sofrer":4393,"substituído":4394,"divergência":4395,"##ficientes":4396,"especializados":4397,"##ientes":4398,"apont":4399,"advertência":4400,"efetuadas":4401,"##izo":4402,"##hos":4403,"mt":4404,"recorrer":4405,"avali":4406,"eletrobras":4407,"espécie":4408,"teor":4409,"ilumin":4410,"velo":4411,"datas":4412,"##ulos":4413,"pas":4414,"disti":4415,"feriados":4416,"vier":4417,"auxiliar":4418,"incidir":4419,"assist":4420,"físicas":4421,"telefonia":4422,"##tion":4423,"especificadas":4424,"elétrico":4425,"furnas":4426,"fortu":4427,"celebrado":4428,"alto":4429,"##embol":4430,"dispositivo":4431,"##ind":4432,"infração":4433,"proib":4434,"atualizados":4435,"maria":4436,"agricul":4437,"movimentação":4438,"indispensáveis":4439,"ensaios":4440,"bloco":4441,"corretivas":4442,"placa":4443,"aumento":4444,"transpar":4445,"ante":4446,"imagens":4447,"registradas":4448,"municipio":4449,"estimados":4450,"##icados":4451,"atenção":4452,"reuniões":4453,"ml":4454,"##ede":4455,"gabine":4456,"atualmente":4457,"comparecer":4458,"acréscimo":4459,"inadimplência":4460,"##unci":4461,"adqui":4462,"calculada":4463,"tensão":4464,"anteriormente":4465,"##chos":4466,"encont":4467,"sab":4468,"hu":4469,"pot":4470,"emitidos":4471,"pneus":4472,"adequados":4473,"março":4474,"publicado":4475,"longo":4476,"rei":4477,"entende":4478,"polícia":4479,"##tórias":4480,"##item":4481,"mí":4482,"ajustado":4483,"seman":4484,"mineral":4485,"metál":4486,"decorrido":4487,"concessão":4488,"emergência":4489,"##lu":4490,"ron":4491,"##grafia":4492,"criação":4493,"utensílios":4494,"tom":4495,"back":4496,"confirmação":4497,"fornecidas":4498,"fabricantes":4499,"composto":4500,"programação":4501,"##órias":4502,"extensão":4503,"metro":4504,"humanos":4505,"industri":4506,"perig":4507,"especiais":4508,"placas":4509,"fixados":4510,"contábeis":4511,"destina":4512,"suprimentos":4513,"##onância":4514,"judicialmente":4515,"conheci":4516,"complexidade":4517,"pagar":4518,"reclama":4519,"##guel":4520,"##ópol":4521,"aprovada":4522,"salário":4523,"desmo":4524,"correta":4525,"respeitando":4526,"gl":4527,"adotar":4528,"séti":4529,"crach":4530,"internas":4531,"rejeitar":4532,"manifestar":4533,"ses":4534,"ínte":4535,"pv":4536,"solicitante":4537,"##ibra":4538,"chamadas":4539,"passagem":4540,"recomendações":4541,"preceitos":4542,"contratadas":4543,"fone":4544,"##ópolis":4545,"imperfeições":4546,"novembro":4547,"intervalo":4548,"interior":4549,"estoque":4550,"sócio":4551,"defici":4552,"declarações":4553,"##trizes":4554,"ambientes":4555,"incorreções":4556,"arquitetura":4557,"menores":4558,"lín":4559,"pont":4560,"fechamento":4561,"indenizações":4562,"timbrado":4563,"##alu":4564,"suple":4565,"promovida":4566,"destino":4567,"cotação":4568,"consultoria":4569,"agendamento":4570,"casa":4571,"unid":4572,"##ícula":4573,"paraná":4574,"sucessivos":4575,"definida":4576,"totais":4577,"escritório":4578,"identificado":4579,"ds":4580,"remessa":4581,"oriundos":4582,"inmetro":4583,"retor":4584,"iluminação":4585,"histór":4586,"ss":4587,"supressões":4588,"óleo":4589,"discriminados":4590,"##gnós":4591,"expos":4592,"##edente":4593,"convocará":4594,"àqu":4595,"est":4596,"visto":4597,"alago":4598,"repactuação":4599,"acid":4600,"rescind":4601,"pri":4602,"refrig":4603,"gal":4604,"punição":4605,"prover":4606,"companhia":4607,"conser":4608,"cumpre":4609,"automo":4610,"indiretas":4611,"franqueada":4612,"consonância":4613,"plant":4614,"cond":4615,"sucessivamente":4616,"reclamações":4617,"permitido":4618,"elaborar":4619,"##eia":4620,"madeira":4621,"geração":4622,"parna":4623,"diretos":4624,"universitário":4625,"porém":4626,"cant":4627,"anor":4628,"##onas":4629,"hem":4630,"língua":4631,"legalmente":4632,"frequência":4633,"decimais":4634,"especifica":4635,"hospitalares":4636,"of":4637,"pressão":4638,"redes":4639,"contenha":4640,"secretário":4641,"popul":4642,"hard":4643,"compara":4644,"##uração":4645,"terceira":4646,"dnit":4647,"perió":4648,"prevenção":4649,"##asg":4650,"déci":4651,"apre":4652,"linhas":4653,"consecutivos":4654,"adquirido":4655,"anuência":4656,"prior":4657,"##pr":4658,"núcleo":4659,"##istir":4660,"determinações":4661,"estimada":4662,"branca":4663,"principalmente":4664,"##tâncias":4665,"gros":4666,"aplicações":4667,"princípio":4668,"deca":4669,"diz":4670,"refeições":4671,"folhas":4672,"perfil":4673,"luz":4674,"indíg":4675,"omissos":4676,"íntegra":4677,"débito":4678,"diretrizes":4679,"aparelho":4680,"##gao":4681,"laborator":4682,"diagnós":4683,"##riti":4684,"bndes":4685,"##ises":4686,"declaramos":4687,"português":4688,"apresentem":4689,"conveniência":4690,"##har":4691,"cof":4692,"perdura":4693,"atestar":4694,"detalhes":4695,"brb":4696,"campos":4697,"isto":4698,"quinta":4699,"nele":4700,"férias":4701,"ressarcimento":4702,"indiretos":4703,"cujas":4704,"comprovadamente":4705,"ocup":4706,"sujeito":4707,"finais":4708,"acerv":4709,"fever":4710,"painel":4711,"institucional":4712,"prestada":4713,"determinando":4714,"concreto":4715,"decre":4716,"estados":4717,"básica":4718,"sujeitando":4719,"##gue":4720,"vinculados":4721,"##mia":4722,"##plo":4723,"fevereiro":4724,"gar":4725,"décimo":4726,"mos":4727,"cd":4728,"comprovantes":4729,"##iro":4730,"funcional":4731,"obrigatório":4732,"petição":4733,"auxili":4734,"quatro":4735,"horizo":4736,"ga":4737,"estatuto":4738,"baterias":4739,"ão":4740,"resum":4741,"solu":4742,"##icou":4743,"causar":4744,"unifor":4745,"máximos":4746,"habilitado":4747,"eletronorte":4748,"impeça":4749,"aprendiz":4750,"rib":4751,"domici":4752,"goi":4753,"incor":4754,"##edidos":4755,"descarga":4756,"depos":4757,"diâ":4758,"implementação":4759,"considera":4760,"hospe":4761,"milita":4762,"gabinete":4763,"destinação":4764,"perdurarem":4765,"##utri":4766,"inabilita":4767,"ton":4768,"população":4769,"velocidade":4770,"parágrafos":4771,"faixa":4772,"calibra":4773,"inidôneo":4774,"viagens":4775,"comprometer":4776,"detalhadas":4777,"negó":4778,"militares":4779,"##ner":4780,"avaliar":4781,"classe":4782,"##osos":4783,"##dades":4784,"pvc":4785,"correrá":4786,"coz":4787,"verificadas":4788,"##tel":4789,"benefício":4790,"chave":4791,"divid":4792,"observação":4793,"##este":4794,"ciente":4795,"aquela":4796,"ib":4797,"estrang":4798,"prorrogável":4799,"limitada":4800,"aplicado":4801,"formulário":4802,"quadra":4803,"apól":4804,"objetivos":4805,"análises":4806,"telefônico":4807,"integrado":4808,"cota":4809,"disso":4810,"direção":4811,"mac":4812,"módulos":4813,"##orias":4814,"percentuais":4815,"##gráfic":4816,"formalização":4817,"justificativas":4818,"fazê":4819,"incorpora":4820,"##ivos":4821,"##eu":4822,"tarefas":4823,"comba":4824,"##ús":4825,"desclassificada":4826,"prejudic":4827,"substituto":4828,"##bre":4829,"anorm":4830,"política":4831,"##trem":4832,"##ído":4833,"definir":4834,"sanitário":4835,"elétricas":4836,"fazendo":4837,"obedeci":4838,"consultas":4839,"##ram":4840,"finanças":4841,"sign":4842,"principais":4843,"aca":4844,"##cito":4845,"flori":4846,"##fus":4847,"justificada":4848,"cil":4849,"quer":4850,"sesa":4851,"escala":4852,"oriundas":4853,"tomar":4854,"infrações":4855,"compromete":4856,"##dicial":4857,"inadimplemento":4858,"termin":4859,"retardamento":4860,"regularmente":4861,"windo":4862,"determinantes":4863,"##bu":4864,"destinada":4865,"fas":4866,"##gráfica":4867,"obrigatória":4868,"parcialmente":4869,"liquidez":4870,"##ct":4871,"próx":4872,"##ncia":4873,"informados":4874,"manus":4875,"acervo":4876,"recorr":4877,"alar":4878,"ltda":4879,"circunstanciado":4880,"windows":4881,"perio":4882,"marcas":4883,"correio":4884,"fortaleza":4885,"concorda":4886,"##ete":4887,"matriz":4888,"rotinas":4889,"dimin":4890,"##fíci":4891,"estipulados":4892,"decisões":4893,"passag":4894,"supraci":4895,"adquirir":4896,"##tique":4897,"exér":4898,"ocasion":4899,"##dados":4900,"espor":4901,"gráficos":4902,"competentes":4903,"##faz":4904,"impossibil":4905,"pros":4906,"fornecimentos":4907,"exército":4908,"desej":4909,"pavimentação":4910,"lago":4911,"domin":4912,"exercida":4913,"convênio":4914,"transferir":4915,"medicina":4916,"viabil":4917,"deduz":4918,"denominado":4919,"referencia":4920,"fórmula":4921,"disciplin":4922,"recebidas":4923,"##vile":4924,"##lio":4925,"diretas":4926,"diferença":4927,"estaduais":4928,"paralis":4929,"irá":4930,"estarem":4931,"comarca":4932,"credenciado":4933,"comerci":4934,"privile":4935,"paco":4936,"rf":4937,"assumindo":4938,"imagem":4939,"coren":4940,"contr":4941,"alocados":4942,"adequadas":4943,"##tam":4944,"indispon":4945,"auxílio":4946,"carim":4947,"estabelecer":4948,"conduz":4949,"anat":4950,"constando":4951,"sur":4952,"faça":4953,"antônio":4954,"etique":4955,"aceitável":4956,"##cle":4957,"cé":4958,"dispensa":4959,"noturno":4960,"agricultura":4961,"refor":4962,"impre":4963,"ép":4964,"privilegi":4965,"símil":4966,"mencionado":4967,"##tim":4968,"mer":4969,"gb":4970,"extraju":4971,"##vers":4972,"firmar":4973,"sinalização":4974,"famil":4975,"permite":4976,"quinto":4977,"##vestimento":4978,"nacionais":4979,"resistência":4980,"evid":4981,"uniforme":4982,"determinação":4983,"contida":4984,"hardware":4985,"combate":4986,"máquina":4987,"colaboradores":4988,"adesão":4989,"comprovados":4990,"litros":4991,"composta":4992,"nutri":4993,"fundamentado":4994,"##çado":4995,"bio":4996,"##rin":4997,"rescindido":4998,"terri":4999,"tecido":5000,"defei":5001,"##edidas":5002,"acrescido":5003,"consiste":5004,"seguindo":5005,"prontamente":5006,"adimplemento":5007,"consolidação":5008,"bancário":5009,"incidência":5010,"indicadores":5011,"ligações":5012,"demonstrações":5013,"concedida":5014,"tabelas":5015,"atualizações":5016,"son":5017,"##inhas":5018,"localização":5019,"substituições":5020,"ficam":5021,"defeitu":5022,"expresso":5023,"símile":5024,"refei":5025,"micros":5026,"invi":5027,"serv":5028,"diâmetro":5029,"##culos":5030,"##istente":5031,"contínua":5032,"hospedagem":5033,"redi":5034,"st":5035,"bl":5036,"recons":5037,"levando":5038,"##eta":5039,"possuem":5040,"despa":5041,"números":5042,"lava":5043,"nona":5044,"examinará":5045,"verificará":5046,"filial":5047,"correto":5048,"conh":5049,"metodologia":5050,"##dão":5051,"sujeitará":5052,"melhoria":5053,"##brica":5054,"memor":5055,"cidad":5056,"##bá":5057,"obrigator":5058,"inox":5059,"tcu":5060,"##leg":5061,"junt":5062,"motivada":5063,"cuidad":5064,"estipuladas":5065,"comportar":5066,"metros":5067,"##utica":5068,"ressarcir":5069,"livro":5070,"dessas":5071,"pesquisas":5072,"facilitar":5073,"##gné":5074,"firmam":5075,"parnaíba":5076,"determinados":5077,"época":5078,"correspondência":5079,"estratég":5080,"##men":5081,"##rão":5082,"##istem":5083,"celebração":5084,"ader":5085,"##ificações":5086,"evitando":5087,"##namentais":5088,"fortuito":5089,"reconhecida":5090,"lan":5091,"maran":5092,"margem":5093,"portuguesa":5094,"miguel":5095,"estabelecimentos":5096,"cartu":5097,"especializado":5098,"destac":5099,"executadas":5100,"plástico":5101,"proporcional":5102,"aérea":5103,"notificar":5104,"obrigatoriedade":5105,"##arias":5106,"orçamentárias":5107,"encaminhadas":5108,"promoção":5109,"mato":5110,"cores":5111,"##tragem":5112,"urbana":5113,"##rac":5114,"juí":5115,"ficarão":5116,"matéria":5117,"lucro":5118,"internos":5119,"subme":5120,"##ep":5121,"##rados":5122,"lubrifica":5123,"empregat":5124,"feitos":5125,"##enhos":5126,"oita":5127,"##uídas":5128,"descrições":5129,"orientar":5130,"##dc":5131,"matrícula":5132,"executada":5133,"atenderem":5134,"mantiver":5135,"corpora":5136,"individuais":5137,"constatado":5138,"diferenciado":5139,"##édios":5140,"legislações":5141,"##éis":5142,"catálogo":5143,"##estra":5144,"efetuará":5145,"sól":5146,"cargos":5147,"localidades":5148,"##medi":5149,"cooperativa":5150,"fontes":5151,"encaminhado":5152,"cozinha":5153,"exceder":5154,"quitação":5155,"últimos":5156,"alagoas":5157,"funde":5158,"incluídas":5159,"sofr":5160,"impeditivo":5161,"citado":5162,"fábrica":5163,"##iba":5164,"dp":5165,"embar":5166,"vezes":5167,"alterado":5168,"autorizados":5169,"modalidades":5170,"nominal":5171,"afas":5172,"previdência":5173,"tj":5174,"ficar":5175,"grosso":5176,"gerador":5177,"quarta":5178,"instalar":5179,"remover":5180,"instru":5181,"classificadas":5182,"##equi":5183,"mudança":5184,"insalu":5185,"ileg":5186,"imóveis":5187,"garantido":5188,"distrib":5189,"unilateral":5190,"determina":5191,"laboratórios":5192,"vari":5193,"imprescind":5194,"aberto":5195,"catálogos":5196,"##dios":5197,"homologado":5198,"piaui":5199,"elencados":5200,"##omun":5201,"compensação":5202,"maranhão":5203,"orçamentos":5204,"montante":5205,"representação":5206,"coletivo":5207,"mencionados":5208,"básicas":5209,"recar":5210,"discriminado":5211,"##ulares":5212,"esc":5213,"visual":5214,"leitura":5215,"formulação":5216,"admitido":5217,"verbas":5218,"provedor":5219,"##gurando":5220,"##uf":5221,"educa":5222,"dirigida":5223,"proponentes":5224,"obtidas":5225,"tinta":5226,"dado":5227,"rasuras":5228,"rote":5229,"preventivas":5230,"ofertar":5231,"suficientes":5232,"determinada":5233,"peso":5234,"elas":5235,"mobiliário":5236,"recepção":5237,"descrita":5238,"cruz":5239,"excepcional":5240,"aberta":5241,"fechado":5242,"constru":5243,"calculado":5244,"fixos":5245,"emendas":5246,"segurado":5247,"atendi":5248,"formas":5249,"impressoras":5250,"ating":5251,"sindica":5252,"privilegiado":5253,"descontos":5254,"##resc":5255,"objetiva":5256,"guia":5257,"dsei":5258,"quarto":5259,"preliminar":5260,"##sc":5261,"ultrapassar":5262,"chamada":5263,"periodi":5264,"exti":5265,"fraudar":5266,"aplicou":5267,"remetidos":5268,"balance":5269,"##inheiro":5270,"provas":5271,"corte":5272,"##reak":5273,"essenciais":5274,"oportunidade":5275,"concorrência":5276,"interesses":5277,"apresenta":5278,"descritivo":5279,"##isa":5280,"admitindo":5281,"boas":5282,"reag":5283,"histórico":5284,"ambos":5285,"##udio":5286,"respeitada":5287,"referidas":5288,"tarifas":5289,"natural":5290,"associação":5291,"significa":5292,"desem":5293,"encarreg":5294,"requerimento":5295,"##tida":5296,"apólice":5297,"backup":5298,"interessadas":5299,"impacto":5300,"extrajudicial":5301,"diagnóstico":5302,"fundeb":5303,"clínicas":5304,"enquadramento":5305,"moni":5306,"telec":5307,"interpre":5308,"##embolso":5309,"zero":5310,"enfer":5311,"obrigado":5312,"emerg":5313,"equilíbrio":5314,"fluxo":5315,"##mentares":5316,"equipes":5317,"habilitados":5318,"fases":5319,"fixadas":5320,"##osas":5321,"ceará":5322,"anatel":5323,"atendimentos":5324,"somatório":5325,"##úrg":5326,"##formidade":5327,"alves":5328,"distribuidor":5329,"eletronicamente":5330,"escopo":5331,"aproximadamente":5332,"viol":5333,"##rel":5334,"assumida":5335,"concessionária":5336,"auditoria":5337,"dimensionamento":5338,"##nomia":5339,"mensagem":5340,"##vio":5341,"mensagens":5342,"prestador":5343,"elaborada":5344,"sam":5345,"digitais":5346,"##uís":5347,"empregatício":5348,"cilind":5349,"##guar":5350,"##reajus":5351,"deriv":5352,"##gres":5353,"decidir":5354,"##entos":5355,"competitiva":5356,"negociar":5357,"##tantes":5358,"pecul":5359,"flex":5360,"desgas":5361,"alcanç":5362,"interessada":5363,"##umínio":5364,"aprovados":5365,"futuro":5366,"uasg":5367,"irreajus":5368,"vedado":5369,"diligência":5370,"determinar":5371,"diariamente":5372,"##elar":5373,"fiscalizada":5374,"and":5375,"protocolada":5376,"sequ":5377,"ordenador":5378,"automático":5379,"venda":5380,"parque":5381,"continuados":5382,"direto":5383,"luís":5384,"##all":5385,"decretos":5386,"arte":5387,"##tp":5388,"expressos":5389,"mecânica":5390,"rol":5391,"cau":5392,"##inter":5393,"danific":5394,"##curso":5395,"##dirá":5396,"esper":5397,"alterada":5398,"barras":5399,"petr":5400,"quilo":5401,"designar":5402,"minas":5403,"gerar":5404,"verificado":5405,"dando":5406,"amb":5407,"resposta":5408,"proporcion":5409,"desenvolvidas":5410,"oliv":5411,"elevadores":5412,"alumínio":5413,"cento":5414,"impedida":5415,"periodicidade":5416,"barra":5417,"contidos":5418,"atendidos":5419,"adv":5420,"acondicionamento":5421,"compreende":5422,"ps":5423,"constam":5424,"superfíci":5425,"cata":5426,"remoto":5427,"orçamentários":5428,"##ativo":5429,"aferição":5430,"##ândia":5431,"elimin":5432,"##bin":5433,"residente":5434,"permanentes":5435,"pendente":5436,"oliveira":5437,"serpro":5438,"melhores":5439,"tecnológica":5440,"##áb":5441,"##tizado":5442,"gastos":5443,"internacional":5444,"contratantes":5445,"##eres":5446,"cirúrg":5447,"bra":5448,"higien":5449,"potência":5450,"##rina":5451,"outor":5452,"exceção":5453,"rond":5454,"ateste":5455,"##tres":5456,"áudio":5457,"##cis":5458,"ficha":5459,"iss":5460,"##elha":5461,"essas":5462,"médicos":5463,"frente":5464,"fio":5465,"relacionado":5466,"procederá":5467,"tce":5468,"elei":5469,"encaminhará":5470,"##una":5471,"rondônia":5472,"gravação":5473,"financeiras":5474,"recorrente":5475,"insta":5476,"detalhado":5477,"red":5478,"ofertada":5479,"páginas":5480,"desmont":5481,"telecomun":5482,"informada":5483,"mesa":5484,"simul":5485,"ráp":5486,"##reo":5487,"passageiros":5488,"tras":5489,"##radas":5490,"visualização":5491,"rejeitados":5492,"##pla":5493,"emitirá":5494,"componente":5495,"compromiss":5496,"quadros":5497,"confidenci":5498,"grave":5499,"consequências":5500,"fundamental":5501,"negativas":5502,"impress":5503,"anp":5504,"políticas":5505,"##ivel":5506,"gratu":5507,"computadores":5508,"falhar":5509,"alv":5510,"mapa":5511,"##issões":5512,"parcelamento":5513,"mercador":5514,"comunicações":5515,"daqueles":5516,"sanar":5517,"az":5518,"seges":5519,"predial":5520,"##esta":5521,"vidro":5522,"##edes":5523,"autar":5524,"economicidade":5525,"##usa":5526,"citados":5527,"esclarecimento":5528,"vinculado":5529,"conexões":5530,"procuração":5531,"##ídas":5532,"domicili":5533,"bibl":5534,"acidente":5535,"##tran":5536,"ide":5537,"prescri":5538,"insu":5539,"preparação":5540,"##oft":5541,"inexequ":5542,"otim":5543,"declaro":5544,"verificando":5545,"##idar":5546,"procurador":5547,"##cando":5548,"pg":5549,"preta":5550,"contrário":5551,"indisponibilidade":5552,"cidades":5553,"impressora":5554,"diligências":5555,"ed":5556,"desempenh":5557,"magné":5558,"##vência":5559,"adotadas":5560,"gradu":5561,"sta":5562,"lidos":5563,"alguns":5564,"relacionada":5565,"urban":5566,"estrita":5567,"responsabilizando":5568,"rad":5569,"texto":5570,"arp":5571,"person":5572,"praticado":5573,"som":5574,"comunicado":5575,"acre":5576,"decair":5577,"##emos":5578,"##tagem":5579,"amazonas":5580,"microsoft":5581,"custe":5582,"estágio":5583,"desempate":5584,"hi":5585,"prejudi":5586,"ribeiro":5587,"subordin":5588,"##magem":5589,"periód":5590,"demonstrar":5591,"autenticação":5592,"juízo":5593,"anul":5594,"jornada":5595,"delega":5596,"anti":5597,"usb":5598,"estagi":5599,"classificados":5600,"alu":5601,"##reira":5602,"apos":5603,"explicita":5604,"conab":5605,"ocupa":5606,"postal":5607,"urgência":5608,"modificação":5609,"pb":5610,"cliente":5611,"concurso":5612,"bateria":5613,"despacho":5614,"impressos":5615,"fiscaliz":5616,"clima":5617,"##çal":5618,"estuda":5619,"respectivamente":5620,"hab":5621,"##tís":5622,"biblio":5623,"costa":5624,"##oração":5625,"desconformidade":5626,"reincid":5627,"demonstração":5628,"manuseio":5629,"cobrir":5630,"discriminação":5631,"fmas":5632,"medições":5633,"ibge":5634,"versões":5635,"responderá":5636,"próprias":5637,"prestadora":5638,"nessa":5639,"reduzindo":5640,"vaz":5641,"decid":5642,"publicidade":5643,"chaves":5644,"crachá":5645,"vas":5646,"##ces":5647,"##pamento":5648,"busca":5649,"instituições":5650,"turismo":5651,"cadastradas":5652,"sediada":5653,"sólidos":5654,"caiba":5655,"deposita":5656,"credi":5657,"respondendo":5658,"arrema":5659,"impugnar":5660,"possibilitando":5661,"tomadas":5662,"encerrado":5663,"decad":5664,"controlar":5665,"veic":5666,"mídia":5667,"apreci":5668,"ajustada":5669,"loco":5670,"cient":5671,"impro":5672,"mb":5673,"prédios":5674,"destas":5675,"impugnações":5676,"lavagem":5677,"##ética":5678,"extraordin":5679,"antecip":5680,"conste":5681,"nu":5682,"constituem":5683,"##ifique":5684,"##utados":5685,"bdi":5686,"contemplar":5687,"##ntores":5688,"##erh":5689,"qualita":5690,"laudos":5691,"##mg":5692,"escolas":5693,"ram":5694,"esqu":5695,"##iras":5696,"##ógica":5697,"disciplina":5698,"rescin":5699,"##̃o":5700,"##ídio":5701,"gestora":5702,"domingos":5703,"autenticadas":5704,"viagem":5705,"##ícias":5706,"imóvel":5707,"receberá":5708,"acionamento":5709,"enviado":5710,"sócios":5711,"destinadas":5712,"rou":5713,"##tamentos":5714,"moratória":5715,"##truturas":5716,"rotina":5717,"bomb":5718,"cat":5719,"ventil":5720,"divis":5721,"autorizadas":5722,"paciente":5723,"tempes":5724,"juris":5725,"##irem":5726,"licenciamento":5727,"juros":5728,"suspensa":5729,"condução":5730,"diminu":5731,"suprimento":5732,"gon":5733,"constitutivo":5734,"##rie":5735,"familiar":5736,"teoria":5737,"começ":5738,"##equibilidade":5739,"favorecido":5740,"##sal":5741,"##ômetro":5742,"cis":5743,"profess":5744,"reduzir":5745,"industrial":5746,"ministra":5747,"combin":5748,"causado":5749,"cadastral":5750,"lagoa":5751,"tocant":5752,"picos":5753,"sw":5754,"iba":5755,"compromissos":5756,"rdc":5757,"##ense":5758,"vinte":5759,"vantagem":5760,"flores":5761,"possua":5762,"judiciais":5763,"pc":5764,"qualificado":5765,"##assa":5766,"discriminadas":5767,"especificada":5768,"omissões":5769,"##êndic":5770,"crc":5771,"atuar":5772,"ge":5773,"gravidade":5774,"renovação":5775,"apêndic":5776,"##iquem":5777,"lopes":5778,"##cad":5779,"acarretará":5780,"visitas":5781,"cumpridas":5782,"externas":5783,"implementar":5784,"parafus":5785,"##temun":5786,"##interrup":5787,"sess":5788,"tornar":5789,"formalizada":5790,"óp":5791,"assuntos":5792,"retorno":5793,"ininterrup":5794,"permanecer":5795,"decadência":5796,"maiores":5797,"##grafo":5798,"iniciada":5799,"tão":5800,"##inf":5801,"testemun":5802,"moto":5803,"indevido":5804,"circuito":5805,"analisar":5806,"geo":5807,"##esf":5808,"##bais":5809,"##deste":5810,"conveniente":5811,"ig":5812,"##oco":5813,"conserto":5814,"##âmpus":5815,"analí":5816,"câmpus":5817,"##cionalização":5818,"farma":5819,"repor":5820,"viabilidade":5821,"ibama":5822,"telecomunicações":5823,"motoristas":5824,"território":5825,"##endedor":5826,"##ane":5827,"pretendida":5828,"cargas":5829,"concord":5830,"gráfico":5831,"##postas":5832,"natal":5833,"chesf":5834,"reparação":5835,"limitado":5836,"ativos":5837,"salas":5838,"suspend":5839,"revestimento":5840,"refeição":5841,"dada":5842,"prestadores":5843,"cg":5844,"pdf":5845,"inferiores":5846,"ilegalidade":5847,"##úlio":5848,"mostra":5849,"mantidas":5850,"calibração":5851,"##bserv":5852,"sen":5853,"expan":5854,"atrib":5855,"esclarecer":5856,"cnj":5857,"contribuição":5858,"petró":5859,"fator":5860,"conjunta":5861,"entanto":5862,"##tôn":5863,"##fazer":5864,"cla":5865,"lit":5866,"##ustra":5867,"prestando":5868,"agil":5869,"contínuo":5870,"tocantins":5871,"ensejará":5872,"petróleo":5873,"térm":5874,"excluindo":5875,"reagentes":5876,"solicitará":5877,"desclassificadas":5878,"infantaria":5879,"perec":5880,"##exão":5881,"válido":5882,"indicações":5883,"prevê":5884,"gerente":5885,"compromet":5886,"iniciativa":5887,"sinist":5888,"trecho":5889,"condicionada":5890,"acresci":5891,"vem":5892,"seguridade":5893,"##enos":5894,"##undo":5895,"preto":5896,"regulamentos":5897,"válv":5898,"modificações":5899,"jar":5900,"inobserv":5901,"caução":5902,"estruturas":5903,"responsabilizará":5904,"encaminhá":5905,"indígena":5906,"viaturas":5907,"instalada":5908,"##esp":5909,"apurado":5910,"paralisação":5911,"##aus":5912,"acór":5913,"fixa":5914,"cobrado":5915,"cris":5916,"oferecidos":5917,"spl":5918,"sáb":5919,"tange":5920,"prorrogáveis":5921,"peculiar":5922,"acad":5923,"fornecendo":5924,"configurações":5925,"renunci":5926,"##esse":5927,"condicion":5928,"supletivamente":5929,"intel":5930,"mail":5931,"contemplados":5932,"##óx":5933,"pretende":5934,"##eix":5935,"##rus":5936,"drf":5937,"semelh":5938,"criminal":5939,"mencionada":5940,"relevância":5941,"bilhetes":5942,"conferir":5943,"reincidência":5944,"fam":5945,"##tex":5946,"##ânia":5947,"civ":5948,"cotar":5949,"sorte":5950,"subscri":5951,"sítios":5952,"privada":5953,"sindicato":5954,"mano":5955,"baseado":5956,"preserv":5957,"relativamente":5958,"contemplando":5959,"##eto":5960,"beneficiários":5961,"caf":5962,"##fru":5963,"##ers":5964,"alf":5965,"##etária":5966,"evol":5967,"concent":5968,"abri":5969,"igualdade":5970,"##raz":5971,"notificada":5972,"rodovia":5973,"tol":5974,"filtros":5975,"tecnolo":5976,"##ênt":5977,"básicos":5978,"impressa":5979,"##hia":5980,"eficiente":5981,"##dada":5982,"justificar":5983,"penal":5984,"desenhos":5985,"canal":5986,"##nat":5987,"estimadas":5988,"externos":5989,"adotados":5990,"detecção":5991,"contatos":5992,"quil":5993,"##don":5994,"administrador":5995,"##etário":5996,"subsequ":5997,"gerados":5998,"contabilidade":5999,"mig":6000,"exempl":6001,"autarquia":6002,"salv":6003,"descontado":6004,"split":6005,"impedido":6006,"expedição":6007,"edição":6008,"frontal":6009,"avarias":6010,"interreg":6011,"acessos":6012,"esfer":6013,"computador":6014,"intimação":6015,"azul":6016,"vul":6017,"copa":6018,"tampa":6019,"contribui":6020,"comet":6021,"inobservância":6022,"aeroná":6023,"delegacia":6024,"subsequentes":6025,"##cs":6026,"interregno":6027,"telefônica":6028,"##ítulos":6029,"compensa":6030,"perigoso":6031,"perecíveis":6032,"##ídos":6033,"firmada":6034,"judiciário":6035,"melhora":6036,"contenham":6037,"##icar":6038,"injustificada":6039,"intermedi":6040,"insalubre":6041,"farm":6042,"respeitar":6043,"químicos":6044,"pactuado":6045,"fos":6046,"vila":6047,"rr":6048,"rodri":6049,"categorias":6050,"incidente":6051,"sei":6052,"floriano":6053,"listados":6054,"##dim":6055,"alarme":6056,"rora":6057,"acarretar":6058,"sétima":6059,"procedendo":6060,"permanência":6061,"comportamento":6062,"##romp":6063,"centrais":6064,"custas":6065,"incomp":6066,"estações":6067,"saldo":6068,"fatores":6069,"##guas":6070,"executando":6071,"quilome":6072,"##gues":6073,"diverg":6074,"dinheiro":6075,"##dida":6076,"incorr":6077,"importante":6078,"algarismo":6079,"intern":6080,"acondicionados":6081,"repasse":6082,"civis":6083,"presidência":6084,"franquia":6085,"intu":6086,"##úncia":6087,"##estral":6088,"administradores":6089,"optante":6090,"longa":6091,"##ênios":6092,"comunicando":6093,"alocação":6094,"abertos":6095,"determinadas":6096,"testemunhas":6097,"efetivação":6098,"vantagens":6099,"entrel":6100,"reitoria":6101,"horária":6102,"circunstância":6103,"tamp":6104,"reajustamento":6105,"acolh":6106,"prevalecerá":6107,"##ize":6108,"excel":6109,"##ham":6110,"sina":6111,"lubrificantes":6112,"##ai":6113,"praticar":6114,"influ":6115,"transações":6116,"trinta":6117,"roraima":6118,"##van":6119,"estend":6120,"oficina":6121,"deslocamentos":6122,"padronização":6123,"continuada":6124,"campan":6125,"integrada":6126,"previdenciária":6127,"produtividade":6128,"entrelinhas":6129,"obedecerá":6130,"gonçal":6131,"compres":6132,"circulação":6133,"higienização":6134,"verificarem":6135,"##tân":6136,"concom":6137,"vedação":6138,"dificuldades":6139,"##iações":6140,"entendimento":6141,"##arial":6142,"anormalidade":6143,"##damente":6144,"operador":6145,"qualificada":6146,"convênios":6147,"imprescindível":6148,"apêndice":6149,"alvará":6150,"atas":6151,"##aturas":6152,"laboratoriais":6153,"validação":6154,"##tanto":6155,"baixo":6156,"##polita":6157,"##queio":6158,"assem":6159,"tubo":6160,"anexa":6161,"interromp":6162,"pab":6163,"poços":6164,"anotando":6165,"aulas":6166,"intuito":6167,"##ao":6168,"metropolita":6169,"##son":6170,"cola":6171,"acordado":6172,"incum":6173,"##terais":6174,"corresponde":6175,"freitas":6176,"rejeitado":6177,"##ibus":6178,"##istindo":6179,"din":6180,"##inamentos":6181,"concomita":6182,"dou":6183,"clientes":6184,"gases":6185,"cf":6186,"esgoto":6187,"representar":6188,"propici":6189,"entretanto":6190,"inclui":6191,"incompat":6192,"banda":6193,"concordância":6194,"fls":6195,"desconhecimento":6196,"filtro":6197,"cic":6198,"ox":6199,"##iam":6200,"tesou":6201,"interlig":6202,"usuais":6203,"requisições":6204,"compõe":6205,"operar":6206,"fielmente":6207,"resid":6208,"minuci":6209,"beb":6210,"##instal":6211,"interposição":6212,"fita":6213,"mor":6214,"treinamentos":6215,"##tador":6216,"iso":6217,"acum":6218,"institucionais":6219,"mencionadas":6220,"##asa":6221,"##ii":6222,"##pá":6223,"quilometragem":6224,"contadas":6225,"restaura":6226,"##uro":6227,"##empre":6228,"sujeitos":6229,"identificadas":6230,"sinapi":6231,"saneamento":6232,"simplesmente":6233,"correndo":6234,"##eitamento":6235,"títulos":6236,"compete":6237,"govern":6238,"êx":6239,"livros":6240,"provocação":6241,"facilidades":6242,"transform":6243,"exib":6244,"senhor":6245,"zelar":6246,"viabilizar":6247,"semelhantes":6248,"ros":6249,"did":6250,"aa":6251,"jes":6252,"marinha":6253,"próximo":6254,"dri":6255,"vigora":6256,"aditivos":6257,"oner":6258,"série":6259,"obtida":6260,"fis":6261,"moldes":6262,"importará":6263,"mus":6264,"detran":6265,"detectadas":6266,"memorial":6267,"card":6268,"##ola":6269,"fibra":6270,"##rj":6271,"aler":6272,"cartuchos":6273,"ester":6274,"manaus":6275,"exposto":6276,"assegurando":6277,"ente":6278,"##todos":6279,"code":6280,"garra":6281,"refrigeração":6282,"##vir":6283,"êxito":6284,"##lon":6285,"##íquo":6286,"prestará":6287,"deles":6288,"##tificações":6289,"alterar":6290,"multipl":6291,"decorre":6292,"##áticos":6293,"##osidade":6294,"demo":6295,"##gam":6296,"submeter":6297,"anexar":6298,"mantido":6299,"quantos":6300,"aplicados":6301,"ponta":6302,"disco":6303,"parcelado":6304,"caminhão":6305,"ebs":6306,"alíquo":6307,"saber":6308,"ríg":6309,"tabel":6310,"tributária":6311,"restitu":6312,"identificada":6313,"##adeiras":6314,"nela":6315,"cirur":6316,"gráfica":6317,"##tria":6318,"subcontratar":6319,"restabel":6320,"jesus":6321,"inserção":6322,"organizações":6323,"##edoras":6324,"compensatória":6325,"agendada":6326,"incluído":6327,"comprobatórios":6328,"administrativamente":6329,"##erados":6330,"acórdão":6331,"algarismos":6332,"internacionais":6333,"governamentais":6334,"laterais":6335,"vierem":6336,"justo":6337,"passa":6338,"##dadas":6339,"##berto":6340,"##postos":6341,"idênt":6342,"tecnologias":6343,"gov":6344,"motivadamente":6345,"##mb":6346,"céd":6347,"led":6348,"hemo":6349,"bombas":6350,"marcada":6351,"escolh":6352,"cumprindo":6353,"doze":6354,"plenário":6355,"ativo":6356,"desconexão":6357,"gestores":6358,"inje":6359,"missão":6360,"enfermagem":6361,"métodos":6362,"característica":6363,"cv":6364,"bomba":6365,"complexo":6366,"garantias":6367,"rejeição":6368,"municipalidade":6369,"tributários":6370,"fornecerá":6371,"resistente":6372,"jurisdi":6373,"raim":6374,"acompanhadas":6375,"indispensável":6376,"incorporação":6377,"secretária":6378,"sousa":6379,"autorizar":6380,"renúncia":6381,"##ógico":6382,"peculiaridades":6383,"válida":6384,"reapresent":6385,"vargas":6386,"terminais":6387,"exigíveis":6388,"supervisor":6389,"calculados":6390,"desistência":6391,"tesouro":6392,"##tical":6393,"regionais":6394,"catarina":6395,"imprevis":6396,"rfb":6397,"comunicada":6398,"pertencente":6399,"produzidos":6400,"##oro":6401,"ensaio":6402,"##ificada":6403,"impostas":6404,"vários":6405,"##ok":6406,"investi":6407,"canais":6408,"vistor":6409,"autoridades":6410,"exim":6411,"mudanças":6412,"solucionar":6413,"medindo":6414,"extre":6415,"anton":6416,"equip":6417,"sito":6418,"cader":6419,"fácil":6420,"corresponderá":6421,"instaladas":6422,"informamos":6423,"ambas":6424,"impeditivos":6425,"atuais":6426,"enviadas":6427,"##eras":6428,"readequ":6429,"pagas":6430,"##itch":6431,"reta":6432,"devolvida":6433,"dispostas":6434,"agenciamento":6435,"encaminhando":6436,"futuros":6437,"aeronáutica":6438,"cadastrados":6439,"facultando":6440,"ligação":6441,"bahia":6442,"desmontagem":6443,"contrar":6444,"chapa":6445,"outrem":6446,"##line":6447,"desenvolvidos":6448,"colocar":6449,"##tativa":6450,"piri":6451,"fiança":6452,"injustificadamente":6453,"cb":6454,"ferro":6455,"##icion":6456,"mecânico":6457,"virtual":6458,"##piri":6459,"raimundo":6460,"unificado":6461,"plu":6462,"infantil":6463,"contido":6464,"##timento":6465,"proteg":6466,"bec":6467,"distri":6468,"##lado":6469,"concordata":6470,"satisfatória":6471,"membro":6472,"adequadamente":6473,"rádio":6474,"prestadas":6475,"regra":6476,"funcionais":6477,"transcurso":6478,"odontológico":6479,"cs":6480,"cobrada":6481,"códigos":6482,"altos":6483,"##ufatura":6484,"candida":6485,"regulamentares":6486,"crf":6487,"bloqueio":6488,"simultân":6489,"refle":6490,"assumidos":6491,"ufg":6492,"switch":6493,"extras":6494,"surgi":6495,"atendem":6496,"complement":6497,"ressalvado":6498,"paredes":6499,"sorteio":6500,"velho":6501,"reembolso":6502,"##eitu":6503,"rel":6504,"##cp":6505,"assunto":6506,"distintos":6507,"ani":6508,"##ológica":6509,"circuitos":6510,"diplo":6511,"inidôneas":6512,"interv":6513,"##ficaz":6514,"tomando":6515,"estação":6516,"suger":6517,"esteril":6518,"##apia":6519,"apreciação":6520,"ssp":6521,"permitam":6522,"rodrigues":6523,"tabelião":6524,"descarte":6525,"##rn":6526,"##cer":6527,"edificações":6528,"horizont":6529,"ofertas":6530,"concomitante":6531,"piripiri":6532,"planos":6533,"##ton":6534,"colocada":6535,"rubrica":6536,"##esel":6537,"ônibus":6538,"ves":6539,"farmácia":6540,"fundamentada":6541,"##razões":6542,"cadastrado":6543,"tubos":6544,"conhecimentos":6545,"##çam":6546,"pactuadas":6547,"ebserh":6548,"condutor":6549,"port":6550,"protocolos":6551,"fras":6552,"voz":6553,"objetivamente":6554,"negociações":6555,"arrecad":6556,"plantas":6557,"requisito":6558,"respostas":6559,"coluna":6560,"indica":6561,"prorrogada":6562,"peda":6563,"oitava":6564,"cnen":6565,"competitividade":6566,"##cê":6567,"trabalhador":6568,"##mi":6569,"marcos":6570,"##ys":6571,"compartil":6572,"maj":6573,"gratuita":6574,"arquiv":6575,"buriti":6576,"puder":6577,"##ães":6578,"##tus":6579,"crí":6580,"programadas":6581,"animais":6582,"eficaz":6583,"##aç":6584,"##nde":6585,"fusão":6586,"terceirizados":6587,"tóp":6588,"assinadas":6589,"modern":6590,"carlos":6591,"ocorrido":6592,"envolvendo":6593,"ção":6594,"borrac":6595,"ativação":6596,"físicos":6597,"dedicação":6598,"arm":6599,"preencher":6600,"controles":6601,"devera":6602,"transparência":6603,"logístico":6604,"supracitado":6605,"contrarrazões":6606,"confidencialidade":6607,"regulado":6608,"polu":6609,"apontadas":6610,"##tins":6611,"relevantes":6612,"##ionamento":6613,"metas":6614,"colocado":6615,"reves":6616,"findo":6617,"médica":6618,"metal":6619,"jornal":6620,"hd":6621,"##itu":6622,"vertical":6623,"##anci":6624,"apresentamos":6625,"lay":6626,"disponibilizará":6627,"campi":6628,"signat":6629,"lâmp":6630,"excluir":6631,"adul":6632,"priva":6633,"##mt":6634,"deu":6635,"lima":6636,"edificação":6637,"imposto":6638,"##cg":6639,"subse":6640,"urbano":6641,"contemp":6642,"##dante":6643,"##ícol":6644,"assinados":6645,"constarão":6646,"monitor":6647,"rescindir":6648,"adotando":6649,"operacionalização":6650,"usufru":6651,"positiva":6652,"expansão":6653,"comu":6654,"pin":6655,"##hões":6656,"executivos":6657,"controlador":6658,"descredenciado":6659,"hidro":6660,"##entar":6661,"absol":6662,"substituídas":6663,"##mat":6664,"representá":6665,"essencial":6666,"espí":6667,"datada":6668,"prejudicar":6669,"oferecido":6670,"ben":6671,"individualmente":6672,"enf":6673,"##idores":6674,"parâmetro":6675,"passíveis":6676,"terres":6677,"preliminares":6678,"consolidad":6679,"verde":6680,"atestando":6681,"espírito":6682,"refazer":6683,"##che":6684,"disponibilizada":6685,"resumo":6686,"eletrônicas":6687,"especificamente":6688,"consequentemente":6689,"##eos":6690,"lumin":6691,"sever":6692,"##iano":6693,"matérias":6694,"dedic":6695,"intervenção":6696,"café":6697,"##telo":6698,"insp":6699,"necessariamente":6700,"transação":6701,"implement":6702,"dá":6703,"formais":6704,"deficiência":6705,"ama":6706,"sujeitar":6707,"vici":6708,"caval":6709,"aprovadas":6710,"elevador":6711,"cédula":6712,"impedir":6713,"online":6714,"referir":6715,"pp":6716,"desgaste":6717,"##leos":6718,"deli":6719,"escolares":6720,"formalizado":6721,"cuidados":6722,"subsidiar":6723,"tanque":6724,"##fu":6725,"referem":6726,"##ív":6727,"disponibilizadas":6728,"diretores":6729,"ido":6730,"amplo":6731,"custom":6732,"especializadas":6733,"diesel":6734,"jardim":6735,"paralele":6736,"assessora":6737,"recarga":6738,"aerona":6739,"mercadorias":6740,"reprográfica":6741,"extin":6742,"informatizado":6743,"seguem":6744,"negócios":6745,"configurar":6746,"canteiro":6747,"coman":6748,"recife":6749,"metropolitana":6750,"prevalecerão":6751,"pendências":6752,"##ecem":6753,"reprov":6754,"prever":6755,"farmacê":6756,"alíneas":6757,"condutores":6758,"aplicativo":6759,"lixo":6760,"##idão":6761,"graduação":6762,"conceito":6763,"sexto":6764,"##inhamento":6765,"razo":6766,"sábados":6767,"adotada":6768,"##fia":6769,"recebida":6770,"transparente":6771,"martins":6772,"tocante":6773,"rastre":6774,"##erro":6775,"executará":6776,"encontrem":6777,"dispostos":6778,"##neidade":6779,"agrícol":6780,"sg":6781,"conferido":6782,"método":6783,"tecnológico":6784,"emiss":6785,"naqu":6786,"superfície":6787,"pós":6788,"veicul":6789,"oficinas":6790,"deliber":6791,"apresentará":6792,"mag":6793,"incumb":6794,"inspecion":6795,"ramal":6796,"encontrar":6797,"auxiliares":6798,"vencido":6799,"devolvidos":6800,"##hz":6801,"rever":6802,"interpor":6803,"ilíci":6804,"##gramas":6805,"suspenso":6806,"acumul":6807,"roc":6808,"habilitada":6809,"reconhecimento":6810,"contábil":6811,"pronto":6812,"compreendido":6813,"atingir":6814,"comér":6815,"painéis":6816,"qt":6817,"correlatos":6818,"deputados":6819,"observações":6820,"boleti":6821,"##uros":6822,"conector":6823,"migração":6824,"santana":6825,"perfis":6826,"telefônicas":6827,"pmt":6828,"curiti":6829,"suspensas":6830,"ufs":6831,"nomeado":6832,"justa":6833,"banh":6834,"conden":6835,"bases":6836,"negócio":6837,"baseada":6838,"polici":6839,"##anas":6840,"prospec":6841,"encarregado":6842,"preenchida":6843,"mantidos":6844,"preservação":6845,"##ema":6846,"##ômetros":6847,"dv":6848,"monetária":6849,"##ude":6850,"motores":6851,"##atis":6852,"dificuldade":6853,"complementação":6854,"incidirá":6855,"publicações":6856,"celular":6857,"mau":6858,"cisão":6859,"prótes":6860,"bombeiros":6861,"cientí":6862,"##inho":6863,"lanç":6864,"press":6865,"necessitam":6866,"agu":6867,"admitidas":6868,"mangu":6869,"colocação":6870,"contratualmente":6871,"amar":6872,"contamin":6873,"comércio":6874,"localizados":6875,"aprovo":6876,"lançamento":6877,"carro":6878,"idoneidade":6879,"clínica":6880,"insatis":6881,"cax":6882,"secund":6883,"bibliote":6884,"agronomia":6885,"cilindros":6886,"##ds":6887,"submetido":6888,"##tido":6889,"tv":6890,"##udo":6891,"estatís":6892,"conectores":6893,"apropriado":6894,"sera":6895,"solo":6896,"##out":6897,"color":6898,"get":6899,"divulgado":6900,"cálculos":6901,"##uca":6902,"autenticidade":6903,"concluída":6904,"hon":6905,"trav":6906,"reajustados":6907,"admitidos":6908,"apurados":6909,"esporte":6910,"##tir":6911,"##ógicos":6912,"julgados":6913,"##pecu":6914,"##regamento":6915,"castelo":6916,"tant":6917,"executiva":6918,"resolvem":6919,"agropecu":6920,"fru":6921,"##rescente":6922,"sétimo":6923,"interfer":6924,"##vam":6925,"reservado":6926,"vide":6927,"águas":6928,"selecionar":6929,"##fo":6930,"realizando":6931,"formulada":6932,"maqu":6933,"submetidos":6934,"microempre":6935,"comunidade":6936,"avaliações":6937,"excepcionalmente":6938,"##acidade":6939,"parede":6940,"diferente":6941,"vantajoso":6942,"desenvolver":6943,"acont":6944,"##instalação":6945,"alme":6946,"pil":6947,"transcorr":6948,"conhecer":6949,"##hal":6950,"dela":6951,"divulgar":6952,"##wn":6953,"sint":6954,"##gên":6955,"parafusos":6956,"avisos":6957,"pacote":6958,"atestação":6959,"##vasf":6960,"citadas":6961,"curitiba":6962,"vigés":6963,"##jf":6964,"mecânicos":6965,"deficiências":6966,"verificados":6967,"convocados":6968,"cen":6969,"confeccionado":6970,"irr":6971,"alternativas":6972,"respeitadas":6973,"claus":6974,"quebra":6975,"belo":6976,"##dias":6977,"quin":6978,"alternativamente":6979,"folder":6980,"licenci":6981,"comercialização":6982,"encerrar":6983,"sites":6984,"##ama":6985,"esté":6986,"borracha":6987,"tecnicamente":6988,"codevasf":6989,"imposta":6990,"suc":6991,"##ua":6992,"vel":6993,"##emia":6994,"dissol":6995,"estudantes":6996,"reservada":6997,"inv":6998,"legível":6999,"veracidade":7000,"aproveitamento":7001,"intro":7002,"horizonte":7003,"extintores":7004,"enquadram":7005,"##pará":7006,"firmados":7007,"domiciliado":7008,"posição":7009,"retro":7010,"##umentos":7011,"vidros":7012,"citada":7013,"getúlio":7014,"vá":7015,"hosp":7016,"requerida":7017,"ocupantes":7018,"exequibilidade":7019,"##hamentos":7020,"subes":7021,"enquadradas":7022,"pedag":7023,"##bc":7024,"esquad":7025,"originalmente":7026,"comprometendo":7027,"letra":7028,"constatadas":7029,"odontológicos":7030,"posicion":7031,"nordeste":7032,"normais":7033,"usufruir":7034,"##tio":7035,"estagiários":7036,"precon":7037,"qualificados":7038,"##timas":7039,"descontada":7040,"digitalização":7041,"##valho":7042,"reclamação":7043,"comparação":7044,"aju":7045,"promovendo":7046,"##ígra":7047,"carimbo":7048,"insatisfa":7049,"sou":7050,"exercícios":7051,"inadequado":7052,"convocadas":7053,"modific":7054,"suspender":7055,"rack":7056,"cc":7057,"tic":7058,"up":7059,"eletros":7060,"levar":7061,"salvador":7062,"tiverem":7063,"interfaces":7064,"estrangeira":7065,"isenta":7066,"subm":7067,"exi":7068,"microf":7069,"constatação":7070,"irreajustáveis":7071,"program":7072,"decididos":7073,"##úm":7074,"##ígrafe":7075,"##bação":7076,"epígrafe":7077,"descredenciada":7078,"vigorará":7079,"vírg":7080,"companhias":7081,"kits":7082,"vinculadas":7083,"carreg":7084,"medicamento":7085,"espaços":7086,"formular":7087,"anualmente":7088,"antonio":7089,"consent":7090,"pacotes":7091,"seguida":7092,"reapresentação":7093,"les":7094,"reab":7095,"##tarem":7096,"sete":7097,"joa":7098,"estran":7099,"incra":7100,"manip":7101,"divergências":7102,"credenciadas":7103,"muito":7104,"be":7105,"desat":7106,"radio":7107,"vírgula":7108,"bru":7109,"experi":7110,"acessível":7111,"urg":7112,"break":7113,"##segu":7114,"jurídico":7115,"esfera":7116,"consultar":7117,"umidade":7118,"redação":7119,"##comp":7120,"aplicativos":7121,"autôn":7122,"carvalho":7123,"guerra":7124,"bon":7125,"supressão":7126,"analisada":7127,"prejudique":7128,"ramais":7129,"ach":7130,"autôno":7131,"satisf":7132,"ana":7133,"mú":7134,"vag":7135,"senhora":7136,"##util":7137,"vales":7138,"demonstrando":7139,"inconveniente":7140,"dotações":7141,"semanais":7142,"##uidade":7143,"alinhamento":7144,"interpretação":7145,"##paro":7146,"##quim":7147,"mantida":7148,"##nam":7149,"incluso":7150,"pontual":7151,"expi":7152,"filho":7153,"##hernet":7154,"receitas":7155,"correr":7156,"mobiliários":7157,"genuí":7158,"supervision":7159,"equivalentes":7160,"galvan":7161,"automação":7162,"band":7163,"fnde":7164,"câmeras":7165,"layout":7166,"##eió":7167,"energ":7168,"pms":7169,"##proposta":7170,"ferreira":7171,"surgirem":7172,"maceió":7173,"ari":7174,"afins":7175,"possuam":7176,"totalizando":7177,"aferir":7178,"terra":7179,"orçamentário":7180,"assembl":7181,"modernização":7182,"##neamente":7183,"declaradas":7184,"##book":7185,"are":7186,"epi":7187,"financi":7188,"química":7189,"vii":7190,"verm":7191,"doenças":7192,"localizadas":7193,"minim":7194,"corresponder":7195,"avanç":7196,"mend":7197,"##tina":7198,"outorga":7199,"##tiona":7200,"nave":7201,"remanescente":7202,"mecanismos":7203,"dúvida":7204,"##éia":7205,"sms":7206,"selo":7207,"cabeça":7208,"asf":7209,"agilidade":7210,"vício":7211,"##tulo":7212,"down":7213,"##egu":7214,"arrecadação":7215,"meta":7216,"dpe":7217,"observará":7218,"##eli":7219,"radi":7220,"horizontal":7221,"refriger":7222,"oferecida":7223,"bancos":7224,"cerca":7225,"efetivada":7226,"##enagem":7227,"##gráfico":7228,"impressões":7229,"descartáveis":7230,"dirigente":7231,"daquelas":7232,"prevalecendo":7233,"balanços":7234,"lateral":7235,"mendes":7236,"elencadas":7237,"rev":7238,"renda":7239,"gur":7240,"recolhida":7241,"paralelep":7242,"revel":7243,"vege":7244,"nun":7245,"preparo":7246,"consignadas":7247,"positivas":7248,"violação":7249,"dissídio":7250,"pereira":7251,"varia":7252,"desli":7253,"eletri":7254,"mantenha":7255,"causas":7256,"##eite":7257,"##emin":7258,"ethernet":7259,"ordin":7260,"anulá":7261,"desc":7262,"cessionária":7263,"desemb":7264,"lazer":7265,"catmat":7266,"expor":7267,"goiás":7268,"discos":7269,"ocorre":7270,"paralelepíp":7271,"regimento":7272,"continuado":7273,"anotação":7274,"armada":7275,"vagas":7276,"bancários":7277,"reconhecido":7278,"enquadrem":7279,"caracteriza":7280,"afastamento":7281,"documentações":7282,"reconh":7283,"cabeamento":7284,"assume":7285,"comprobatório":7286,"ces":7287,"acadêm":7288,"conver":7289,"##iros":7290,"independentes":7291,"adquiridas":7292,"##cionista":7293,"impactos":7294,"abrangendo":7295,"assinal":7296,"importação":7297,"##zes":7298,"enum":7299,"##çadas":7300,"ocorridos":7301,"##trans":7302,"entes":7303,"proprietário":7304,"##idora":7305,"preceitu":7306,"guias":7307,"embarque":7308,"empenh":7309,"exista":7310,"sinais":7311,"acarretando":7312,"pasta":7313,"estradas":7314,"precisa":7315,"##ulações":7316,"semanal":7317,"gel":7318,"ans":7319,"operadora":7320,"consentimento":7321,"proibição":7322,"##tima":7323,"melhorias":7324,"vigilantes":7325,"lido":7326,"##unção":7327,"integrar":7328,"alegação":7329,"##ania":7330,"detalhadamente":7331,"##pé":7332,"disju":7333,"##torial":7334,"conforto":7335,"idio":7336,"passar":7337,"##rol":7338,"apresentou":7339,"executor":7340,"toler":7341,"prioridade":7342,"ipca":7343,"dissolução":7344,"estratégico":7345,"##dido":7346,"severidade":7347,"solvência":7348,"indicador":7349,"volumes":7350,"goiânia":7351,"oeste":7352,"##éricos":7353,"contudo":7354,"atenderá":7355,"uru":7356,"referências":7357,"amapá":7358,"acessibilidade":7359,"estrada":7360,"##buco":7361,"intimados":7362,"##zar":7363,"abrangência":7364,"solid":7365,"englo":7366,"provisórios":7367,"respeitado":7368,"proporcionando":7369,"aper":7370,"mecanismo":7371,"##anhos":7372,"etiqueta":7373,"simulta":7374,"guarn":7375,"povo":7376,"capazes":7377,"especifici":7378,"figura":7379,"estipulada":7380,"distribuídos":7381,"dupla":7382,"representa":7383,"neglig":7384,"##fi":7385,"iec":7386,"resolvidos":7387,"##entando":7388,"ina":7389,"glos":7390,"usados":7391,"##load":7392,"liberada":7393,"concession":7394,"reciclagem":7395,"balancetes":7396,"surg":7397,"joaquim":7398,"avaliados":7399,"lanches":7400,"acatar":7401,"manifestamente":7402,"sujeitas":7403,"agreg":7404,"viável":7405,"eleição":7406,"glosa":7407,"gerenciar":7408,"##equilíbrio":7409,"lavrado":7410,"leite":7411,"##han":7412,"naval":7413,"##sor":7414,"tópico":7415,"vencida":7416,"redig":7417,"contabil":7418,"superintend":7419,"providencie":7420,"rescis":7421,"agrup":7422,"rubricadas":7423,"maca":7424,"##ediência":7425,"consequência":7426,"sinal":7427,"pertur":7428,"uniformizados":7429,"condens":7430,"governador":7431,"cobre":7432,"##gl":7433,"atestadas":7434,"aver":7435,"cobrados":7436,"##fet":7437,"atribuição":7438,"discriminada":7439,"bit":7440,"ál":7441,"sinistro":7442,"servido":7443,"acordos":7444,"##ender":7445,"##trita":7446,"referenci":7447,"compac":7448,"depósitos":7449,"seis":7450,"distrital":7451,"##ux":7452,"inexequível":7453,"##ológicos":7454,"empa":7455,"daquela":7456,"julgadas":7457,"##tual":7458,"fid":7459,"sensor":7460,"precis":7461,"posse":7462,"##teralmente":7463,"individu":7464,"ressalta":7465,"sema":7466,"adequações":7467,"##st":7468,"climatização":7469,"##pto":7470,"primeiros":7471,"opções":7472,"vítimas":7473,"tempora":7474,"bilhete":7475,"recip":7476,"stf":7477,"camada":7478,"manoel":7479,"esfor":7480,"existe":7481,"apta":7482,"deso":7483,"ruas":7484,"firme":7485,"derivados":7486,"rocha":7487,"recolher":7488,"excepcionais":7489,"terr":7490,"bac":7491,"simultaneamente":7492,"concluídos":7493,"côn":7494,"massa":7495,"##inhos":7496,"ocorridas":7497,"abre":7498,"entul":7499,"sia":7500,"##cep":7501,"pat":7502,"sm":7503,"##pio":7504,"isolamento":7505,"regida":7506,"dividida":7507,"contraproposta":7508,"tratam":7509,"##verá":7510,"extinção":7511,"##via":7512,"pleite":7513,"##rs":7514,"crm":7515,"potencial":7516,"fern":7517,"classifica":7518,"concorrido":7519,"requerido":7520,"irres":7521,"##minado":7522,"recusado":7523,"demandante":7524,"exime":7525,"acarretem":7526,"sequência":7527,"precisão":7528,"culpos":7529,"regido":7530,"digitação":7531,"descontin":7532,"geradores":7533,"period":7534,"designará":7535,"homologada":7536,"seguradora":7537,"souza":7538,"nutrição":7539,"começará":7540,"facilita":7541,"obrigatórios":7542,"organiza":7543,"ful":7544,"luiz":7545,"boletim":7546,"##dora":7547,"constituída":7548,"kv":7549,"ct":7550,"##mware":7551,"##mou":7552,"lavra":7553,"##fs":7554,"gerando":7555,"acríl":7556,"contex":7557,"verificações":7558,"vencedoras":7559,"##ones":7560,"diploma":7561,"hidráulico":7562,"##truir":7563,"palm":7564,"crescente":7565,"bolsa":7566,"nob":7567,"cnd":7568,"##av":7569,"descontadas":7570,"##hone":7571,"consignado":7572,"##ari":7573,"conjuntos":7574,"bro":7575,"##çados":7576,"note":7577,"houve":7578,"justificados":7579,"sra":7580,"pato":7581,"##central":7582,"download":7583,"abrangidos":7584,"equipara":7585,"licitatórios":7586,"obedecida":7587,"perfeitamente":7588,"pan":7589,"pmp":7590,"subseção":7591,"comprovações":7592,"rígido":7593,"cod":7594,"fronteira":7595,"periodicamente":7596,"executou":7597,"emol":7598,"caracterização":7599,"numer":7600,"inspeções":7601,"concomitantemente":7602,"circunstâncias":7603,"recondi":7604,"danificados":7605,"teto":7606,"cadeiras":7607,"encontradas":7608,"caracterizado":7609,"paralelepípedo":7610,"reproduz":7611,"agências":7612,"aéreo":7613,"demonstrativo":7614,"restaurante":7615,"exato":7616,"##cc":7617,"conama":7618,"indús":7619,"moratórios":7620,"agru":7621,"etiquetas":7622,"segura":7623,"ten":7624,"constatar":7625,"convenções":7626,"ventura":7627,"acrescidos":7628,"clausula":7629,"irão":7630,"dinâm":7631,"traz":7632,"ocorrerão":7633,"##ono":7634,"relações":7635,"alven":7636,"centros":7637,"veter":7638,"abrange":7639,"tempestivamente":7640,"descentral":7641,"reconsider":7642,"serra":7643,"faixas":7644,"cadastros":7645,"sessões":7646,"correia":7647,"aprendiza":7648,"participado":7649,"costura":7650,"assinam":7651,"exterior":7652,"profund":7653,"vicin":7654,"calend":7655,"retirado":7656,"trim":7657,"substâncias":7658,"sigil":7659,"numeração":7660,"unilateralmente":7661,"envolvidas":7662,"solicitando":7663,"veterin":7664,"patro":7665,"convidad":7666,"descons":7667,"saneadoras":7668,"sobres":7669,"transtor":7670,"server":7671,"subcontratada":7672,"##entamento":7673,"naturais":7674,"funai":7675,"vai":7676,"metálica":7677,"fios":7678,"iniciais":7679,"calam":7680,"atendido":7681,"crachás":7682,"vincula":7683,"pequenos":7684,"garraf":7685,"pernam":7686,"castro":7687,"devolvido":7688,"utilizará":7689,"cmb":7690,"efetuando":7691,"##ígios":7692,"indígenas":7693,"##çada":7694,"ciclo":7695,"inoxid":7696,"candidatos":7697,"repu":7698,"inicio":7699,"curr":7700,"rodas":7701,"transportados":7702,"autoriza":7703,"fiscalizado":7704,"lâmpadas":7705,"retific":7706,"##cagem":7707,"estritamente":7708,"##ácio":7709,"aspecto":7710,"àquela":7711,"instruir":7712,"reajustes":7713,"verbais":7714,"intra":7715,"luc":7716,"cirúrgico":7717,"aprendizagem":7718,"oficialmente":7719,"biblioteca":7720,"##itária":7721,"socio":7722,"publica":7723,"laboratorial":7724,"##enciar":7725,"##eco":7726,"imun":7727,"alcance":7728,"identifique":7729,"correlatas":7730,"cocal":7731,"##gá":7732,"portá":7733,"automotores":7734,"ambula":7735,"comunicará":7736,"detalhados":7737,"satisfação":7738,"notebook":7739,"emolumentos":7740,"pontu":7741,"##étrica":7742,"efetivar":7743,"criar":7744,"constem":7745,"editais":7746,"câmaras":7747,"dpf":7748,"nobreak":7749,"finalização":7750,"comprovadas":7751,"agesp":7752,"depositados":7753,"##ético":7754,"idade":7755,"hidráulica":7756,"##dg":7757,"cadastrais":7758,"agespisa":7759,"inoxidável":7760,"fire":7761,"terminal":7762,"grandes":7763,"providenciará":7764,"interven":7765,"##redo":7766,"várias":7767,"quei":7768,"mídias":7769,"##terapia":7770,"magnético":7771,"aula":7772,"possibilite":7773,"rejeita":7774,"concluído":7775,"calamidade":7776,"farão":7777,"legiti":7778,"##anópolis":7779,"normativas":7780,"sucessivas":7781,"locados":7782,"espera":7783,"fique":7784,"advin":7785,"morro":7786,"remuner":7787,"buscando":7788,"reinici":7789,"ate":7790,"obediência":7791,"lógica":7792,"vp":7793,"negligência":7794,"adaptação":7795,"fórmulas":7796,"câmera":7797,"exposição":7798,"exclusivos":7799,"assinaturas":7800,"leil":7801,"funasa":7802,"rota":7803,"inov":7804,"informará":7805,"campanha":7806,"##uc":7807,"vencedores":7808,"arrematante":7809,"roup":7810,"didático":7811,"raio":7812,"caderno":7813,"cidadania":7814,"agropecuária":7815,"desenho":7816,"ht":7817,"##mental":7818,"informadas":7819,"##bilização":7820,"turno":7821,"aumentar":7822,"gurgu":7823,"atendida":7824,"regulamentação":7825,"regulagem":7826,"fórum":7827,"desconsider":7828,"correlata":7829,"incompatíveis":7830,"contrari":7831,"nomes":7832,"meramente":7833,"##tipo":7834,"ressaltar":7835,"pareceres":7836,"façam":7837,"constituído":7838,"otimização":7839,"gr":7840,"motoci":7841,"captura":7842,"aeropor":7843,"entrar":7844,"##tileno":7845,"expec":7846,"identificando":7847,"acomo":7848,"barre":7849,"concentração":7850,"igualmente":7851,"concern":7852,"variáveis":7853,"##cidades":7854,"##gresso":7855,"##iares":7856,"efetivado":7857,"##ilha":7858,"##rqu":7859,"próxima":7860,"reto":7861,"obedecidas":7862,"leve":7863,"uftm":7864,"imin":7865,"imperme":7866,"profundidade":7867,"descredenciamento":7868,"ni":7869,"##âmin":7870,"satisfatoriamente":7871,"regulamentada":7872,"entender":7873,"##ecidos":7874,"##computa":7875,"##op":7876,"ii":7877,"ceder":7878,"propõe":7879,"condicionadores":7880,"querendo":7881,"##med":7882,"cotações":7883,"lâmin":7884,"dg":7885,"pna":7886,"adequar":7887,"microcomputa":7888,"parente":7889,"impede":7890,"anotará":7891,"##arcação":7892,"##ae":7893,"fundos":7894,"cref":7895,"confeccionada":7896,"gom":7897,"providenciada":7898,"empresarial":7899,"perform":7900,"tributárias":7901,"alegações":7902,"prossegu":7903,"aterra":7904,"consecução":7905,"dezo":7906,"##ental":7907,"reprodução":7908,"adesões":7909,"melhorar":7910,"movimento":7911,"center":7912,"ph":7913,"isento":7914,"blocos":7915,"veicular":7916,"precedida":7917,"nonato":7918,"dezoito":7919,"formuladas":7920,"dvd":7921,"pires":7922,"trt":7923,"forneceu":7924,"oito":7925,"amazônia":7926,"expedidas":7927,"ipen":7928,"oxig":7929,"completos":7930,"consegu":7931,"##cados":7932,"##cado":7933,"##ical":7934,"##étrico":7935,"fals":7936,"chu":7937,"tubulações":7938,"pernambuco":7939,"mbps":7940,"evolução":7941,"colocados":7942,"rápida":7943,"advir":7944,"procedida":7945,"centa":7946,"pequenas":7947,"degra":7948,"sanitárias":7949,"agrupamento":7950,"##bão":7951,"irre":7952,"fioc":7953,"cidadão":7954,"válvula":7955,"gonçalves":7956,"mons":7957,"##posto":7958,"prorrogações":7959,"chefia":7960,"verso":7961,"sanadas":7962,"##toras":7963,"almeida":7964,"fiocruz":7965,"ambul":7966,"próxim":7967,"transportado":7968,"anexada":7969,"declarando":7970,"preclusão":7971,"provisória":7972,"armazenados":7973,"samf":7974,"intervenções":7975,"corrigido":7976,"trechos":7977,"descumpri":7978,"parame":7979,"##égio":7980,"##rud":7981,"dispensada":7982,"ró":7983,"##wall":7984,"artes":7985,"utiliza":7986,"afix":7987,"desenvolvido":7988,"preven":7989,"funcionar":7990,"competirá":7991,"indicará":7992,"##imentos":7993,"grama":7994,"##esseis":7995,"gil":7996,"tar":7997,"ár":7998,"movi":7999,"##ork":8000,"##rop":8001,"retidos":8002,"antic":8003,"família":8004,"##idoras":8005,"banpará":8006,"merenda":8007,"##rm":8008,"elaborados":8009,"visitantes":8010,"apostil":8011,"ciências":8012,"fechados":8013,"confirmar":8014,"químico":8015,"performance":8016,"dezesseis":8017,"conserv":8018,"parametriz":8019,"##itado":8020,"regulamenta":8021,"repe":8022,"confl":8023,"frustra":8024,"legislativa":8025,"compu":8026,"revisões":8027,"servirá":8028,"concre":8029,"cadastrada":8030,"repassar":8031,"##tizados":8032,"permitirá":8033,"socor":8034,"##enhor":8035,"ressalvas":8036,"##th":8037,"##lan":8038,"paul":8039,"##tilo":8040,"requerer":8041,"##eçam":8042,"regiões":8043,"cripto":8044,"nao":8045,"eletronico":8046,"satisfatório":8047,"contexto":8048,"inscritos":8049,"forro":8050,"vinculação":8051,"recente":8052,"prêm":8053,"normativos":8054,"distintas":8055,"##pam":8056,"adiante":8057,"socorro":8058,"corrigidos":8059,"professores":8060,"preenchido":8061,"restrições":8062,"toner":8063,"operadores":8064,"calendário":8065,"contempla":8066,"contínuos":8067,"litígios":8068,"cardá":8069,"##torias":8070,"iphan":8071,"destinam":8072,"algumas":8073,"monitorar":8074,"defeituoso":8075,"agul":8076,"cres":8077,"cristal":8078,"##etas":8079,"ademais":8080,"cultural":8081,"ás":8082,"##tino":8083,"mantém":8084,"monsenhor":8085,"gomes":8086,"##ices":8087,"estabelecendo":8088,"links":8089,"idôn":8090,"transfere":8091,"##las":8092,"sead":8093,"pretex":8094,"minuciosamente":8095,"lingu":8096,"prescrições":8097,"analítica":8098,"intelig":8099,"usado":8100,"##ológico":8101,"##gon":8102,"habilitatórias":8103,"retirados":8104,"admiss":8105,"proveniente":8106,"##sabilidade":8107,"concedente":8108,"crimin":8109,"##ifiquem":8110,"discriminando":8111,"deduzidos":8112,"apropriados":8113,"microempreendedor":8114,"assumido":8115,"demonstrado":8116,"##guardar":8117,"##guard":8118,"instituído":8119,"esquer":8120,"medicin":8121,"cabível":8122,"vitória":8123,"simb":8124,"fotos":8125,"emails":8126,"frasco":8127,"##iabilidade":8128,"comprobatória":8129,"##feiço":8130,"eleitorais":8131,"cop":8132,"perturbação":8133,"iniciam":8134,"##endimentos":8135,"demandado":8136,"##olina":8137,"pretexto":8138,"##riamente":8139,"pavi":8140,"##rás":8141,"descartável":8142,"irris":8143,"marcação":8144,"##urado":8145,"apresentam":8146,"cotas":8147,"##elhante":8148,"##açu":8149,"durabilidade":8150,"##aras":8151,"oitavo":8152,"anulação":8153,"tornando":8154,"aperfeiço":8155,"semelhante":8156,"impressas":8157,"centavos":8158,"defeituosos":8159,"##tionamentos":8160,"##etos":8161,"##enso":8162,"daquele":8163,"impedidas":8164,"gerenciais":8165,"passam":8166,"guarnição":8167,"remanej":8168,"enla":8169,"susp":8170,"consignar":8171,"vulner":8172,"orgân":8173,"##cam":8174,"isenção":8175,"##aldo":8176,"roubo":8177,"manifeste":8178,"definições":8179,"confiabilidade":8180,"avi":8181,"consor":8182,"nesses":8183,"eva":8184,"inexequíveis":8185,"aconte":8186,"implique":8187,"florianópolis":8188,"idioma":8189,"##velmente":8190,"amig":8191,"##rudência":8192,"##prev":8193,"##izem":8194,"encaix":8195,"irreajustável":8196,"##oura":8197,"respeitados":8198,"transtornos":8199,"##funcion":8200,"pactuados":8201,"periódicos":8202,"transcritos":8203,"sustentável":8204,"leves":8205,"##ire":8206,"formatos":8207,"dizeres":8208,"emitente":8209,"supervenientes":8210,"implantar":8211,"anexados":8212,"##eias":8213,"requeridos":8214,"custeio":8215,"fme":8216,"insuficiente":8217,"##ecção":8218,"inadimplida":8219,"recusados":8220,"arma":8221,"questionamentos":8222,"cancelado":8223,"onerar":8224,"comission":8225,"tesoura":8226,"potencialmente":8227,"displa":8228,"tradução":8229,"permissão":8230,"importa":8231,"contribuintes":8232,"incorrer":8233,"propiciar":8234,"contento":8235,"tubulação":8236,"notificações":8237,"instrumentais":8238,"preceitua":8239,"visam":8240,"resultar":8241,"analisados":8242,"##estralmente":8243,"armazenagem":8244,"urnas":8245,"sustentação":8246,"cá":8247,"reca":8248,"perfaz":8249,"##itários":8250,"novamente":8251,"empreendimento":8252,"preservar":8253,"araú":8254,"##dações":8255,"incomple":8256,"artic":8257,"provocados":8258,"##bina":8259,"conferidos":8260,"anim":8261,"discre":8262,"dupl":8263,"covid":8264,"##dial":8265,"povoado":8266,"ilícitos":8267,"##mea":8268,"emergencial":8269,"det":8270,"##inidade":8271,"pavimento":8272,"vencem":8273,"barros":8274,"interligação":8275,"autu":8276,"associados":8277,"artefa":8278,"##estre":8279,"diminuição":8280,"aro":8281,"aceitarem":8282,"caxias":8283,"federação":8284,"discord":8285,"embut":8286,"passando":8287,"##éster":8288,"embora":8289,"hc":8290,"##gipe":8291,"justificadas":8292,"pio":8293,"##uso":8294,"recomposição":8295,"##dm":8296,"atualizadas":8297,"afetar":8298,"existir":8299,"##tudo":8300,"##ud":8301,"incluem":8302,"inadimplente":8303,"divisórias":8304,"##omia":8305,"poliéster":8306,"##ógicas":8307,"bc":8308,"pecu":8309,"prestações":8310,"tá":8311,"diant":8312,"##eja":8313,"faculdade":8314,"semec":8315,"planta":8316,"inclusas":8317,"assembleia":8318,"##pp":8319,"bat":8320,"##gel":8321,"sergipe":8322,"nosso":8323,"concessionárias":8324,"formulários":8325,"perif":8326,"paraíba":8327,"estimativo":8328,"glp":8329,"algod":8330,"repet":8331,"sobretudo":8332,"logomar":8333,"contador":8334,"##duc":8335,"mesas":8336,"bande":8337,"apoi":8338,"barro":8339,"nono":8340,"##curi":8341,"tamanhos":8342,"pul":8343,"constituindo":8344,"fechad":8345,"##hs":8346,"flexível":8347,"multifuncion":8348,"tolerância":8349,"telefônicos":8350,"indústria":8351,"araújo":8352,"eletrosul":8353,"laser":8354,"##abilidades":8355,"retenções":8356,"textos":8357,"##inópolis":8358,"##gios":8359,"arredon":8360,"dependentes":8361,"volta":8362,"##est":8363,"autorizações":8364,"absor":8365,"múlti":8366,"##rimo":8367,"recicláveis":8368,"##érica":8369,"desk":8370,"cx":8371,"motocicle":8372,"editalícias":8373,"profer":8374,"marec":8375,"embalados":8376,"justificadamente":8377,"existem":8378,"absolu":8379,"cuia":8380,"passo":8381,"copi":8382,"bloque":8383,"pole":8384,"dol":8385,"marechal":8386,"poço":8387,"comprometam":8388,"algodão":8389,"ug":8390,"aditamento":8391,"organismo":8392,"hel":8393,"chama":8394,"credores":8395,"graus":8396,"den":8397,"##orno":8398,"semi":8399,"interrupções":8400,"rodoviária":8401,"excessiv":8402,"realiza":8403,"bre":8404,"extrema":8405,"humano":8406,"tubulares":8407,"campinas":8408,"equivalência":8409,"coletivas":8410,"reconstruir":8411,"irrestrita":8412,"##zas":8413,"mobilização":8414,"dirimidas":8415,"recolhido":8416,"esm":8417,"metálicas":8418,"areia":8419,"##ls":8420,"esterilização":8421,"inca":8422,"##ileno":8423,"leilão":8424,"cuiabá":8425,"wall":8426,"anotações":8427,"manh":8428,"##ariais":8429,"pmb":8430,"listagem":8431,"adjudicada":8432,"alvenaria":8433,"roupas":8434,"recibos":8435,"competências":8436,"proteger":8437,"virtuais":8438,"dispensado":8439,"telh":8440,"periódica":8441,"mono":8442,"##infra":8443,"caracterizada":8444,"desempenhar":8445,"abasteci":8446,"correios":8447,"celer":8448,"combinado":8449,"fitas":8450,"##bidade":8451,"##iana":8452,"estratégia":8453,"##ídios":8454,"##ção":8455,"possuí":8456,"exige":8457,"hotel":8458,"fixando":8459,"display":8460,"sefaz":8461,"##coes":8462,"concil":8463,"proibida":8464,"pecuária":8465,"habita":8466,"##jeto":8467,"usar":8468,"interpostos":8469,"devolver":8470,"chec":8471,"drenagem":8472,"celeridade":8473,"demandados":8474,"dependendo":8475,"atestará":8476,"##etileno":8477,"reb":8478,"quantas":8479,"jard":8480,"rápido":8481,"adol":8482,"oxigênio":8483,"consorci":8484,"suportes":8485,"##pis":8486,"confe":8487,"##alizando":8488,"conteúdos":8489,"comunicados":8490,"desligamento":8491,"eixo":8492,"linux":8493,"ilha":8494,"demonstrada":8495,"idepi":8496,"superintendente":8497,"incorreção":8498,"senhas":8499,"remota":8500,"polip":8501,"cobrar":8502,"##gador":8503,"##dom":8504,"cônju":8505,"leilo":8506,"mis":8507,"legitimidade":8508,"descontar":8509,"resoluções":8510,"corros":8511,"##ure":8512,"##cel":8513,"end":8514,"vistoriar":8515,"mista":8516,"##ianas":8517,"corresponsabilidade":8518,"gasolina":8519,"##dutor":8520,"##logias":8521,"evidenci":8522,"desab":8523,"##tive":8524,"fixar":8525,"indenizar":8526,"cél":8527,"locomo":8528,"banheiros":8529,"##essem":8530,"ventilação":8531,"##ésticos":8532,"furto":8533,"##validação":8534,"sef":8535,"seduc":8536,"terceirização":8537,"cem":8538,"ocupacional":8539,"rege":8540,"samu":8541,"conhece":8542,"status":8543,"veiculo":8544,"teclado":8545,"aplicam":8546,"chum":8547,"realidade":8548,"inviabil":8549,"out":8550,"alegar":8551,"##mando":8552,"ressalvados":8553,"substituindo":8554,"manc":8555,"autonomia":8556,"facilidade":8557,"hz":8558,"notadamente":8559,"lavratura":8560,"incent":8561,"delas":8562,"##dp":8563,"srf":8564,"averi":8565,"##top":8566,"anuais":8567,"concedidos":8568,"requisitado":8569,"transferências":8570,"sebas":8571,"anular":8572,"paulista":8573,"brasileiras":8574,"caminhões":8575,"##ll":8576,"domínio":8577,"agendar":8578,"question":8579,"crianças":8580,"permanentemente":8581,"cooperação":8582,"pisos":8583,"##timo":8584,"gave":8585,"barb":8586,"ebc":8587,"dobra":8588,"rosa":8589,"ética":8590,"##eria":8591,"cinza":8592,"vigésima":8593,"##vios":8594,"guin":8595,"tributário":8596,"separados":8597,"empil":8598,"acopl":8599,"gera":8600,"iniciando":8601,"iniciará":8602,"sesapi":8603,"passível":8604,"##ropileno":8605,"departamentos":8606,"aprimo":8607,"tomou":8608,"publicados":8609,"rescisórias":8610,"habilitadas":8611,"recolhidos":8612,"descrever":8613,"emergenciais":8614,"segundos":8615,"sebasti":8616,"##rf":8617,"auxiliado":8618,"assessoramento":8619,"##aba":8620,"acrescent":8621,"improbidade":8622,"resguard":8623,"amparo":8624,"colégio":8625,"proporção":8626,"manhã":8627,"vigilante":8628,"boleto":8629,"cumpridos":8630,"van":8631,"alinh":8632,"corrup":8633,"válvulas":8634,"eximirá":8635,"alíquota":8636,"passará":8637,"##antamentos":8638,"sensores":8639,"polipropileno":8640,"especificar":8641,"reajustado":8642,"monitoração":8643,"assegurados":8644,"transportar":8645,"retorn":8646,"furos":8647,"cartucho":8648,"##unt":8649,"antt":8650,"marques":8651,"verd":8652,"comunica":8653,"solici":8654,"argam":8655,"motivação":8656,"rodoviário":8657,"adaptações":8658,"trabalhar":8659,"oeiras":8660,"cimento":8661,"##ílias":8662,"separadamente":8663,"brig":8664,"compostos":8665,"nestes":8666,"propós":8667,"encontrados":8668,"##arcações":8669,"avença":8670,"cobradas":8671,"deveres":8672,"privativa":8673,"reter":8674,"eletrodu":8675,"sar":8676,"depre":8677,"eliminação":8678,"pontuação":8679,"disponibilizando":8680,"aterramento":8681,"dens":8682,"mel":8683,"traseira":8684,"formalidades":8685,"relacionamento":8686,"globais":8687,"##ntor":8688,"firewall":8689,"exijam":8690,"àqueles":8691,"part":8692,"recursal":8693,"imo":8694,"julgado":8695,"caracterizando":8696,"privadas":8697,"óptica":8698,"últimas":8699,"conferida":8700,"##prov":8701,"guardar":8702,"ww":8703,"##ivelmente":8704,"arco":8705,"descontinuidade":8706,"garante":8707,"impossibilitem":8708,"exara":8709,"qualidades":8710,"##eirão":8711,"##isas":8712,"próteses":8713,"variações":8714,"boca":8715,"captação":8716,"acordados":8717,"detalhamentos":8718,"ocasionados":8719,"##og":8720,"responsabilização":8721,"prima":8722,"discordância":8723,"comunicadas":8724,"rendimento":8725,"##cha":8726,"remarcação":8727,"enumerados":8728,"ilustra":8729,"##rom":8730,"suges":8731,"achado":8732,"galvanizado":8733,"gurguéia":8734,"##érico":8735,"animal":8736,"cortes":8737,"realizou":8738,"claro":8739,"alterados":8740,"englob":8741,"faculta":8742,"resolver":8743,"encargo":8744,"prevenir":8745,"acondicionado":8746,"senado":8747,"terreno":8748,"##tigo":8749,"iguaçu":8750,"##si":8751,"coron":8752,"invent":8753,"chegada":8754,"securi":8755,"sebastião":8756,"##queira":8757,"unif":8758,"aeronave":8759,"avaliada":8760,"##bio":8761,"dependerá":8762,"verifique":8763,"adu":8764,"##ológicas":8765,"chip":8766,"cade":8767,"comprim":8768,"folhe":8769,"##elhamento":8770,"malha":8771,"constará":8772,"concer":8773,"computacional":8774,"esca":8775,"luis":8776,"comprasgo":8777,"analisadas":8778,"indícios":8779,"##ificar":8780,"solidar":8781,"duplo":8782,"adolesc":8783,"##tária":8784,"##veniência":8785,"balanceamento":8786,"##írus":8787,"eman":8788,"acolhimento":8789,"seções":8790,"periódicas":8791,"##mem":8792,"arcando":8793,"imperícia":8794,"##ardo":8795,"rebo":8796,"comprometimento":8797,"##esb":8798,"confea":8799,"##lh":8800,"demonstre":8801,"ocupação":8802,"lá":8803,"##ander":8804,"moura":8805,"botão":8806,"coelho":8807,"compreensão":8808,"asfál":8809,"famílias":8810,"admissão":8811,"inadimplidos":8812,"tarifa":8813,"hí":8814,"composições":8815,"editora":8816,"cun":8817,"solidariedade":8818,"carimbos":8819,"anticor":8820,"anexado":8821,"disposta":8822,"professor":8823,"formalizadas":8824,"acredi":8825,"obstante":8826,"juiz":8827,"sf":8828,"cia":8829,"prerro":8830,"restauração":8831,"pretendido":8832,"har":8833,"ny":8834,"parciais":8835,"corretamente":8836,"prerroga":8837,"jurisdição":8838,"carb":8839,"anualidade":8840,"atinentes":8841,"seria":8842,"mpdg":8843,"qse":8844,"ministro":8845,"##âo":8846,"superfícies":8847,"##ef":8848,"##cuo":8849,"##orização":8850,"sessenta":8851,"partida":8852,"perímetro":8853,"servidora":8854,"condicionados":8855,"proporcionalidade":8856,"normalmente":8857,"supramen":8858,"hospitais":8859,"##ecida":8860,"térreo":8861,"requeridas":8862,"quente":8863,"cabine":8864,"ambientalmente":8865,"bancárias":8866,"nivel":8867,"vistorias":8868,"agra":8869,"rubricados":8870,"introduz":8871,"##gdo":8872,"monitores":8873,"manufatura":8874,"responsabiliza":8875,"sangue":8876,"eu":8877,"inves":8878,"sali":8879,"##nidade":8880,"irrisórios":8881,"exaus":8882,"zo":8883,"realize":8884,"raios":8885,"enquadrada":8886,"palmeira":8887,"##eios":8888,"caesb":8889,"registrando":8890,"revogação":8891,"sas":8892,"figu":8893,"almoço":8894,"julgada":8895,"restrin":8896,"alarmes":8897,"bits":8898,"kva":8899,"##itão":8900,"orçado":8901,"urbanos":8902,"simból":8903,"feiras":8904,"decorridos":8905,"redigida":8906,"##ee":8907,"decorrerem":8908,"emenda":8909,"beneficiária":8910,"constantemente":8911,"simplificada":8912,"conclu":8913,"produzir":8914,"eletricis":8915,"cân":8916,"pendência":8917,"console":8918,"##clear":8919,"alcançar":8920,"regulares":8921,"amostragem":8922,"amigável":8923,"desn":8924,"visível":8925,"expressas":8926,"m³":8927,"subestação":8928,"surgir":8929,"hp":8930,"ang":8931,"esportes":8932,"sum":8933,"estacionamento":8934,"tempos":8935,"conectividade":8936,"##ún":8937,"referencial":8938,"artefatos":8939,"econômicos":8940,"científic":8941,"garrafões":8942,"sn":8943,"vantajosidade":8944,"lubrificação":8945,"pronta":8946,"concernentes":8947,"nazar":8948,"##cool":8949,"deixando":8950,"logomarca":8951,"##tadores":8952,"locomoção":8953,"expedidos":8954,"mulher":8955,"levantamentos":8956,"papelão":8957,"protó":8958,"consid":8959,"salc":8960,"exced":8961,"crescimento":8962,"confiança":8963,"nada":8964,"stan":8965,"plas":8966,"optou":8967,"peix":8968,"##ting":8969,"alíquotas":8970,"cilindro":8971,"abrir":8972,"apto":8973,"ocorrida":8974,"lacrados":8975,"pop":8976,"ipva":8977,"inidônea":8978,"ufes":8979,"fazendas":8980,"representando":8981,"simultânea":8982,"ferramental":8983,"urbanismo":8984,"excedente":8985,"##vernamentais":8986,"fabricado":8987,"ptres":8988,"impeçam":8989,"perfazendo":8990,"the":8991,"alea":8992,"processadas":8993,"instituída":8994,"envolvam":8995,"aponta":8996,"##atidão":8997,"maioria":8998,"discut":8999,"##ímetros":9000,"desinstalação":9001,"farmacêut":9002,"desembolso":9003,"contada":9004,"polietileno":9005,"##itude":9006,"atra":9007,"temos":9008,"##metria":9009,"ison":9010,"estrangeiras":9011,"quilômetros":9012,"atualizar":9013,"conjuntamente":9014,"##teza":9015,"capacitados":9016,"##cão":9017,"logra":9018,"cancelar":9019,"aplicará":9020,"distribuidora":9021,"ocorram":9022,"##uni":9023,"barbosa":9024,"adesivo":9025,"insumo":9026,"nuvem":9027,"tst":9028,"redibi":9029,"##camento":9030,"acompanha":9031,"prestou":9032,"borges":9033,"capitão":9034,"cobertos":9035,"diur":9036,"estabil":9037,"##tração":9038,"dirigentes":9039,"produzido":9040,"nylon":9041,"ingl":9042,"comparecimento":9043,"anac":9044,"desembar":9045,"convencionado":9046,"agrícolas":9047,"desper":9048,"reco":9049,"saídas":9050,"##estes":9051,"##orando":9052,"enter":9053,"demol":9054,"##cóp":9055,"rata":9056,"deterio":9057,"ferraz":9058,"pmc":9059,"mobilidade":9060,"reaber":9061,"##mon":9062,"entradas":9063,"carn":9064,"limpos":9065,"elevação":9066,"tantas":9067,"sl":9068,"datilo":9069,"documental":9070,"intens":9071,"compe":9072,"solidária":9073,"pragas":9074,"quantitativa":9075,"conciliação":9076,"amor":9077,"embarcações":9078,"bebedo":9079,"provimento":9080,"##gráficos":9081,"cirurgia":9082,"formalizar":9083,"avaliado":9084,"cadastrar":9085,"memoriais":9086,"polies":9087,"trazer":9088,"qualificadas":9089,"pedi":9090,"foco":9091,"mento":9092,"esportivo":9093,"appl":9094,"mte":9095,"discrep":9096,"##istirá":9097,"patrimoniais":9098,"##iado":9099,"corporativa":9100,"nazaré":9101,"reutil":9102,"##estabel":9103,"estabilidade":9104,"##çar":9105,"subdi":9106,"conduzir":9107,"ber":9108,"examinar":9109,"##gráficas":9110,"pessoalmente":9111,"supervisionar":9112,"##enil":9113,"exclusividade":9114,"designação":9115,"pág":9116,"creditado":9117,"malici":9118,"##imas":9119,"parceladamente":9120,"lique":9121,"conselhos":9122,"aluno":9123,"empresário":9124,"assegurará":9125,"obrigam":9126,"gin":9127,"mantê":9128,"ocul":9129,"cerim":9130,"adquirida":9131,"plásticos":9132,"resumida":9133,"oriundo":9134,"tril":9135,"reequilíbrio":9136,"dirigido":9137,"www":9138,"iniciado":9139,"terrestres":9140,"##isco":9141,"comutado":9142,"comprasgovernamentais":9143,"carteiras":9144,"tram":9145,"gerado":9146,"##ísticas":9147,"livres":9148,"elevado":9149,"reservatório":9150,"folders":9151,"define":9152,"parentes":9153,"validad":9154,"especialidade":9155,"interpel":9156,"janelas":9157,"jato":9158,"múltipl":9159,"expressões":9160,"padre":9161,"agrupados":9162,"manga":9163,"crem":9164,"codi":9165,"centralizado":9166,"##fique":9167,"uteis":9168,"inver":9169,"tecnológicos":9170,"sofrerá":9171,"vácuo":9172,"datilograf":9173,"usando":9174,"##étricas":9175,"estrutural":9176,"subcontratados":9177,"portarias":9178,"alocado":9179,"iminente":9180,"vice":9181,"##tol":9182,"dolosa":9183,"artilh":9184,"ré":9185,"pf":9186,"potável":9187,"linguagem":9188,"##ômico":9189,"remanufatura":9190,"cometidas":9191,"antig":9192,"compartilh":9193,"##erários":9194,"##gões":9195,"argamassa":9196,"consistem":9197,"inspecionar":9198,"uruç":9199,"##bol":9200,"chass":9201,"eir":9202,"baseados":9203,"âng":9204,"audio":9205,"processador":9206,"artilharia":9207,"smar":9208,"regularize":9209,"cardápio":9210,"exatidão":9211,"##ode":9212,"##dec":9213,"ultrapasse":9214,"intervalos":9215,"##tinga":9216,"dc":9217,"monte":9218,"sacos":9219,"marabá":9220,"alternativa":9221,"substância":9222,"##gate":9223,"reembol":9224,"lix":9225,"constituir":9226,"circulante":9227,"roteiro":9228,"cometida":9229,"periféricos":9230,"ará":9231,"##aran":9232,"##ejo":9233,"agua":9234,"##pu":9235,"reduzida":9236,"##torze":9237,"paragrafo":9238,"ofertadas":9239,"edifícios":9240,"drivers":9241,"coronel":9242,"normalizada":9243,"nunes":9244,"capacitado":9245,"qtd":9246,"##gus":9247,"##formas":9248,"prem":9249,"praia":9250,"transição":9251,"sustar":9252,"##mira":9253,"garantidos":9254,"aeroporto":9255,"desistir":9256,"clip":9257,"ampliar":9258,"organizacional":9259,"##rr":9260,"##gável":9261,"seinfra":9262,"##eca":9263,"obedecerão":9264,"proveito":9265,"pressu":9266,"residência":9267,"pecuni":9268,"envie":9269,"bet":9270,"numa":9271,"instauração":9272,"devolvidas":9273,"stora":9274,"requisitados":9275,"indevida":9276,"##istentes":9277,"tratados":9278,"desinf":9279,"reforço":9280,"liga":9281,"tesouraria":9282,"dpu":9283,"inserir":9284,"##brás":9285,"institui":9286,"canto":9287,"tarefa":9288,"juntada":9289,"dependência":9290,"apoiar":9291,"curto":9292,"letras":9293,"gere":9294,"acessar":9295,"impedimentos":9296,"##endedores":9297,"destaca":9298,"couro":9299,"cnmp":9300,"julgue":9301,"cerâm":9302,"sanitários":9303,"sofrido":9304,"jf":9305,"destru":9306,"lubrificante":9307,"densidade":9308,"##namente":9309,"arágrafo":9310,"estivessem":9311,"miti":9312,"saude":9313,"nessas":9314,"contribuir":9315,"manipulação":9316,"liberado":9317,"plástica":9318,"decurso":9319,"qualificações":9320,"plataformas":9321,"not":9322,"ocorrerem":9323,"grupamento":9324,"uber":9325,"embas":9326,"pon":9327,"óleos":9328,"ultrapassarem":9329,"##midades":9330,"aprovar":9331,"cumpra":9332,"##fice":9333,"rótulo":9334,"prospectos":9335,"apostilamento":9336,"##ística":9337,"desenvolvida":9338,"cenário":9339,"scan":9340,"pj":9341,"sapa":9342,"limpo":9343,"armazenar":9344,"db":9345,"aceitará":9346,"versa":9347,"agir":9348,"comunidades":9349,"##az":9350,"botões":9351,"regem":9352,"afinidade":9353,"polegadas":9354,"soares":9355,"inabilitada":9356,"coletados":9357,"##guá":9358,"reduzido":9359,"##unicip":9360,"parceladas":9361,"gonçalo":9362,"estéril":9363,"##ql":9364,"max":9365,"vazão":9366,"lí":9367,"##ículas":9368,"válidos":9369,"recipientes":9370,"##jas":9371,"ajustados":9372,"bios":9373,"switches":9374,"servir":9375,"caracterizar":9376,"pma":9377,"arg":9378,"bandeira":9379,"clare":9380,"adotará":9381,"altern":9382,"correntes":9383,"convenientes":9384,"inseridos":9385,"conterá":9386,"destacar":9387,"separado":9388,"login":9389,"recolhidas":9390,"configurando":9391,"exata":9392,"gre":9393,"usina":9394,"estagiário":9395,"##çao":9396,"apresentá":9397,"tração":9398,"relatar":9399,"coordenar":9400,"cadin":9401,"contaminação":9402,"repos":9403,"##use":9404,"vesti":9405,"freio":9406,"colateral":9407,"profissão":9408,"decidirá":9409,"fiscalizador":9410,"##ástico":9411,"apropriadas":9412,"condiz":9413,"inabilitado":9414,"citação":9415,"excluído":9416,"contém":9417,"cefet":9418,"evapora":9419,"liquefeito":9420,"celulares":9421,"cumprido":9422,"pap":9423,"quilômetro":9424,"inadequados":9425,"válidas":9426,"submetida":9427,"núcleos":9428,"he":9429,"##cd":9430,"##izador":9431,"perfuração":9432,"maternidade":9433,"imped":9434,"cirúrgicos":9435,"redibitórios":9436,"amara":9437,"remov":9438,"eletricista":9439,"teór":9440,"desejarem":9441,"mercadoria":9442,"diários":9443,"preparar":9444,"fisio":9445,"glosas":9446,"salarial":9447,"multim":9448,"persianas":9449,"ji":9450,"##tél":9451,"posicionamento":9452,"rom":9453,"vicinais":9454,"visão":9455,"remanejamento":9456,"sinistros":9457,"bruta":9458,"parada":9459,"baix":9460,"leiloeiro":9461,"##quias":9462,"coletivos":9463,"jogos":9464,"terrestre":9465,"ect":9466,"frutas":9467,"##chas":9468,"expectativa":9469,"cedente":9470,"subordinados":9471,"sucess":9472,"restante":9473,"pic":9474,"manda":9475,"apurada":9476,"##gesp":9477,"ifce":9478,"possibilitem":9479,"apropriada":9480,"tratada":9481,"viatura":9482,"controladora":9483,"##ville":9484,"superveniência":9485,"acompanhará":9486,"deveria":9487,"gramp":9488,"encontrarem":9489,"clareza":9490,"interpelação":9491,"satél":9492,"abranger":9493,"trig":9494,"investimento":9495,"pretens":9496,"##center":9497,"customização":9498,"aç":9499,"asseio":9500,"quatorze":9501,"roupa":9502,"##erente":9503,"##ivin":9504,"##técn":9505,"formado":9506,"rena":9507,"faturado":9508,"sediadas":9509,"prediais":9510,"##fás":9511,"escritura":9512,"irp":9513,"##elagem":9514,"projeção":9515,"originadas":9516,"simbólicos":9517,"io":9518,"microbi":9519,"concorrentes":9520,"dir":9521,"enviará":9522,"chumbo":9523,"##erário":9524,"camise":9525,"queda":9526,"usual":9527,"aprovis":9528,"fortuitos":9529,"##ídia":9530,"atóx":9531,"primária":9532,"imprescindíveis":9533,"substituída":9534,"ficto":9535,"##rquica":9536,"cei":9537,"dividido":9538,"##ulada":9539,"assunção":9540,"prosseguimento":9541,"frio":9542,"firmes":9543,"fundamentais":9544,"urgente":9545,"pabx":9546,"listadas":9547,"carregamento":9548,"cadeira":9549,"sena":9550,"gratuitamente":9551,"portado":9552,"cronogramas":9553,"solda":9554,"mape":9555,"amgesp":9556,"fluvi":9557,"disjuntores":9558,"bacen":9559,"ah":9560,"acessórias":9561,"torno":9562,"##plan":9563,"pilhas":9564,"intermediários":9565,"retiradas":9566,"manterá":9567,"transcrito":9568,"##cias":9569,"abertas":9570,"expressão":9571,"auditório":9572,"recomendada":9573,"matricul":9574,"comandos":9575,"legalidade":9576,"incluída":9577,"biom":9578,"ane":9579,"relevante":9580,"térmica":9581,"ine":9582,"manejo":9583,"bloqueada":9584,"rurais":9585,"autenticados":9586,"##roc":9587,"rotas":9588,"encad":9589,"minimizar":9590,"##ners":9591,"fundamentação":9592,"nascimento":9593,"restabelecimento":9594,"pontualidade":9595,"eleições":9596,"pretendidos":9597,"##itados":9598,"campanhas":9599,"incons":9600,"folhetos":9601,"equív":9602,"assistente":9603,"encaixe":9604,"assegu":9605,"percurso":9606,"segmento":9607,"inovação":9608,"alimentar":9609,"entendido":9610,"##honete":9611,"vantajosas":9612,"estruturação":9613,"brin":9614,"##bromados":9615,"encadern":9616,"importantes":9617,"coberturas":9618,"##vores":9619,"assento":9620,"##ficial":9621,"protetor":9622,"signatário":9623,"cet":9624,"desar":9625,"eireli":9626,"setur":9627,"##tf":9628,"arc":9629,"##gan":9630,"aderirem":9631,"compressor":9632,"dedicado":9633,"álcool":9634,"concerne":9635,"##inos":9636,"vinculam":9637,"endos":9638,"intemp":9639,"providenciando":9640,"externamente":9641,"apontamentos":9642,"elegem":9643,"credenciar":9644,"##usão":9645,"regularizada":9646,"tron":9647,"descrevendo":9648,"jogo":9649,"entrevis":9650,"pirac":9651,"saae":9652,"moder":9653,"##apê":9654,"analisado":9655,"prata":9656,"acessório":9657,"obrigar":9658,"##au":9659,"hidros":9660,"maquin":9661,"elaboradas":9662,"plantão":9663,"acion":9664,"programada":9665,"aferida":9666,"net":9667,"general":9668,"vermelha":9669,"##formidades":9670,"deduzir":9671,"palav":9672,"##ulado":9673,"excetu":9674,"transferida":9675,"cess":9676,"protetores":9677,"##aliza":9678,"memorando":9679,"processada":9680,"exercido":9681,"especialização":9682,"##icon":9683,"##cm":9684,"fardamento":9685,"vapor":9686,"encontre":9687,"financiamento":9688,"incer":9689,"térmico":9690,"pleitear":9691,"ifrn":9692,"conselh":9693,"ads":9694,"tradi":9695,"abrirá":9696,"carbono":9697,"assentamento":9698,"demissão":9699,"notificará":9700,"garanta":9701,"prorrogados":9702,"pluvi":9703,"garantirá":9704,"enquadrados":9705,"estamos":9706,"aná":9707,"reservas":9708,"metálico":9709,"gm":9710,"leste":9711,"ataques":9712,"sintético":9713,"verifica":9714,"epis":9715,"habilitatórios":9716,"avaria":9717,"lucros":9718,"rap":9719,"evolu":9720,"##ólo":9721,"segurados":9722,"ddr":9723,"##ocon":9724,"empregar":9725,"coro":9726,"##prise":9727,"siasg":9728,"##wares":9729,"##ht":9730,"##ntra":9731,"inexequibilidade":9732,"enunci":9733,"opte":9734,"esquadrias":9735,"constitucional":9736,"concluídas":9737,"esgotamento":9738,"compati":9739,"automó":9740,"controv":9741,"necessitem":9742,"utilizam":9743,"##iram":9744,"inidôneos":9745,"sh":9746,"exigível":9747,"fechada":9748,"seletivo":9749,"significativo":9750,"investimentos":9751,"copos":9752,"começarão":9753,"aufer":9754,"restring":9755,"reinício":9756,"percorr":9757,"carros":9758,"prêmio":9759,"solar":9760,"incompatível":9761,"dor":9762,"##rou":9763,"assumirá":9764,"confro":9765,"cooperados":9766,"cíveis":9767,"integrados":9768,"suspensivo":9769,"estratégicos":9770,"##sp":9771,"permitidos":9772,"estoques":9773,"caema":9774,"exportação":9775,"ruído":9776,"confeccionados":9777,"entra":9778,"especificidades":9779,"rastreamento":9780,"fes":9781,"##quet":9782,"jurídicos":9783,"paulistana":9784,"alterem":9785,"certo":9786,"revista":9787,"deslig":9788,"limitar":9789,"envolve":9790,"caridade":9791,"desperd":9792,"preenchidos":9793,"sustentáveis":9794,"impreter":9795,"restabelecer":9796,"##cepção":9797,"levará":9798,"trocar":9799,"##tamos":9800,"manuten":9801,"vídeos":9802,"##urados":9803,"disciplinares":9804,"afon":9805,"armas":9806,"pilo":9807,"coin":9808,"join":9809,"valendo":9810,"multiplicado":9811,"descarregamento":9812,"gasto":9813,"carre":9814,"cbm":9815,"barreiras":9816,"enterprise":9817,"pés":9818,"teix":9819,"recol":9820,"exigindo":9821,"prorrogar":9822,"envolvido":9823,"##él":9824,"consumíveis":9825,"cald":9826,"incumbirá":9827,"##fisc":9828,"reembols":9829,"missões":9830,"novent":9831,"escolhida":9832,"tira":9833,"##anter":9834,"fabricados":9835,"montado":9836,"industriais":9837,"##iga":9838,"inteiramente":9839,"her":9840,"lobão":9841,"reboque":9842,"cano":9843,"camisa":9844,"cfm":9845,"bela":9846,"##ash":9847,"médias":9848,"exercidos":9849,"agrícola":9850,"aprovisionamento":9851,"diretora":9852,"adjudicados":9853,"joinville":9854,"##tan":9855,"próximos":9856,"noventa":9857,"sd":9858,"ministrar":9859,"##tivado":9860,"cartórios":9861,"publico":9862,"concluir":9863,"transformadores":9864,"##antina":9865,"##ímetro":9866,"importados":9867,"bis":9868,"##ificados":9869,"gerencial":9870,"imprudência":9871,"ergon":9872,"quarenta":9873,"consideram":9874,"utilize":9875,"normativo":9876,"implicar":9877,"recomendadas":9878,"hidráulicos":9879,"farmacêutica":9880,"##izam":9881,"hoje":9882,"lotados":9883,"palmas":9884,"líquidos":9885,"inscrições":9886,"razoável":9887,"##dável":9888,"traduz":9889,"admitir":9890,"revalidação":9891,"##unas":9892,"resolve":9893,"##cron":9894,"transmit":9895,"isonomia":9896,"buscar":9897,"selva":9898,"dutos":9899,"##oras":9900,"convers":9901,"qualitativa":9902,"magistra":9903,"calça":9904,"depender":9905,"aderência":9906,"destacam":9907,"cavalaria":9908,"trava":9909,"mat":9910,"poluidoras":9911,"ambulância":9912,"claramente":9913,"seco":9914,"##urb":9915,"##jos":9916,"catal":9917,"organizar":9918,"propa":9919,"pequena":9920,"processual":9921,"##tário":9922,"borda":9923,"crefito":9924,"passeio":9925,"divulgada":9926,"controlados":9927,"metodologias":9928,"exemplares":9929,"visualizar":9930,"exploração":9931,"rp":9932,"esperantina":9933,"autônomo":9934,"rubricas":9935,"##endos":9936,"empr":9937,"higiên":9938,"janela":9939,"caneta":9940,"pauta":9941,"ufsm":9942,"regulação":9943,"cumprida":9944,"sor":9945,"th":9946,"##mentado":9947,"desin":9948,"arra":9949,"urbanas":9950,"aritm":9951,"##adalu":9952,"especialidades":9953,"duque":9954,"mdf":9955,"acrílico":9956,"semin":9957,"abord":9958,"desnecess":9959,"chapas":9960,"variar":9961,"##adalupe":9962,"enfr":9963,"conceder":9964,"anotar":9965,"satisfei":9966,"araca":9967,"processado":9968,"eleve":9969,"carentes":9970,"secundária":9971,"dif":9972,"lotado":9973,"tambor":9974,"trigés":9975,"terem":9976,"itin":9977,"separação":9978,"##fl":9979,"ganho":9980,"tresc":9981,"##itente":9982,"lavander":9983,"##econ":9984,"##trôn":9985,"major":9986,"desinfecção":9987,"hg":9988,"incre":9989,"implicando":9990,"sespa":9991,"configu":9992,"artís":9993,"abando":9994,"circular":9995,"firmeza":9996,"portadores":9997,"museu":9998,"advindos":9999,"bril":10000,"resguardar":10001,"otimizar":10002,"ald":10003,"corridas":10004,"incêndios":10005,"cndt":10006,"liberados":10007,"piracur":10008,"bordas":10009,"acident":10010,"psic":10011,"##vens":10012,"pales":10013,"evidência":10014,"nf":10015,"solicitamos":10016,"regularizar":10017,"teixeira":10018,"exigirá":10019,"imposição":10020,"aprendizes":10021,"confidenciais":10022,"classificatória":10023,"##process":10024,"subsidiária":10025,"cft":10026,"##gp":10027,"desclassificado":10028,"laminado":10029,"arran":10030,"storage":10031,"pratel":10032,"espuma":10033,"limpa":10034,"alertas":10035,"autenticado":10036,"particulares":10037,"reproduzir":10038,"lanter":10039,"afir":10040,"vencidos":10041,"abreu":10042,"sobressal":10043,"##ticidade":10044,"extravio":10045,"juntado":10046,"equipado":10047,"extrem":10048,"subsolo":10049,"tema":10050,"coffe":10051,"pnae":10052,"descumprir":10053,"dimensão":10054,"motivado":10055,"##gil":10056,"analisará":10057,"compreendem":10058,"service":10059,"vil":10060,"extratos":10061,"impossibilite":10062,"variável":10063,"toal":10064,"piracuruca":10065,"suprim":10066,"empenhos":10067,"competição":10068,"pac":10069,"guadalupe":10070,"depositado":10071,"mhz":10072,"frequentes":10073,"graves":10074,"piment":10075,"mini":10076,"senador":10077,"##zamentos":10078,"incompa":10079,"extremidades":10080,"oriunda":10081,"caracteres":10082,"humana":10083,"explicitamente":10084,"md":10085,"danificadas":10086,"aluguel":10087,"corrosão":10088,"pregões":10089,"pira":10090,"imprevisíveis":10091,"confirmada":10092,"árvores":10093,"##cada":10094,"simplificado":10095,"##éticos":10096,"caracterizará":10097,"passivo":10098,"guara":10099,"##tizada":10100,"impermeabil":10101,"conced":10102,"polibromados":10103,"criança":10104,"multimídia":10105,"pand":10106,"provisões":10107,"permanecerá":10108,"ininterrupta":10109,"bebidas":10110,"naquele":10111,"praticadas":10112,"genuínas":10113,"criadas":10114,"appli":10115,"sdr":10116,"##ke":10117,"microfone":10118,"porque":10119,"produtivo":10120,"extrapol":10121,"cofins":10122,"divino":10123,"aperfeiçoamento":10124,"ressalvadas":10125,"dd":10126,"pau":10127,"possuírem":10128,"alo":10129,"turnos":10130,"limitação":10131,"hidra":10132,"##igra":10133,"especificando":10134,"baseadas":10135,"dirigidos":10136,"##âng":10137,"##úrio":10138,"audiovis":10139,"##fin":10140,"linear":10141,"saco":10142,"lacre":10143,"mass":10144,"leal":10145,"destaque":10146,"certificar":10147,"educacional":10148,"impreterivelmente":10149,"anulada":10150,"mundial":10151,"##iou":10152,"##cinas":10153,"lugares":10154,"ai":10155,"magnéticos":10156,"haste":10157,"rolo":10158,"table":10159,"diverso":10160,"fotoc":10161,"macedo":10162,"locado":10163,"habitação":10164,"##tologia":10165,"##ister":10166,"##cionando":10167,"sitio":10168,"trâm":10169,"inexig":10170,"palco":10171,"proxim":10172,"portando":10173,"conformidades":10174,"promocionais":10175,"reformas":10176,"##fri":10177,"boti":10178,"##pb":10179,"insol":10180,"sistemática":10181,"hídr":10182,"fibras":10183,"adulto":10184,"logrado":10185,"tb":10186,"constatando":10187,"teve":10188,"economicamente":10189,"inadequada":10190,"portátil":10191,"minima":10192,"intimadas":10193,"estratégias":10194,"jose":10195,"vmware":10196,"eletrodom":10197,"armários":10198,"ressalvada":10199,"patrocin":10200,"pais":10201,"tcp":10202,"clínico":10203,"agendadas":10204,"puderem":10205,"destinat":10206,"caçam":10207,"permanecendo":10208,"rosca":10209,"alvo":10210,"telas":10211,"reger":10212,"setorial":10213,"consistirá":10214,"controladoria":10215,"gig":10216,"palestras":10217,"avaliará":10218,"aptos":10219,"##estadu":10220,"fach":10221,"invól":10222,"efetividade":10223,"fortalecimento":10224,"interromper":10225,"persistir":10226,"revestido":10227,"sales":10228,"lavanderia":10229,"##nia":10230,"constate":10231,"turma":10232,"facilmente":10233,"retificação":10234,"jurid":10235,"titulares":10236,"tc":10237,"torre":10238,"continuação":10239,"recarreg":10240,"oferecidas":10241,"conhecidos":10242,"##íz":10243,"clim":10244,"neto":10245,"culturais":10246,"refaz":10247,"sincron":10248,"recepcionista":10249,"datacenter":10250,"apurar":10251,"mercúrio":10252,"recusada":10253,"currícul":10254,"obedecidos":10255,"portos":10256,"contribuinte":10257,"augus":10258,"ensejando":10259,"##pc":10260,"moral":10261,"repactuações":10262,"condenações":10263,"##ecre":10264,"##ocação":10265,"vedações":10266,"trin":10267,"quantia":10268,"virtualização":10269,"reconsiderar":10270,"conduzido":10271,"sho":10272,"contribuindo":10273,"àquelas":10274,"antecipadamente":10275,"comprimido":10276,"##rici":10277,"barão":10278,"formulados":10279,"marcadas":10280,"afonso":10281,"gira":10282,"empregadas":10283,"divers":10284,"ilim":10285,"transformador":10286,"ia":10287,"##sim":10288,"homologados":10289,"##alh":10290,"insan":10291,"subsídios":10292,"consertos":10293,"residencial":10294,"ratific":10295,"fecho":10296,"adjudicar":10297,"larga":10298,"acumulado":10299,"rene":10300,"intermunicip":10301,"atentar":10302,"científica":10303,"tran":10304,"penais":10305,"resfri":10306,"##erval":10307,"litro":10308,"dobro":10309,"completamente":10310,"luvas":10311,"inviabilidade":10312,"zonas":10313,"frig":10314,"motorizado":10315,"descan":10316,"satélite":10317,"avel":10318,"##ínt":10319,"pgj":10320,"apes":10321,"desatendimento":10322,"tantos":10323,"culposa":10324,"inteligência":10325,"certificações":10326,"encarte":10327,"rigorosa":10328,"agendados":10329,"torne":10330,"http":10331,"intelec":10332,"infla":10333,"laboral":10334,"jovens":10335,"amea":10336,"redun":10337,"verdadeiras":10338,"##ussão":10339,"acús":10340,"trator":10341,"matriculados":10342,"aneel":10343,"##cur":10344,"##tano":10345,"##jac":10346,"dinâmica":10347,"gp":10348,"reme":10349,"pesados":10350,"configurado":10351,"##ástica":10352,"jornais":10353,"entendidas":10354,"viv":10355,"configurada":10356,"creditada":10357,"##ler":10358,"chegar":10359,"esforços":10360,"sesau":10361,"agulha":10362,"##tários":10363,"entulho":10364,"uruçuí":10365,"tecidos":10366,"semestre":10367,"tent":10368,"##espi":10369,"montes":10370,"universitária":10371,"satisfazer":10372,"reconhece":10373,"batista":10374,"##dem":10375,"##ten":10376,"datilografada":10377,"corrupção":10378,"nit":10379,"decorra":10380,"automotivos":10381,"##alto":10382,"arrol":10383,"convencional":10384,"numeradas":10385,"##ár":10386,"pront":10387,"perigosos":10388,"vic":10389,"verbal":10390,"certificada":10391,"impliquem":10392,"organizado":10393,"stj":10394,"reversa":10395,"inglês":10396,"##jão":10397,"cct":10398,"másc":10399,"autorizará":10400,"transcorrido":10401,"declarados":10402,"cuidado":10403,"ef":10404,"##plex":10405,"usadas":10406,"rotação":10407,"criptografia":10408,"antiv":10409,"peixe":10410,"sonorização":10411,"idêntico":10412,"produtor":10413,"rejeitará":10414,"infrator":10415,"rodíz":10416,"##tuba":10417,"frigor":10418,"doença":10419,"forte":10420,"estan":10421,"tampo":10422,"policial":10423,"inabilitadas":10424,"insuficiência":10425,"eliminar":10426,"entenda":10427,"fogo":10428,"##orre":10429,"isentando":10430,"dotado":10431,"autocl":10432,"diferencial":10433,"cirurgias":10434,"vere":10435,"reservatórios":10436,"lacrado":10437,"##alter":10438,"juaz":10439,"seguirá":10440,"extração":10441,"##bridade":10442,"admissível":10443,"absoluto":10444,"cle":10445,"inoper":10446,"finalidades":10447,"foc":10448,"parla":10449,"mouse":10450,"curva":10451,"neles":10452,"dispõem":10453,"arquitetôn":10454,"inventário":10455,"pandemia":10456,"danificado":10457,"condenação":10458,"entregará":10459,"trabalhadas":10460,"fundações":10461,"submetendo":10462,"fm":10463,"possuindo":10464,"todavia":10465,"súm":10466,"autá":10467,"homem":10468,"consolidada":10469,"qtde":10470,"parceria":10471,"juazeiro":10472,"##andes":10473,"demandadas":10474,"emissores":10475,"ajustadas":10476,"satisfaçam":10477,"incorreta":10478,"desatender":10479,"gap":10480,"itainópolis":10481,"extraordinária":10482,"constituídas":10483,"oracle":10484,"conectados":10485,"pt":10486,"contando":10487,"distribuídas":10488,"pavimentos":10489,"contingência":10490,"júlio":10491,"interestadu":10492,"caracterizados":10493,"faces":10494,"ipv":10495,"justificando":10496,"##damentos":10497,"traseiro":10498,"sucesso":10499,"tintas":10500,"gerenciadora":10501,"tanques":10502,"iniciados":10503,"erário":10504,"justas":10505,"muitas":10506,"##su":10507,"admite":10508,"rejeitá":10509,"quinz":10510,"desvio":10511,"necessitar":10512,"emissor":10513,"##vão":10514,"condutas":10515,"repassados":10516,"foz":10517,"work":10518,"repl":10519,"reiter":10520,"margens":10521,"cprm":10522,"nup":10523,"defer":10524,"pd":10525,"demerval":10526,"atuará":10527,"levado":10528,"qualitativo":10529,"estranhas":10530,"femin":10531,"##úbas":10532,"lotação":10533,"criados":10534,"subcontratadas":10535,"moraes":10536,"entulhos":10537,"logre":10538,"vazamentos":10539,"##rindo":10540,"revistas":10541,"ração":10542,"##inte":10543,"diferenças":10544,"##ânea":10545,"dl":10546,"definindo":10547,"veiculação":10548,"palácio":10549,"cadeia":10550,"ligadas":10551,"renegoci":10552,"##mec":10553,"cli":10554,"aeronaves":10555,"servirão":10556,"ufmg":10557,"impropri":10558,"apesar":10559,"congên":10560,"utilizadoras":10561,"##lândia":10562,"##zea":10563,"##ouco":10564,"permitidas":10565,"multifuncionais":10566,"##uplo":10567,"estocagem":10568,"decairá":10569,"parametrização":10570,"empresária":10571,"##ranga":10572,"facilitando":10573,"##log":10574,"reaprov":10575,"gbps":10576,"comar":10577,"listas":10578,"##pia":10579,"imbel":10580,"office":10581,"inviável":10582,"esforço":10583,"perdu":10584,"resolvidas":10585,"médicas":10586,"tampouco":10587,"compartilhamento":10588,"luminárias":10589,"empla":10590,"esportivos":10591,"patch":10592,"gabri":10593,"treinados":10594,"eletrodomésticos":10595,"reivin":10596,"trf":10597,"internamente":10598,"grade":10599,"ocasionar":10600,"renunciando":10601,"##hab":10602,"praças":10603,"reparado":10604,"minuciosa":10605,"florestal":10606,"restituída":10607,"ipi":10608,"quínt":10609,"vírus":10610,"emprés":10611,"peti":10612,"construtora":10613,"escav":10614,"reinstalação":10615,"interação":10616,"afim":10617,"digitada":10618,"redund":10619,"ininterrupto":10620,"energética":10621,"garantam":10622,"encontrada":10623,"fichas":10624,"promotor":10625,"##ód":10626,"abrangidas":10627,"crmv":10628,"depreci":10629,"díg":10630,"caraúbas":10631,"temas":10632,"##asep":10633,"informativo":10634,"sys":10635,"##érios":10636,"adjudicará":10637,"poderia":10638,"bolso":10639,"quíntuplo":10640,"##ries":10641,"reprografia":10642,"averigu":10643,"ven":10644,"estruturado":10645,"estacion":10646,"logísticos":10647,"críticos":10648,"chassi":10649,"colônia":10650,"ampara":10651,"regulamentadoras":10652,"diminuir":10653,"##erou":10654,"aracaju":10655,"antivírus":10656,"isent":10657,"##sores":10658,"##ere":10659,"obedecido":10660,"aproximado":10661,"oportunamente":10662,"absoluta":10663,"aterro":10664,"administrados":10665,"tip":10666,"provido":10667,"notebooks":10668,"##crip":10669,"analista":10670,"temporariamente":10671,"cerimon":10672,"cag":10673,"recondicionados":10674,"introduzidas":10675,"aumentando":10676,"##istências":10677,"improrro":10678,"fel":10679,"sdu":10680,"##tidos":10681,"referirem":10682,"preestabel":10683,"negociado":10684,"analise":10685,"compreender":10686,"atribuindo":10687,"dnpm":10688,"espécies":10689,"sudeste":10690,"encosto":10691,"chamamento":10692,"satisfeitas":10693,"##wa":10694,"##ambi":10695,"reservando":10696,"detentores":10697,"##ólito":10698,"toners":10699,"iv":10700,"prótese":10701,"videocon":10702,"custó":10703,"repetição":10704,"fornece":10705,"centralizada":10706,"proprios":10707,"educacionais":10708,"refeitos":10709,"controladoras":10710,"acomodação":10711,"cgu":10712,"##ratização":10713,"sediado":10714,"##desp":10715,"avelino":10716,"##cadas":10717,"cacho":10718,"enfim":10719,"havido":10720,"pastas":10721,"imobil":10722,"iii":10723,"homologará":10724,"ligados":10725,"pge":10726,"internação":10727,"asfáltica":10728,"aleatoriamente":10729,"gigab":10730,"enquadrar":10731,"comodante":10732,"súmula":10733,"datado":10734,"autárquica":10735,"##ntese":10736,"inteiro":10737,"isolada":10738,"recomendado":10739,"conversão":10740,"inclin":10741,"comete":10742,"##rach":10743,"submetidas":10744,"acarrete":10745,"descanso":10746,"deseja":10747,"reunidas":10748,"cofen":10749,"ida":10750,"ções":10751,"ingresso":10752,"vos":10753,"baga":10754,"inexistem":10755,"lacradas":10756,"nestas":10757,"discriminativo":10758,"intelectual":10759,"index":10760,"confere":10761,"gerentes":10762,"##itou":10763,"aparelhamento":10764,"plenitude":10765,"ventiladores":10766,"desl":10767,"médios":10768,"importâncias":10769,"expostos":10770,"mone":10771,"##fim":10772,"detalhando":10773,"gor":10774,"inserv":10775,"adesivos":10776,"guincho":10777,"papéis":10778,"salva":10779,"mistura":10780,"##usos":10781,"sigiloso":10782,"ferragens":10783,"##clusões":10784,"infec":10785,"resultem":10786,"aviação":10787,"pasep":10788,"inerente":10789,"##af":10790,"detectados":10791,"registrará":10792,"gps":10793,"dificultar":10794,"quinze":10795,"marco":10796,"empresariais":10797,"gênero":10798,"conclusiv":10799,"executa":10800,"cromo":10801,"camisas":10802,"interferir":10803,"##fil":10804,"vantajosos":10805,"core":10806,"valer":10807,"gola":10808,"instrumental":10809,"##tula":10810,"buf":10811,"valença":10812,"alberto":10813,"minuto":10814,"familiares":10815,"cama":10816,"logotipo":10817,"mascul":10818,"metálicos":10819,"estim":10820,"limpas":10821,"limitando":10822,"epe":10823,"imperfei":10824,"exibição":10825,"honor":10826,"suma":10827,"trafe":10828,"webs":10829,"especificidade":10830,"turmas":10831,"corporativo":10832,"empilh":10833,"discutido":10834,"##ocar":10835,"carrocer":10836,"##idencial":10837,"mare":10838,"eletrodutos":10839,"correspondem":10840,"antecede":10841,"acontecer":10842,"cinto":10843,"alex":10844,"academia":10845,"resina":10846,"polo":10847,"subscrição":10848,"imput":10849,"empregada":10850,"muníci":10851,"camadas":10852,"relóg":10853,"perce":10854,"##ísio":10855,"voo":10856,"perigosas":10857,"investigação":10858,"vár":10859,"medidor":10860,"saldos":10861,"mensuração":10862,"operacionalidade":10863,"rodado":10864,"##ângulo":10865,"suspensões":10866,"conflitos":10867,"tributação":10868,"check":10869,"respira":10870,"##ânico":10871,"pé":10872,"##eletrôn":10873,"cabral":10874,"tape":10875,"assistida":10876,"regulador":10877,"efetue":10878,"##xa":10879,"parafisc":10880,"lâminas":10881,"vulnerabilidade":10882,"augusto":10883,"motocicletas":10884,"iniciadas":10885,"empregador":10886,"simões":10887,"pris":10888,"##gen":10889,"vulto":10890,"ufv":10891,"anteceder":10892,"hidráulicas":10893,"promoverá":10894,"coffee":10895,"encom":10896,"carne":10897,"extraordinário":10898,"lavrada":10899,"calor":10900,"avaliadas":10901,"notificado":10902,"inicia":10903,"rodoviárias":10904,"cônjuge":10905,"cedidos":10906,"ultrapassem":10907,"efetivos":10908,"##centos":10909,"##gênio":10910,"juntas":10911,"originou":10912,"razoabilidade":10913,"insolvência":10914,"custódia":10915,"recebimentos":10916,"enquadre":10917,"empenhado":10918,"película":10919,"curral":10920,"##iu":10921,"vazamento":10922,"considerá":10923,"ocs":10924,"contrapar":10925,"liberar":10926,"anormalidades":10927,"ufba":10928,"maliciosa":10929,"várzea":10930,"##ming":10931,"##duras":10932,"atribuídas":10933,"tubular":10934,"operadoras":10935,"carimb":10936,"vistoriou":10937,"mj":10938,"propósito":10939,"oportuno":10940,"equívoco":10941,"##cida":10942,"adição":10943,"igp":10944,"##tn":10945,"requisitantes":10946,"manuse":10947,"vasilha":10948,"##ceu":10949,"vibra":10950,"avençadas":10951,"detectar":10952,"genuínos":10953,"detentoras":10954,"viços":10955,"impedirá":10956,"participarão":10957,"drive":10958,"fidel":10959,"demandada":10960,"majoração":10961,"comandante":10962,"gesso":10963,"redu":10964,"telha":10965,"##ônica":10966,"cheque":10967,"by":10968,"confeccionadas":10969,"óptico":10970,"armário":10971,"die":10972,"presenciais":10973,"capita":10974,"zel":10975,"##zentos":10976,"primário":10977,"##ie":10978,"detri":10979,"ips":10980,"navegação":10981,"alien":10982,"full":10983,"premedi":10984,"apresentações":10985,"##álise":10986,"buroc":10987,"cron":10988,"atuam":10989,"gerencia":10990,"igd":10991,"nm":10992,"prestam":10993,"contes":10994,"assis":10995,"fundacional":10996,"divulgadas":10997,"ria":10998,"rita":10999,"##ive":11000,"bri":11001,"##imes":11002,"trocas":11003,"##éricas":11004,"inexigibilidade":11005,"colunas":11006,"síntese":11007,"gabriel":11008,"rpm":11009,"protocolado":11010,"voltadas":11011,"fiscalizadora":11012,"fisioterapia":11013,"obsol":11014,"rubricada":11015,"apoiadas":11016,"bebedouros":11017,"cftv":11018,"adimpl":11019,"montados":11020,"uniformizado":11021,"esferas":11022,"rios":11023,"jura":11024,"aspi":11025,"interposto":11026,"##tariamente":11027,"off":11028,"trato":11029,"morais":11030,"gac":11031,"claras":11032,"reiniciada":11033,"toma":11034,"àquele":11035,"protegidos":11036,"microcomputador":11037,"parafiscais":11038,"domingo":11039,"revistos":11040,"precisam":11041,"premeditada":11042,"presteza":11043,"pou":11044,"entendendo":11045,"maquinas":11046,"recomendados":11047,"passageiro":11048,"casca":11049,"parafuso":11050,"cães":11051,"publicadas":11052,"abastecimentos":11053,"##cr":11054,"##átr":11055,"inval":11056,"repetidas":11057,"puri":11058,"padronizados":11059,"excelência":11060,"largo":11061,"pron":11062,"term":11063,"##ístico":11064,"lanchonete":11065,"bandeja":11066,"notícias":11067,"referenciais":11068,"recebeu":11069,"batalha":11070,"microcomputadores":11071,"bancada":11072,"monoc":11073,"reis":11074,"originariamente":11075,"irri":11076,"recru":11077,"pleitos":11078,"avançado":11079,"cho":11080,"arcará":11081,"bim":11082,"deson":11083,"existindo":11084,"bord":11085,"encontrado":11086,"acordadas":11087,"ouro":11088,"convidados":11089,"setrans":11090,"fulcro":11091,"cerimonial":11092,"##ixos":11093,"epóx":11094,"comprometem":11095,"##onato":11096,"acolhida":11097,"estatística":11098,"##ml":11099,"contran":11100,"ajustar":11101,"alerta":11102,"premiss":11103,"floresta":11104,"complementos":11105,"aditivado":11106,"polic":11107,"envolvida":11108,"isoladamente":11109,"acrescida":11110,"alh":11111,"hipólito":11112,"adaptador":11113,"disjuntor":11114,"##gular":11115,"desarmada":11116,"retra":11117,"jún":11118,"##acao":11119,"##istema":11120,"agendado":11121,"alocar":11122,"renovada":11123,"hdmi":11124,"standar":11125,"prolon":11126,"instruído":11127,"pericul":11128,"patr":11129,"recomendação":11130,"competindo":11131,"avençado":11132,"compartimento":11133,"fiscalizados":11134,"estruturais":11135,"moviment":11136,"murici":11137,"proibido":11138,"##trução":11139,"brigada":11140,"caut":11141,"aceitáveis":11142,"geradas":11143,"divididos":11144,"pares":11145,"##edos":11146,"posições":11147,"aquecimento":11148,"aragua":11149,"educativo":11150,"enlace":11151,"##man":11152,"inep":11153,"milag":11154,"recolhimentos":11155,"amarante":11156,"epóxi":11157,"monetariamente":11158,"remotamente":11159,"consórcios":11160,"##verde":11161,"##dul":11162,"esclarecido":11163,"bolsos":11164,"fotografia":11165,"sobressalentes":11166,"rl":11167,"santar":11168,"luva":11169,"clus":11170,"caju":11171,"contain":11172,"ifes":11173,"propriedades":11174,"ganh":11175,"consignada":11176,"júnior":11177,"chuva":11178,"##inagem":11179,"emater":11180,"firmware":11181,"selecionados":11182,"orto":11183,"currais":11184,"prejudiciais":11185,"##prestação":11186,"milagres":11187,"##goes":11188,"encerrados":11189,"açú":11190,"bito":11191,"monteiro":11192,"funcionando":11193,"lâmina":11194,"santarém":11195,"conceitos":11196,"compressão":11197,"hidr":11198,"marcados":11199,"constituirá":11200,"jorge":11201,"coberto":11202,"prestadoras":11203,"mach":11204,"hemoc":11205,"crs":11206,"comprometa":11207,"corrigida":11208,"reper":11209,"##xi":11210,"necessite":11211,"oferecendo":11212,"diagnósticos":11213,"intrans":11214,"carroceria":11215,"completas":11216,"perfura":11217,"estender":11218,"adulter":11219,"##cular":11220,"colaborador":11221,"tarifação":11222,"nutricional":11223,"##toriais":11224,"pleito":11225,"continuar":11226,"transmiss":11227,"impossibilita":11228,"renuncia":11229,"stfc":11230,"##can":11231,"##fra":11232,"certi":11233,"esquerdo":11234,"##teres":11235,"filtra":11236,"odontologia":11237,"embarcação":11238,"provocado":11239,"##guarda":11240,"ministrado":11241,"reabertura":11242,"paje":11243,"prospecto":11244,"açúcar":11245,"penit":11246,"hipo":11247,"##éncia":11248,"gerada":11249,"divulgados":11250,"carregador":11251,"formada":11252,"blin":11253,"pormen":11254,"explíci":11255,"veloso":11256,"investid":11257,"fidelidade":11258,"disciplinas":11259,"medicinais":11260,"temperaturas":11261,"dita":11262,"roteadores":11263,"##ía":11264,"banestes":11265,"anormal":11266,"ns":11267,"adendo":11268,"justos":11269,"nomin":11270,"parana":11271,"escusos":11272,"##gente":11273,"modelagem":11274,"aparecida":11275,"instrutor":11276,"automatizado":11277,"mangueiras":11278,"silic":11279,"##ional":11280,"inserida":11281,"frustrar":11282,"noti":11283,"inconvenientes":11284,"tens":11285,"ceis":11286,"inviol":11287,"esmal":11288,"integralidade":11289,"fres":11290,"it":11291,"substitutos":11292,"alocada":11293,"lona":11294,"pls":11295,"triângulo":11296,"portelas":11297,"teclas":11298,"esperados":11299,"##dmio":11300,"máximas":11301,"pran":11302,"exigem":11303,"ufjf":11304,"correg":11305,"diminui":11306,"empatadas":11307,"cádmio":11308,"obrigatórias":11309,"lap":11310,"outrossim":11311,"chagas":11312,"##calcul":11313,"armado":11314,"garagem":11315,"contempladas":11316,"remeter":11317,"##izadores":11318,"nomeada":11319,"##ãe":11320,"##wer":11321,"##ç":11322,"passiva":11323,"sugestões":11324,"subsecre":11325,"descontados":11326,"##mensionamento":11327,"extraordinários":11328,"readequação":11329,"conselheiros":11330,"analítico":11331,"intransfer":11332,"lavrar":11333,"emanadas":11334,"cientes":11335,"suplementar":11336,"deduzido":11337,"perdurar":11338,"excluída":11339,"trifás":11340,"construções":11341,"veiculos":11342,"retificações":11343,"construído":11344,"ordinárias":11345,"colh":11346,"##ont":11347,"penitenci":11348,"##grafias":11349,"químicas":11350,"manufaturado":11351,"pneum":11352,"pecuniária":11353,"mc":11354,"ramos":11355,"reven":11356,"plo":11357,"companheiro":11358,"ocupante":11359,"vermelho":11360,"sme":11361,"incapa":11362,"##eg":11363,"##ario":11364,"corrigidas":11365,"significativos":11366,"prom":11367,"##irel":11368,"inservíveis":11369,"silicone":11370,"cinqu":11371,"##doso":11372,"cabec":11373,"detectado":11374,"negativo":11375,"celebrados":11376,"administrar":11377,"exatamente":11378,"bacter":11379,"nomear":11380,"excluídos":11381,"##ubs":11382,"burocrá":11383,"melo":11384,"incalcul":11385,"logradouros":11386,"terapia":11387,"roberto":11388,"poliure":11389,"lou":11390,"reen":11391,"srte":11392,"identificará":11393,"consolidado":11394,"comparativo":11395,"qualitativos":11396,"menção":11397,"pens":11398,"vieira":11399,"antecipação":11400,"inseridas":11401,"cotada":11402,"contiver":11403,"##inado":11404,"vpn":11405,"oferece":11406,"medidos":11407,"potenciais":11408,"reportar":11409,"fei":11410,"indiv":11411,"usualmente":11412,"estudante":11413,"alcançados":11414,"pesadas":11415,"retido":11416,"regulamentadora":11417,"cunha":11418,"##far":11419,"nossos":11420,"interferência":11421,"tramitação":11422,"sobrecar":11423,"supracitada":11424,"computados":11425,"circunstanciada":11426,"fundamenta":11427,"legislativo":11428,"derivadas":11429,"nunca":11430,"land":11431,"acompanhando":11432,"correspondências":11433,"##ocs":11434,"autores":11435,"lour":11436,"periculosidade":11437,"planejar":11438,"vacinas":11439,"mour":11440,"##ping":11441,"atmos":11442,"envolvem":11443,"cldf":11444,"aparência":11445,"explica":11446,"contrapartida":11447,"zin":11448,"volts":11449,"braço":11450,"lcd":11451,"clor":11452,"projetada":11453,"econômicas":11454,"fernandes":11455,"lent":11456,"casado":11457,"extremidade":11458,"temporário":11459,"flux":11460,"videoconferência":11461,"completar":11462,"andra":11463,"##gdes":11464,"##íss":11465,"denominação":11466,"incompatibilidade":11467,"possibilidades":11468,"rohs":11469,"pedra":11470,"consultor":11471,"descartados":11472,"medicinal":11473,"perícia":11474,"motivados":11475,"fechadura":11476,"##eric":11477,"subordinação":11478,"rejeitada":11479,"licitatória":11480,"##mentes":11481,"contê":11482,"alça":11483,"resulte":11484,"##polis":11485,"arraial":11486,"imprim":11487,"interpretadas":11488,"veterinária":11489,"adaptadores":11490,"##gueira":11491,"anexando":11492,"ambulatorial":11493,"cinquenta":11494,"laran":11495,"vont":11496,"##creve":11497,"esquerda":11498,"acel":11499,"contêin":11500,"autorizando":11501,"concordar":11502,"anunci":11503,"facultativa":11504,"sv":11505,"##gnos":11506,"ceasa":11507,"desativ":11508,"gramatura":11509,"capacidades":11510,"concorrente":11511,"atribuída":11512,"explicitado":11513,"vigésimo":11514,"desob":11515,"tamboril":11516,"tradutor":11517,"postagem":11518,"beneficiar":11519,"preconiza":11520,"titularidade":11521,"arcoverde":11522,"trabalhado":11523,"vistori":11524,"fraudul":11525,"diagra":11526,"ulti":11527,"arquivamento":11528,"##ína":11529,"previsões":11530,"criada":11531,"reflex":11532,"coe":11533,"##icais":11534,"blindado":11535,"##ímp":11536,"mãe":11537,"contração":11538,"escolhido":11539,"acionada":11540,"ministérios":11541,"extraídos":11542,"compreenderá":11543,"##icultura":11544,"rigoroso":11545,"fepis":11546,"cvm":11547,"fluvial":11548,"##erar":11549,"indique":11550,"firmas":11551,"##bone":11552,"restrito":11553,"desmobilização":11554,"indivídu":11555,"cras":11556,"programática":11557,"filiais":11558,"redundância":11559,"obrigados":11560,"limitadas":11561,"jaic":11562,"gs":11563,"##dagens":11564,"sentença":11565,"dnocs":11566,"pn":11567,"capas":11568,"incalculáveis":11569,"lici":11570,"pedes":11571,"submer":11572,"tria":11573,"##ancia":11574,"##dantes":11575,"leitor":11576,"produtiva":11577,"necessitando":11578,"ll":11579,"concorrer":11580,"selecionadas":11581,"jaicós":11582,"##̃es":11583,"manchas":11584,"altera":11585,"##ntura":11586,"pane":11587,"cavalc":11588,"top":11589,"lança":11590,"tx":11591,"enquadrado":11592,"verifiquem":11593,"representam":11594,"acadêmica":11595,"camisetas":11596,"dra":11597,"confirmado":11598,"limitações":11599,"esgotos":11600,"hierá":11601,"ka":11602,"adesiva":11603,"portáteis":11604,"codesp":11605,"configurados":11606,"implantado":11607,"disporá":11608,"frequente":11609,"btus":11610,"##uclear":11611,"hen":11612,"##inar":11613,"perno":11614,"considerará":11615,"encontro":11616,"deliberação":11617,"poliespor":11618,"mapeamento":11619,"desclassificando":11620,"reconhecidos":11621,"##pios":11622,"alagoinha":11623,"subestações":11624,"##ange":11625,"poda":11626,"convocando":11627,"dirceu":11628,"poliuretano":11629,"seletiva":11630,"contraprestação":11631,"mapas":11632,"tapu":11633,"mudas":11634,"##fícil":11635,"dh":11636,"execut":11637,"munido":11638,"srrf":11639,"difícil":11640,"providos":11641,"reprovação":11642,"fepiserh":11643,"poeira":11644,"reconhecidas":11645,"arrolados":11646,"colch":11647,"mad":11648,"##jm":11649,"pach":11650,"requisitada":11651,"conseguinte":11652,"relacionar":11653,"frac":11654,"portadora":11655,"rc":11656,"cometi":11657,"hot":11658,"ensejo":11659,"cip":11660,"##ez":11661,"ghz":11662,"hídricos":11663,"abster":11664,"insatisfatórios":11665,"##fn":11666,"adendos":11667,"medir":11668,"situadas":11669,"enxo":11670,"eletronuclear":11671,"revisto":11672,"construída":11673,"universal":11674,"gado":11675,"piloto":11676,"manterão":11677,"requerente":11678,"letivo":11679,"tapuio":11680,"oit":11681,"revesti":11682,"cms":11683,"semanalmente":11684,"supracitados":11685,"##exa":11686,"ressarcidos":11687,"líder":11688,"flash":11689,"refrigerante":11690,"smp":11691,"constatados":11692,"imr":11693,"provision":11694,"pronunci":11695,"##jamento":11696,"antecedentes":11697,"estre":11698,"demora":11699,"trimestralmente":11700,"##emar":11701,"sódio":11702,"ideal":11703,"petro":11704,"vacin":11705,"congel":11706,"pedagógico":11707,"demolição":11708,"cometimento":11709,"ostens":11710,"trajeto":11711,"restringir":11712,"sagra":11713,"lamin":11714,"exceções":11715,"autorizo":11716,"financeiramente":11717,"rádios":11718,"cura":11719,"admitirá":11720,"apólices":11721,"servigos":11722,"licitada":11723,"excetuando":11724,"##din":11725,"importado":11726,"exmo":11727,"banho":11728,"cluster":11729,"hr":11730,"##étricos":11731,"inutil":11732,"supl":11733,"totalizem":11734,"disponha":11735,"aritmética":11736,"ipiranga":11737,"tecnológicas":11738,"flexibilidade":11739,"vontade":11740,"sextas":11741,"vl":11742,"##gadores":11743,"multiplicação":11744,"travamento":11745,"ameaças":11746,"protótipo":11747,"societário":11748,"wil":11749,"buil":11750,"interferências":11751,"determinará":11752,"selecionada":11753,"##quím":11754,"regen":11755,"descrimin":11756,"privados":11757,"magistrados":11758,"corregedor":11759,"cens":11760,"##algo":11761,"wirel":11762,"##icular":11763,"chap":11764,"macapá":11765,"higiênico":11766,"honorários":11767,"intransferível":11768,"serin":11769,"superficial":11770,"utilizá":11771,"mecânicas":11772,"deixe":11773,"inabilitados":11774,"suspenderá":11775,"contabilização":11776,"asa":11777,"interf":11778,"acompanham":11779,"gramas":11780,"siape":11781,"fiação":11782,"ouvid":11783,"assemelh":11784,"ecol":11785,"deser":11786,"##gress":11787,"sedes":11788,"infusão":11789,"vão":11790,"solicitantes":11791,"instituídos":11792,"provocar":11793,"agilizar":11794,"vivo":11795,"suest":11796,"providenciado":11797,"inequ":11798,"operando":11799,"filme":11800,"deram":11801,"ótica":11802,"declarará":11803,"ifmg":11804,"preenchidas":11805,"consci":11806,"frag":11807,"nobreaks":11808,"envolver":11809,"isolante":11810,"fidalgo":11811,"aderir":11812,"dataprev":11813,"primas":11814,"logs":11815,"slo":11816,"##cta":11817,"##tebol":11818,"amass":11819,"campina":11820,"monocrom":11821,"inequív":11822,"permitem":11823,"coletor":11824,"culmin":11825,"##dando":11826,"##ff":11827,"tse":11828,"nove":11829,"esperança":11830,"sch":11831,"gratuito":11832,"desembara":11833,"##dá":11834,"revi":11835,"##rezas":11836,"especialista":11837,"visitou":11838,"torres":11839,"volunt":11840,"benedi":11841,"participarem":11842,"plug":11843,"remédios":11844,"secagem":11845,"executarão":11846,"praticada":11847,"tomador":11848,"hiper":11849,"ético":11850,"seguirem":11851,"diretiva":11852,"criter":11853,"certificando":11854,"enseja":11855,"governança":11856,"complementá":11857,"empreendedor":11858,"insanáveis":11859,"lab":11860,"solidez":11861,"##tipos":11862,"reconsideração":11863,"promotora":11864,"excesso":11865,"desliz":11866,"##zado":11867,"anel":11868,"optantes":11869,"fornecedoras":11870,"wireless":11871,"alcançado":11872,"renuncie":11873,"hat":11874,"atuando":11875,"sofridos":11876,"##gou":11877,"coerentes":11878,"duplex":11879,"podera":11880,"implementos":11881,"standard":11882,"##tidas":11883,"ufgd":11884,"licenciado":11885,"betânia":11886,"televisão":11887,"revogada":11888,"alexand":11889,"plásticas":11890,"andrade":11891,"excedentes":11892,"direita":11893,"creci":11894,"mente":11895,"elástico":11896,"bov":11897,"pimenteiras":11898,"##idando":11899,"dirigir":11900,"entorno":11901,"desgastes":11902,"subscrita":11903,"deterioração":11904,"viçosa":11905,"##eição":11906,"pretenda":11907,"bid":11908,"despor":11909,"##rinho":11910,"proferida":11911,"depreciação":11912,"fotográfico":11913,"bif":11914,"leitos":11915,"amarelo":11916,"##etes":11917,"cristino":11918,"hema":11919,"pormenor":11920,"pcm":11921,"mãos":11922,"inexiste":11923,"##érs":11924,"assumem":11925,"portela":11926,"ctps":11927,"festiv":11928,"arru":11929,"pneu":11930,"peculiares":11931,"set":11932,"poltro":11933,"processados":11934,"fração":11935,"regulamentado":11936,"##cionistas":11937,"topo":11938,"requisitar":11939,"##ingó":11940,"adobe":11941,"duro":11942,"cagece":11943,"recebendo":11944,"notificando":11945,"morte":11946,"rt":11947,"constitutivos":11948,"preciso":11949,"##idem":11950,"finalísticas":11951,"fronteiras":11952,"cancelada":11953,"pacheco":11954,"cód":11955,"ifsc":11956,"estranhos":11957,"cgt":11958,"prerrogativa":11959,"substituirá":11960,"telhas":11961,"responsabilizada":11962,"exercerá":11963,"improc":11964,"pajeú":11965,"compressores":11966,"acrílica":11967,"sap":11968,"fechaduras":11969,"preca":11970,"controvérs":11971,"delim":11972,"alfab":11973,"pressupostos":11974,"##vado":11975,"advindas":11976,"triagem":11977,"eixos":11978,"embara":11979,"bruto":11980,"fernando":11981,"intempé":11982,"quinzen":11983,"múltiplos":11984,"##ell":11985,"traço":11986,"disciplinam":11987,"sábado":11988,"junior":11989,"resíduo":11990,"possibilitará":11991,"abrevi":11992,"comit":11993,"estivesse":11994,"csll":11995,"##aros":11996,"desejar":11997,"minimamente":11998,"ubs":11999,"##ore":12000,"sanada":12001,"aproximadas":12002,"persistindo":12003,"ibm":12004,"territorial":12005,"mús":12006,"nogueira":12007,"anom":12008,"##lac":12009,"firm":12010,"##antar":12011,"insetos":12012,"locat":12013,"considerações":12014,"examinado":12015,"bilhetagem":12016,"escritórios":12017,"inscritas":12018,"insalubridade":12019,"desratização":12020,"##encar":12021,"##idenciais":12022,"inserido":12023,"votação":12024,"terceirizada":12025,"poup":12026,"emitindo":12027,"darão":12028,"formulado":12029,"detenha":12030,"acionado":12031,"coordenadora":12032,"transferidos":12033,"ventilador":12034,"corrido":12035,"desistente":12036,"futebol":12037,"graf":12038,"receberão":12039,"xls":12040,"##ribuição":12041,"reabilita":12042,"odontológica":12043,"smartp":12044,"bb":12045,"##gé":12046,"##vê":12047,"mineiro":12048,"banheiro":12049,"defeituosas":12050,"presum":12051,"racional":12052,"controlado":12053,"ultras":12054,"examinada":12055,"fsc":12056,"eximin":12057,"índio":12058,"bico":12059,"ponte":12060,"maci":12061,"cabina":12062,"anomal":12063,"legí":12064,"caps":12065,"enunciadas":12066,"eximindo":12067,"##bar":12068,"regência":12069,"##etários":12070,"perspec":12071,"intermediação":12072,"classes":12073,"ouvidoria":12074,"nomeados":12075,"reputar":12076,"cajueiro":12077,"aderente":12078,"atóxico":12079,"##óis":12080,"símb":12081,"adolescentes":12082,"redon":12083,"reciclados":12084,"desempenhadas":12085,"habilidades":12086,"##qual":12087,"##ilândia":12088,"bolsas":12089,"##orn":12090,"demonstrem":12091,"personalizados":12092,"amarela":12093,"eletroeletrôn":12094,"ufpe":12095,"decorrida":12096,"##ômica":12097,"favorável":12098,"##tinas":12099,"sensibilidade":12100,"##anha":12101,"forças":12102,"descritivos":12103,"coberta":12104,"tonel":12105,"suci":12106,"simplício":12107,"imprevistas":12108,"caxingó":12109,"existam":12110,"##ides":12111,"eduardo":12112,"modificar":12113,"burocráticos":12114,"entendimentos":12115,"incol":12116,"metais":12117,"liso":12118,"##erais":12119,"##rique":12120,"transcorrerá":12121,"fria":12122,"chan":12123,"grossa":12124,"proceda":12125,"##itárias":12126,"inteirar":12127,"veterinário":12128,"investidura":12129,"##istirem":12130,"álv":12131,"appliance":12132,"meia":12133,"capace":12134,"oportuna":12135,"cantina":12136,"intempéries":12137,"desequilíbrio":12138,"tomado":12139,"tratadas":12140,"depende":12141,"gavetas":12142,"brito":12143,"lentidão":12144,"dro":12145,"equipar":12146,"colorida":12147,"ign":12148,"polos":12149,"fracass":12150,"##tuo":12151,"regeneração":12152,"mangas":12153,"pmma":12154,"cosan":12155,"##cet":12156,"observa":12157,"medal":12158,"mulheres":12159,"prateleiras":12160,"contemple":12161,"anexas":12162,"autorais":12163,"retang":12164,"pinheiro":12165,"##ural":12166,"ultrapassado":12167,"catalo":12168,"consubs":12169,"aprimoramento":12170,"buffet":12171,"##ecemos":12172,"lanche":12173,"testados":12174,"gigabit":12175,"consubstanci":12176,"aditamentos":12177,"conceição":12178,"##tizar":12179,"conduzidos":12180,"sequencial":12181,"vicente":12182,"prestarão":12183,"##age":12184,"descontando":12185,"capacitar":12186,"##ocup":12187,"costuras":12188,"vetores":12189,"vulnerabilidades":12190,"##ser":12191,"zelo":12192,"ausências":12193,"submód":12194,"enlaces":12195,"mangueira":12196,"positivo":12197,"brinqu":12198,"obrigadas":12199,"clipping":12200,"previsíveis":12201,"crime":12202,"susep":12203,"eleva":12204,"portabilidade":12205,"acondicionadas":12206,"buchas":12207,"backbone":12208,"farmacêutico":12209,"jatobá":12210,"fluxos":12211,"cosanpa":12212,"##cons":12213,"bota":12214,"free":12215,"acondicionada":12216,"escalas":12217,"sucessores":12218,"##magné":12219,"demandar":12220,"medidores":12221,"embalado":12222,"mpf":12223,"colorido":12224,"vegetal":12225,"reciclado":12226,"invas":12227,"##pao":12228,"corrida":12229,"consultados":12230,"conferidas":12231,"sql":12232,"arr":12233,"substanci":12234,"formalizando":12235,"consistência":12236,"ulterior":12237,"renováveis":12238,"programados":12239,"removível":12240,"ruídos":12241,"##rões":12242,"profession":12243,"plenos":12244,"pinos":12245,"inúm":12246,"apresentarão":12247,"capitania":12248,"##odoro":12249,"roda":12250,"executora":12251,"formados":12252,"orgânica":12253,"tp":12254,"atentando":12255,"usada":12256,"muitos":12257,"rodap":12258,"eletromec":12259,"pluviais":12260,"variados":12261,"prefeita":12262,"criminais":12263,"professional":12264,"terapê":12265,"promovidos":12266,"curta":12267,"comercializar":12268,"difus":12269,"han":12270,"manifestarem":12271,"silv":12272,"readequada":12273,"ressarcido":12274,"remetida":12275,"fla":12276,"supr":12277,"carência":12278,"servicos":12279,"corporativos":12280,"encarregados":12281,"tentativa":12282,"ev":12283,"##alo":12284,"mercant":12285,"desperdício":12286,"empréstimo":12287,"scrip":12288,"restos":12289,"residenciais":12290,"limitados":12291,"emergências":12292,"mpe":12293,"substitui":12294,"##queta":12295,"similaridade":12296,"mecanizado":12297,"rondon":12298,"nd":12299,"acordada":12300,"multila":12301,"comem":12302,"inb":12303,"diagnos":12304,"hábeis":12305,"enferm":12306,"aposent":12307,"utilizem":12308,"opcional":12309,"vegetação":12310,"justifique":12311,"empreendimentos":12312,"dígitos":12313,"lâmpada":12314,"secundário":12315,"##ínico":12316,"assegurem":12317,"patos":12318,"temporal":12319,"convid":12320,"crítica":12321,"exaradas":12322,"confront":12323,"##ticais":12324,"visc":12325,"##itadas":12326,"landri":12327,"resultando":12328,"relevo":12329,"bucal":12330,"decidindo":12331,"readequados":12332,"desvios":12333,"##copia":12334,"controlada":12335,"desmobil":12336,"cabeceiras":12337,"tabul":12338,"olímp":12339,"dila":12340,"contorno":12341,"##dft":12342,"bastante":12343,"destruição":12344,"regulamentar":12345,"alternativo":12346,"candidato":12347,"vencer":12348,"montadora":12349,"resgate":12350,"corpos":12351,"##correm":12352,"visor":12353,"prevendo":12354,"produzidas":12355,"solv":12356,"desclassificará":12357,"irpj":12358,"subsecretaria":12359,"vac":12360,"identifiquem":12361,"pátio":12362,"contrariem":12363,"cession":12364,"##veiro":12365,"esplan":12366,"diversa":12367,"assistenciais":12368,"##ctor":12369,"cbtu":12370,"discrepância":12371,"lanterna":12372,"##aso":12373,"leva":12374,"esf":12375,"resistentes":12376,"rasura":12377,"##oresc":12378,"horti":12379,"racks":12380,"##ísticos":12381,"reagente":12382,"caja":12383,"impedidos":12384,"##angu":12385,"inalter":12386,"ufc":12387,"corregedoria":12388,"uti":12389,"vc":12390,"paula":12391,"##itidos":12392,"impeditivas":12393,"palavras":12394,"cats":12395,"nutricionista":12396,"frascos":12397,"snmp":12398,"##ói":12399,"lesivo":12400,"revestimentos":12401,"ufsc":12402,"voos":12403,"esplanada":12404,"promova":12405,"redenção":12406,"##qn":12407,"ifam":12408,"rodovias":12409,"copeira":12410,"##sem":12411,"colaboração":12412,"poupança":12413,"conectado":12414,"mera":12415,"##icro":12416,"adjac":12417,"alegrete":12418,"censi":12419,"tóx":12420,"conveni":12421,"##çâo":12422,"submódulo":12423,"pant":12424,"##tuário":12425,"parlamentar":12426,"improrrogável":12427,"noci":12428,"consultado":12429,"mprj":12430,"criminalmente":12431,"desconformidades":12432,"mourão":12433,"alencar":12434,"ufcg":12435,"list":12436,"sti":12437,"dirigidas":12438,"estrito":12439,"trigésimo":12440,"tos":12441,"sep":12442,"##valente":12443,"digitalizados":12444,"tradicional":12445,"utf":12446,"##olos":12447,"##ancho":12448,"mantenham":12449,"##ranças":12450,"etp":12451,"associado":12452,"atribuídos":12453,"velcro":12454,"entregando":12455,"##namental":12456,"censipam":12457,"tia":12458,"aplique":12459,"continuamente":12460,"complemento":12461,"gua":12462,"geográfica":12463,"falso":12464,"##reiro":12465,"expostas":12466,"acontecido":12467,"funciona":12468,"assistencial":12469,"instant":12470,"personalizado":12471,"inclinação":12472,"baú":12473,"##olog":12474,"discriminativa":12475,"##icarb":12476,"bocaina":12477,"##iel":12478,"juntando":12479,"##ífic":12480,"gol":12481,"tido":12482,"atua":12483,"aprova":12484,"ressalva":12485,"capacitada":12486,"refeitório":12487,"spo":12488,"##work":12489,"dosagem":12490,"cpu":12491,"desobri":12492,"upgra":12493,"socioambi":12494,"eventualidade":12495,"##tecn":12496,"induz":12497,"nacionalidade":12498,"acabamentos":12499,"roteamento":12500,"##direm":12501,"socorr":12502,"box":12503,"cru":12504,"perd":12505,"##ivasf":12506,"agregados":12507,"juridica":12508,"henrique":12509,"jer":12510,"marí":12511,"##san":12512,"##chi":12513,"conferindo":12514,"ee":12515,"adiant":12516,"capina":12517,"moc":12518,"##ativos":12519,"setent":12520,"univasf":12521,"purific":12522,"solen":12523,"descarreg":12524,"semestral":12525,"##boa":12526,"utfpr":12527,"tome":12528,"##icarbonato":12529,"dede":12530,"arro":12531,"arquiteto":12532,"devam":12533,"almira":12534,"subsistema":12535,"imprimir":12536,"alimento":12537,"coletas":12538,"cateter":12539,"equipados":12540,"dade":12541,"eb":12542,"##raç":12543,"##alizador":12544,"criado":12545,"fixas":12546,"app":12547,"##pante":12548,"importe":12549,"ligado":12550,"estatísticas":12551,"prontu":12552,"feminino":12553,"##úna":12554,"retr":12555,"##domin":12556,"opta":12557,"ufms":12558,"estrangeiro":12559,"didáticos":12560,"brejo":12561,"traj":12562,"marcado":12563,"esquadrão":12564,"cjf":12565,"##iscipl":12566,"isolados":12567,"instaurado":12568,"vicinal":12569,"concepção":12570,"blinda":12571,"roteador":12572,"currículo":12573,"abor":12574,"visibilidade":12575,"órtes":12576,"compreendidos":12577,"particularidades":12578,"introdução":12579,"ângulo":12580,"impedindo":12581,"firmino":12582,"resultará":12583,"bandejas":12584,"hut":12585,"perici":12586,"desejado":12587,"regi":12588,"ais":12589,"porcent":12590,"##ilar":12591,"##point":12592,"insatisfatória":12593,"machado":12594,"fub":12595,"designadas":12596,"rotula":12597,"transmitir":12598,"prático":12599,"exibir":12600,"ifa":12601,"##cora":12602,"prontos":12603,"oitenta":12604,"giro":12605,"retomada":12606,"carnes":12607,"sed":12608,"aproximada":12609,"##ty":12610,"mundo":12611,"modem":12612,"removidos":12613,"resci":12614,"pertencer":12615,"pontas":12616,"construtivos":12617,"compatibil":12618,"bitola":12619,"cana":12620,"domiciliares":12621,"##tativas":12622,"##idamente":12623,"pedá":12624,"revestida":12625,"ofícios":12626,"dourados":12627,"roço":12628,"testar":12629,"ordenadas":12630,"majoritário":12631,"##elado":12632,"celebrada":12633,"recuse":12634,"intermunicipal":12635,"explos":12636,"indefer":12637,"providência":12638,"subcontratado":12639,"icp":12640,"tiveram":12641,"sfa":12642,"emap":12643,"oportunidades":12644,"jantar":12645,"##contratual":12646,"comercio":12647,"preventivo":12648,"metrologia":12649,"idênticos":12650,"normalização":12651,"estratégica":12652,"interrompido":12653,"tjpi":12654,"exaustão":12655,"ay":12656,"lados":12657,"##pal":12658,"gama":12659,"mostrar":12660,"almirante":12661,"faturados":12662,"pactuada":12663,"##mol":12664,"proporcionalmente":12665,"greve":12666,"pick":12667,"system":12668,"##paf":12669,"##mbio":12670,"gabinetes":12671,"imobili":12672,"contemplado":12673,"##endam":12674,"fones":12675,"freire":12676,"velocidades":12677,"doe":12678,"prescreve":12679,"fardamentos":12680,"alteradas":12681,"pcmso":12682,"##pagem":12683,"##itariamente":12684,"destacando":12685,"inequívoca":12686,"cú":12687,"dpi":12688,"##ópri":12689,"portar":12690,"posturas":12691,"operacion":12692,"criterios":12693,"cajaz":12694,"poluição":12695,"inconsistências":12696,"caçamba":12697,"comitê":12698,"##urgo":12699,"selecionado":12700,"##gressos":12701,"gram":12702,"##âneo":12703,"secretari":12704,"pmj":12705,"lisboa":12706,"perícias":12707,"cumprem":12708,"icmbio":12709,"##tições":12710,"verticais":12711,"ati":12712,"##mentada":12713,"óculos":12714,"demãos":12715,"rapidez":12716,"inpc":12717,"##amb":12718,"##pin":12719,"##umes":12720,"contras":12721,"cord":12722,"balança":12723,"observarão":12724,"distribuir":12725,"semestralmente":12726,"bcb":12727,"ril":12728,"identifica":12729,"apontados":12730,"produza":12731,"##terá":12732,"diligenciar":12733,"ufsj":12734,"evolutiva":12735,"coletores":12736,"punidas":12737,"ininterruptos":12738,"imuno":12739,"incapacidade":12740,"gg":12741,"cofre":12742,"licenciados":12743,"uberlândia":12744,"arquitetônico":12745,"influência":12746,"criticidade":12747,"ocorreu":12748,"recebe":12749,"automotor":12750,"custear":12751,"restituídos":12752,"##diças":12753,"governamental":12754,"desclassificar":12755,"tornarem":12756,"relevadas":12757,"sugere":12758,"anivers":12759,"aceitando":12760,"limpar":12761,"prerrogativas":12762,"irrigação":12763,"conhecido":12764,"desktop":12765,"ner":12766,"##gáveis":12767,"##timentos":12768,"tratado":12769,"sondagem":12770,"harmon":12771,"neut":12772,"escritas":12773,"havidas":12774,"power":12775,"extraordinárias":12776,"agulhas":12777,"##lix":12778,"subl":12779,"##rava":12780,"adaptado":12781,"hub":12782,"cajazeiras":12783,"refl":12784,"viz":12785,"coma":12786,"##tral":12787,"fátima":12788,"adolescente":12789,"diagramação":12790,"##rações":12791,"termopl":12792,"rfc":12793,"cidadãos":12794,"##celos":12795,"dolos":12796,"produtores":12797,"proporciona":12798,"dedicada":12799,"motocicleta":12800,"instância":12801,"realizem":12802,"correm":12803,"associadas":12804,"isolação":12805,"nex":12806,"seca":12807,"freios":12808,"competitivo":12809,"mpa":12810,"disciplinado":12811,"escrituração":12812,"distâncias":12813,"digitalmente":12814,"elevada":12815,"fotografias":12816,"copo":12817,"influir":12818,"sata":12819,"produzida":12820,"melam":12821,"oo":12822,"sla":12823,"microprocess":12824,"trazendo":12825,"sobrevi":12826,"participaram":12827,"laje":12828,"##uls":12829,"boqu":12830,"submetem":12831,"revenda":12832,"discriminar":12833,"cestas":12834,"setenta":12835,"##dense":12836,"setoriais":12837,"nivelamento":12838,"multilateral":12839,"##menta":12840,"##gran":12841,"repassado":12842,"incompleta":12843,"entrevistas":12844,"declarante":12845,"englobando":12846,"ficou":12847,"saldá":12848,"demonstrativos":12849,"ifrj":12850,"suportados":12851,"clínicos":12852,"dissemin":12853,"nitro":12854,"pesagem":12855,"fluoresc":12856,"sindicatos":12857,"sicon":12858,"##hi":12859,"andr":12860,"iftm":12861,"costas":12862,"intervir":12863,"romp":12864,"##tps":12865,"luzilândia":12866,"medido":12867,"autônoma":12868,"masculino":12869,"comissões":12870,"inques":12871,"translado":12872,"racionalização":12873,"supre":12874,"fotocópia":12875,"##tia":12876,"topog":12877,"cumulativa":12878,"niter":12879,"pur":12880,"##gs":12881,"diferenciadas":12882,"escadas":12883,"##cópio":12884,"esmalte":12885,"acaso":12886,"cache":12887,"fundi":12888,"escada":12889,"niterói":12890,"policiais":12891,"eletricidade":12892,"cível":12893,"dê":12894,"recentes":12895,"processar":12896,"tribunais":12897,"rotulagem":12898,"cinda":12899,"dt":12900,"##íper":12901,"forneça":12902,"segmentos":12903,"arquivado":12904,"permissões":12905,"brandão":12906,"tornem":12907,"isoladas":12908,"disciplinar":12909,"jurisp":12910,"mostrando":12911,"tampas":12912,"ferrovi":12913,"signatários":12914,"##erado":12915,"mencionar":12916,"fracionamento":12917,"destinatário":12918,"##ecidas":12919,"trabalham":12920,"aparentes":12921,"coinci":12922,"cindacta":12923,"boqueirão":12924,"##tática":12925,"especialistas":12926,"félix":12927,"resumido":12928,"hemobrás":12929,"adultos":12930,"##bn":12931,"##mentaria":12932,"pertence":12933,"renovado":12934,"bnb":12935,"jardins":12936,"cascavel":12937,"esque":12938,"advo":12939,"filmagem":12940,"reitor":12941,"alfan":12942,"btu":12943,"##orado":12944,"convidadas":12945,"sobrecarga":12946,"indu":12947,"itau":12948,"braços":12949,"sao":12950,"##lin":12951,"cenários":12952,"fê":12953,"hexa":12954,"lond":12955,"enfrentamento":12956,"cavalcante":12957,"word":12958,"multid":12959,"promovidas":12960,"ups":12961,"locadora":12962,"confirmando":12963,"scanner":12964,"lançamentos":12965,"##anal":12966,"capo":12967,"latão":12968,"segreg":12969,"zíper":12970,"exclusões":12971,"obtiv":12972,"quantificação":12973,"tratamentos":12974,"entendida":12975,"averiguação":12976,"##ket":12977,"sureg":12978,"perpé":12979,"postes":12980,"antecipado":12981,"republ":12982,"lida":12983,"##liar":12984,"##lom":12985,"##gerpi":12986,"huma":12987,"anísio":12988,"estip":12989,"influenciar":12990,"emgerpi":12991,"exercidas":12992,"próximas":12993,"congêneres":12994,"pó":12995,"##abel":12996,"analisador":12997,"descargas":12998,"dilu":12999,"##tivel":13000,"armazenadas":13001,"reguladores":13002,"temperado":13003,"cdp":13004,"exemplifica":13005,"cima":13006,"##icao":13007,"##encias":13008,"rup":13009,"antena":13010,"epidem":13011,"reposi":13012,"climáticas":13013,"##binas":13014,"leds":13015,"preconizado":13016,"concederá":13017,"pista":13018,"##itam":13019,"manta":13020,"rub":13021,"excelente":13022,"##ence":13023,"constituídos":13024,"sementes":13025,"anexadas":13026,"##téis":13027,"filom":13028,"cronológica":13029,"presunção":13030,"omissas":13031,"fiscalizadores":13032,"remanufaturados":13033,"##total":13034,"suportado":13035,"gate":13036,"excessivo":13037,"diurno":13038,"interloc":13039,"detectada":13040,"eximir":13041,"apara":13042,"macro":13043,"simulação":13044,"reparados":13045,"rastreabilidade":13046,"art":13047,"##ifi":13048,"cisco":13049,"juvent":13050,"métricas":13051,"uv":13052,"##jetos":13053,"diversidade":13054,"##ncias":13055,"cardoso":13056,"##trito":13057,"históricos":13058,"##usm":13059,"cuidar":13060,"distribuidores":13061,"vasilhames":13062,"fri":13063,"agencia":13064,"realizarão":13065,"colher":13066,"aferido":13067,"levantados":13068,"subsistência":13069,"estr":13070,"anda":13071,"renato":13072,"pendentes":13073,"##andro":13074,"desmobilizações":13075,"vínculos":13076,"melamínico":13077,"encarregada":13078,"esquema":13079,"##aduras":13080,"prode":13081,"ifrs":13082,"suplente":13083,"represente":13084,"assid":13085,"imprópri":13086,"lgp":13087,"execuções":13088,"creche":13089,"restrinja":13090,"privacidade":13091,"situados":13092,"codhab":13093,"oral":13094,"ater":13095,"abastecer":13096,"absorção":13097,"vare":13098,"afete":13099,"##ôr":13100,"cruzeiro":13101,"##utir":13102,"escu":13103,"firmadas":13104,"telem":13105,"térmicas":13106,"ágil":13107,"jacar":13108,"assistencia":13109,"lgpd":13110,"anci":13111,"acos":13112,"wat":13113,"proposição":13114,"##tinho":13115,"faltos":13116,"juntar":13117,"cofres":13118,"advoca":13119,"proximidade":13120,"##essas":13121,"arbi":13122,"elise":13123,"ressaltando":13124,"subsidiárias":13125,"wan":13126,"bombeiro":13127,"autocla":13128,
[...]
